#version: 0.2
t h
н а
i n
th e
r e
o n
н и
т о
a n
т а
в а
р а
т е
a t
н о
д а
e n
р е
i s
с т
п о
з а
e r
н е
o r
a l
i on
к о
t o
e s
o f
к а
р о
i t
o u
an d
м е
р и
о т
r o
e d
с е
in g
a r
и те
ч е
и я
en t
i c
s t
л е
в е
л и
л а
a s
в о
п ре
l e
с ъ
т и
v e
д е
o m
м а
в и
о б
b e
p e
c t
с и
г о
м о
th at
п ро
в ъ
м и
ни е
i l
f or
д и
s e
at ion
д о
m ent
с к
l y
и з
w e
п а
d e
п е
г а
p ro
п ри
re s
ц и
c on
ни те
i m
щ е
з и
w h
ж е
n o
ва не
s u
в ро
ни я
но ст
h e
ра з
пре д
a re
л о
p o
ъ р
к и
п ра
с а
u ro
c e
l i
E uro
с та
c h
Euro pe
р я
ж а
u t
v er
h a
th is
r a
or t
s o
u n
l d
l o
i d
u l
вро пе
вропе й
p ort
c om
n e
a b
р у
с ка
ме н
r i
i th
ия та
ч и
a g
il l
w ith
e m
ш е
at e
Europe an
ч а
u r
a d
no t
g h
ou r
то ва
t er
k e
T he
л я
по д
на та
ha ve
ст и
c i
щ о
ou n
б е
ou ld
it y
t e
m o
ц е
ст во
a m
ко и
с то
те л
o p
б и
s ion
г и
i r
б ва
ря бва
вропей ск
a y
б ъ
i ve
с о
с но
д ър
u s
х о
2 0
дър жа
a c
ic h
с ле
w ill
г ра
ж да
о р
e x
wh ich
т рябва
t s
д у
кои то
es s
s h
al l
ъ л
u st
m e
ле н
ка то
i es
и н
a in
g e
въ р
b er
b y
в ите
ст ра
н я
е то
с по
ва т
щ а
f e
ъ т
ми с
C om
ж и
ц ия
m is
an t
въ з
Е вропейск
л но
q u
б о
от но
h as
в я
сле д
л ю
ване то
a ct
o l
the r
ние то
Европейск ия
к ти
es t
w or
К о
к ъ
ст ва
i f
ко н
er s
mis sion
бъ де
po s
ar t
ion s
х а
s i
ou t
l ic
t r
ре д
к ре
Com mission
ф и
en d
м но
го во
E U
g o
с ко
л у
T h
т у
з на
a p
да тел
не то
к то
c o
d o
m a
ci al
em ber
и ма
al so
ч лен
c oun
мис ията
ла мен
б а
re g
ко но
m an
U n
c r
st r
по ли
at es
к ра
un d
res id
f o
п и
b ut
on e
я т
но то
поли ти
i v
p l
ю з
з о
ar d
re e
t a
ва та
с у
Ко мисията
P resid
a ment
c an
си ч
ност та
съ юз
S t
ра н
ro m
re n
u re
ab le
M ember
w ould
W e
p art
the re
въ про
ver y
m ust
d u
f rom
ло же
c l
р ламен
ци а
ск и
де й
С ъ
an s
f in
sh ould
г у
щ и
в сич
к лю
мно го
пред се
b le
мо же
a u
в ни
t ri
ation s
къ м
с те
ne ed
I n
д ъл
Un ion
wor k
г ла
к ла
o d
Presid ent
p le
is t
e f
д об
ar li
v i
ж ду
it s
и ска
Т о
u d
предсе дател
у с
Е С
ко й
ко ето
arli ament
I t
c re
да т
е ди
ст ве
ic al
коно ми
ment s
e con
к ри
gh t
su p
im port
St ates
ou s
mo re
и кономи
ц ията
ме жду
d is
к у
то зи
пра ви
ct ion
ко я
c ess
an ce
ра б
р ъ
h o
be en
ска та
е д
ше ние
съ що
com m
fo re
коя то
P arliament
ic ul
под кре
or d
та ка
i re
econ om
t im
т ре
ци о
о сно
ла га
v o
Е вро
ве че
ци и
член ки
кой то
the ir
is h
y ou
a st
д ру
с во
раб от
ar y
в ре
re at
ве н
т ъ
g y
Евро па
p res
на н
всич ки
хо ди
та зи
ри те
p re
при е
Th is
те зи
t ed
it i
л ко
g r
p er
фи нан
п ъл
след ва
no w
с лу
ме р
г ле
мо ж
з е
и ли
в ия
ш а
ство то
p r
c y
въз мож
до кла
on g
o ther
al ly
по л
po lic
t ra
ве т
с ре
ка кто
ф ор
сто я
т ру
ра не
к ите
20 0
си гу
на й
o b
л ни
П а
ва ме
с об
ц а
in d
ф е
a ch
ation al
c es
wh o
for m
l l
П о
in t
То ва
с ме
w as
the se
ва ж
en s
k ing
ct ive
с пе
u m
c ur
M r
клю ч
чи та
държа ви
tri es
import ant
отно сно
li ke
ne w
g n
с я
it ies
f a
coun tries
be t
ре з
р т
le g
at ed
y e
sup port
ve lo
за що
velo p
бъ дат
it ion
п ла
f ic
ния та
u p
e v
c er
ter n
re port
om e
ст та
го ди
m ar
са мо
ка та
об ходи
до ста
au se
гра жда
т я
ва м
ag e
дей ст
op le
ск ите
the y
ч ни
lo w
s pe
t ing
en er
к т
ag ree
con t
j e
икономи че
il ity
с ред
държа вите
З а
е н
в се
c il
de velop
отно шение
Н а
Па рламен
ма та
gh ts
еди н
pe ople
р ност
ш и
econom ic
л ите
t y
en ce
C oun
д ни
раз ви
c ause
s er
ти ра
ща та
Coun cil
ч но
раз у
i al
пол з
ut ion
ab out
g u
не обходи
fin an
ре н
об ла
ин те
w ay
i a
л на
б ле
le ar
пре ди
по сти
ou gh
въпро с
ст ъ
ц ите
х у
e ve
ите лно
в но
20 1
tim e
ка к
f ul
s ome
ye ar
polic y
пред ложе
c ed
вре ме
o ver
е не
де н
це н
at ive
pro v
х ме
хо д
т ър
be cause
г на
com e
па за
we ver
pro pos
s a
tr ans
on ly
ge t
бе ше
ch an
ag ain
м я
е вропейск
бе з
л ните
съ ще
ско то
su re
wh at
т ите
от гово
is e
ac k
ст ру
l it
m s
Н е
o w
пред ста
at ing
об а
пре з
б ли
ren t
финан со
щ ите
га ран
th an
разу ме
as e
m y
ri ghts
em p
je ct
це л
п у
is su
und er
м ите
wh e
mar ke
го ля
ве та
c lear
з да
хо ра
d ay
съ м
in v
i p
и м
ви д
в ле
str u
про бле
по мо
u res
cr is
we en
со циа
bet ween
u b
подкре па
съ зда
па рламен
pe ct
as s
f und
ка за
ко га
на ро
0 0
pro du
про це
ви е
icul ar
finan cial
ор га
p on
h u
op er
пра во
u e
re l
Д о
а н
part icular
въ в
in e
in to
in te
su ch
s y
вропей ската
an y
ене р
cris is
стъ п
ic e
o se
о ще
докла д
s it
iti z
the m
сво бо
f act
t ain
i gh
из полз
ord er
о н
пре де
К а
ра зи
th ing
спо разуме
че ние
гла су
c itiz
д не
ре ги
га т
ня ма
po lit
вър ху
ф а
а з
am e
до ве
по вече
tr y
за щи
полити ка
e p
е м
d if
вите л
be li
фор ма
ta ke
м у
pro te
ma ke
si ble
разви ти
res pon
l a
in k
p ri
кри за
н у
цио на
m in
б ю
г не
во д
на чи
pres ent
a f
съ с
л ната
про дъл
ve l
de b
f ir
res s
де мо
в ръ
си сте
ра м
ко лко
ur al
ра ди
citiz ens
j ust
про из
ед на
en cy
гра ни
st em
there fore
i an
c us
гаран тира
ч о
полити че
да н
hu man
th ose
com p
in cl
е фе
re d
Европейския т
ра бо
so cial
ка з
me as
на д
ul t
se e
защо то
st it
qu est
de c
ub lic
beli eve
in tern
Парламен та
ard s
m on
л та
wh en
propos al
H o
ча ст
g ra
ener gy
marke t
ста но
t ion
стра на
polit ical
об ще
Ho wever
ност и
на ш
д же
а ко
pro ble
парламен т
чо ве
b as
sy stem
m ain
st and
ск ия
mo st
ч ните
раз ли
те н
ния т
дру ги
a ce
ра вни
о на
in cre
пра вата
не ние
be ing
стра ни
b o
x t
b al
re st
орга ни
icul t
man y
наро д
бю дже
ри о
again st
вя т
ct or
c ent
оба че
res ol
чита м
ефе кти
con s
п ът
из ме
su b
cer n
под об
le vel
u ation
в ните
тру дни
ef fe
необходи мо
reg ul
se l
Съ вета
iv es
ad d
ple ment
о преде
b ud
con cern
m ed
ра т
ла го
v ing
с вър
ле но
на стоя
демо кра
кога то
k s
r it
мо гат
пе н
i ous
u se
по тре
защи та
develop ment
стра те
ma de
d ire
m at
слу ча
we ll
тъ й
т ът
ла н
у пра
ou p
л ия
The re
ве те
б я
р та
се га
п ър
в на
в ключ
осно ва
ц я
съ трудни
re ad
тър го
e w
th ink
str ate
ч на
coun try
ед но
г ру
i de
сти ту
г ия
the n
В ъ
ра нето
meas ures
we re
за коно
s ay
ла та
в у
un ity
те х
agree ment
ut ure
m it
ре ше
g reat
e l
при лага
f i
whe re
ж о
oun d
is ion
п я
f uture
ro w
c all
начи н
пре доста
u al
ri ght
т ра
в то
im p
im plement
ab l
на прави
ad op
го спо
l ong
ver n
ци ите
k now
go vern
мер ки
go od
ня кои
con d
en sure
r ough
важ но
su m
сто й
б ор
тел но
т вър
прие ма
мен т
връ з
съще ст
на циона
b ility
по ложе
сто па
па з
sit uation
pe t
може м
Е вропейската
f ra
че н
ри я
cont in
не за
се л
re qu
if ic
ч рез
соб е
qu al
ча ва
у ве
vi ew
сре щ
з д
ap p
сътрудни че
о ста
te e
p ublic
ap pro
il d
тя х
ent ion
h igh
е вропей
т ран
n ational
oper ation
al th
w ant
и сти
is ation
из и
de mo
сред ства
th rough
се кто
н ци
ct s
рази ск
pos sible
на ма
рабо та
мен но
ic es
n er
в зе
развити е
въ н
годи ни
iv en
съ р
reg ard
bud get
fir st
б ите
se ctor
cur rent
ми на
sh ip
is m
A s
is ed
year s
is l
he l
о собе
at t
к та
щ ия
б лаго
e t
по след
deb ate
or s
p ut
вни ма
are a
свър за
и е
u ch
so l
е вро
ме ст
к ту
о сигу
si gn
he re
у лта
равни ще
ut ions
про ти
ser v
ab ility
lo y
cur ity
пра вител
ar ge
a k
hel p
Л и
до ва
раз гле
съ гла
би ра
s ame
e very
ce p
възмож ност
зо лю
инте ре
при чи
про ве
в от
работ ни
to day
ре а
p end
сигу рност
issu e
ev en
ля ва
зд ра
срещ у
пре ки
in form
i gn
f er
ви си
e le
из пъл
ми ни
leg isl
паза р
рез улта
ло ги
wor ld
обла стта
ин ститу
t i
чове ка
при мер
m en
гово ри
com pet
b r
th or
законо дател
re ed
comm it
пра ве
en g
помо щ
in stit
под ход
про ду
ус ло
v es
особе но
докла да
la w
W h
държа ва
мен та
ach i
въпро си
по ста
r y
ра ни
ма л
incl ud
reat y
po int
prote ction
при ят
f ar
връз ка
it e
v ir
can not
Commission er
l ess
па рт
наш ите
i g
ре золю
gra m
на сър
не нието
g ent
про гра
ста н
cer tain
ow n
read y
з во
спе циа
я сно
ta k
vo ted
ex t
resol ution
при нци
кон кре
t w
ж ите
да де
д на
to o
M ad
изи ск
re al
ho w
c our
chan ge
or y
финан си
fa v
inte rest
До гово
co operation
Th at
pro cess
b on
европейск ите
ле ние
стопа н
om en
р ни
vo te
intern ational
ex am
т но
leg al
ra p
ne cess
на ме
tri but
c ould
па с
т ро
se t
reg ion
т ни
ре кти
доб ре
произ вод
на пред
it ed
те ри
й на
res pect
ве то
зна чение
по лу
d ra
on ment
comm on
Mad am
se curity
20 20
emp loy
но ва
inv est
do es
st ill
pl ace
ъ к
г ен
Т рябва
re du
би х
p en
на ли
c ar
гражда ни
vir onment
m uch
ло жи
fic i
ко м
Е то
bo th
tw o
ent ial
ця ло
щ ност
зо ва
c ing
енер ги
c lo
a im
with in
те к
за дъл
ч у
за по
ви со
ин форма
не го
quest ion
n um
fav our
i le
ко ле
ра та
по зво
от вет
про е
сътрудниче ство
lo bal
ля т
ho pe
id er
ве сти
о пи
cr at
уве ли
то ч
за се
кон ку
au thor
е ле
go ti
200 9
б ра
st ate
ha p
p are
спо соб
на с
m i
it ions
че рта
su r
ре шение
упра вле
t en
T reaty
възмож но
lo c
ne goti
лно то
всич ко
ро ля
t al
стве но
we l
цио н
dis cus
из ключ
съ ответ
същест ву
en vironment
ill ion
cr im
in ter
по со
ф он
бъде ще
П ри
al ready
пред вид
пу бли
се рио
стру кту
но ви
ст ро
sion s
act ion
y our
с ро
ar ch
ин вести
ha d
я та
раз по
necess ary
з ви
р на
im ate
re as
дне с
j or
D E
на со
в ся
v al
И з
г ри
pro gram
ma jor
ста би
мен ти
in ci
d i
бе д
систе ма
конку рен
g an
има т
b an
strate gy
our ces
tra de
об съ
бя ха
Т е
as k
о ни
та м
ct ed
голя ма
dif fe
р ти
cour se
al low
споразуме ние
търго в
w omen
p ar
бор ба
мис ия
ст вие
mat ter
пъл но
so ci
sa fe
к ва
wh y
работ и
spe ci
га жи
l ast
к ли
op port
effe ctive
ur ther
гражда ните
pr inci
us ed
между народ
s ing
гру па
гласу ва
ro le
pos ition
въ ве
С ле
у си
cons ider
in iti
per i
в ната
C h
о ко
на ся
te xt
c ol
inform ation
he alth
abl ish
p ay
ан гажи
g row
П ред
d es
ре ди
c ase
въпро са
О т
incre as
in ce
pl an
хора та
по зи
ин стру
est ablish
н ь
раз я
иска л
g lobal
it ive
пред прият
ke y
годи на
потре бите
к е
ну жда
R e
tak en
con sum
r an
иска м
w er
об и
reas on
с вен
с ни
prov id
реги она
ur ing
requ ire
д ва
s s
g ener
при съ
ч лено
need s
A f
що то
num ber
are as
E N
че ни
v is
ли за
op en
парт нь
че ски
sa id
жи вот
ind ust
particular ly
j ob
пра ва
се н
ства та
подкре пя
Б и
con tribut
ня колко
да ли
201 0
with out
gr oup
има ме
да та
le ad
ря ване
Т а
stru ct
me work
с читам
т ри
под черта
inv ol
у н
pro mo
фор ми
ent s
у ча
об раз
ul es
по сле
w rit
д ите
es e
p ers
е ми
бо н
пра кти
кон тро
L is
Lis bon
го ле
то й
не н
благо да
са бон
ча ване
кра я
ус пе
reed om
о грани
по ло
Ли сабон
и ни
каз ва
re present
ou ra
st ain
ate ly
issu es
г от
ша та
продъл жа
ta x
проце ду
ка же
v ed
же н
с на
C on
же ла
cep t
изиск ва
г ламен
ac cess
исти на
проду кти
си ли
ol low
me ans
exam ple
ag r
in ation
proble ms
re co
ца та
дейст вие
sel f
fa ir
agr icult
si bility
европейск и
pri or
g ress
сте пен
да ва
it al
am end
ac coun
Н ие
жда не
Догово ра
u es
j o
ча т
f ac
р но
до пъл
же ние
доста тъ
n ing
employ ment
b en
отгово рност
на пример
въ тре
дейст вия
С е
пър во
демокра ти
instit utions
bet ter
proble m
А ко
свърза ни
str ong
тран спо
p ra
ament al
a id
econom y
te ch
стано вя
S o
pro ve
ма лко
пости гна
при зова
За това
ка жа
f reedom
qual ity
c ra
r is
M in
об е
Парламен тът
рам ките
c ap
специа лно
как во
о зна
циа ти
ме ста
for ce
б ър
gent le
до ри
ren g
пости гне
in ess
ef for
ди ректи
ver s
m ay
В а
зи ра
s p
gentle men
л ност
ту к
мя сто
с ите
gr ation
b us
1 9
ad ies
st reng
ва ря
виси мо
st ep
ter ms
pre v
о ча
lo o
фи ци
de pend
р ността
dif f
г ията
къ де
госпо да
ка н
fra mework
ar an
f ollow
at er
бе зо
о рите
ben ef
сре да
лан д
стой чи
ини циати
вън ш
ъ м
преди зви
r ules
includ ing
В и
li d
соб стве
pro ced
вет ства
c or
go ing
ус лу
информа ция
предста в
ле ни
осно вните
ful ly
секто р
ри м
con f
w ards
l ed
це ли
ter m
I f
F or
ser ious
управле ние
pro ject
e ur
m ember
г ите
пробле м
port eur
g ive
su c
положе ние
ра сте
серио з
w ard
тру д
res ources
vi de
внима ние
rap porteur
су р
cl imate
m and
ir d
s m
полити ката
ту а
fo od
writ ing
ко мисия
de al
про ми
доб ро
contin ue
ar ity
pro vide
or gan
in stru
с ла
ни з
не се
ct ions
med i
г е
su stain
ch ild
у стойчи
ре ша
зна ч
gu aran
" .
реше ния
де л
же ните
М о
s ed
из вър
на у
стра н
diffe rent
при орите
produ cts
appro ach
енерги й
стан да
a il
Т у
ме на
използ ва
polic ies
dec ision
предоста вя
li g
w n
bus iness
по ради
пробле ми
ul ation
pl ay
vi ol
я вам
im prove
EU R
то ри
pro gress
s ince
М а
съществу ва
b u
на истина
политиче ски
af ter
кли мата
Въ преки
wel come
е к
доклад чи
до стъп
икономиче ски
pare n
безо пас
ба н
bas ed
ical ly
А з
П ро
до во
f ish
раз бира
co st
ме то
ef fici
pra ct
g iven
с вето
ro du
фа кта
p h
и де
regul ation
предизви ка
ч ва
Б а
streng then
diff icult
ac c
ка р
къ в
прие ме
ми ли
cra cy
O n
от нася
мо мента
при зна
cl u
adop ted
cont ro
f urther
у бе
С читам
incre ase
ме ни
съ т
ic t
жи м
изключ ително
in es
cr it
be fore
way s
предложе ние
i ed
al s
дан ъ
Г ла
отно ше
взе ма
com ple
озна чава
fund amental
ne xt
li ght
res ult
legisl ation
Р е
включ ително
на ча
ра й
пости га
1 0
нама ля
f ree
да те
fin d
Presid ency
предприят ия
is ions
ви на
ре гламен
И ска
Би х
to wards
is ing
ou se
whe ther
u c
so lid
re f
re ach
предложе нието
ма н
St ate
re cent
grow th
л ту
int rodu
обще стве
от де
su f
c are
не що
D e
дова телно
achi eve
случа й
ле на
ре сур
точ ка
h and
ma king
Съ вет
О б
cond itions
. ,
se arch
sign ific
органи за
се д
re main
crat ic
о ва
ско ро
ho wever
паза ра
в ията
ex pres
l arge
P ro
" ,
С по
ro ss
Гла су
b ack
serv ices
Member s
author ities
ro ad
sm all
d uring
О свен
ку лту
dire ctive
Com mit
m one
а вто
лко ва
ch all
e uro
де ни
обла ст
a v
op in
F und
дей ност
потребите лите
Commit tee
accoun t
c oura
l adies
х ра
pe cial
ня ва
усло вия
ка че
) ,
то лкова
не ния
200 8
разиск ване
дъл го
re form
пла н
ш но
negoti ations
import ance
жда нето
ut e
дей ства
fund s
st art
ge ther
h al
из то
чи м
жа ване
гле д
м ъ
lo g
speci fic
bas is
add ition
з ра
A t
s imp
br ing
implement ation
ми гра
ло то
госпо жи
h es
trans port
vi ous
й ки
ста ва
со ли
проми ш
с па
opport unity
great er
съ щност
com ing
t ur
б ро
G r
no v
fe ren
съ жа
l ine
act iv
г л
m illion
сел ско
ment ion
po wer
I T
d er
ess ential
резулта т
то ко
to gether
at a
re search
резолю ция
о цен
е вропейската
th ird
com b
криза та
страте гия
o re
пред лага
for ward
Съвет ът
es pecial
ut es
especial ly
00 0
Gr oup
Un ited
A l
на шата
ефекти в
по е
про зра
ar ian
mo ve
отно во
И ма
ob ject
институ ции
ше н
го варя
im e
pers on
ta king
imp act
в ри
ме се
work ing
an ts
ch o
все ки
a ir
r u
на ру
wh ile
l and
в ка
Wh at
во то
is es
подход я
signific ant
R om
а кти
об х
ex ist
колко то
б у
ви ето
партнь ор
n ess
тел ства
ха низ
съ стоя
стано ви
e ty
Р аз
дру га
A g
ра ти
o c
ря т
trans paren
proposal s
ия т
ne t
не м
201 1
se qu
id ent
wor d
висо ко
вътре ш
R us
х и
бюдже т
g en
respon sibility
suc cess
Rus si
Com m
вре менно
comp an
ди м
ac cept
гражда н
fi ght
спо мена
b il
пла ща
с бли
c as
g es
пе рио
ex p
at ives
sh ow
man age
създа ването
demo cracy
л ния
съ в
work ers
u ally
иска ме
гово рите
финанси ране
job s
res ul
ме ханиз
effor ts
a w
opin ion
d one
на пълно
за ето
разли чни
важ на
d ata
ди а
sub ject
проти в
с вета
govern ment
5 0
t ic
ко мисията
ъ ж
гл оба
col le
д ви
по ръ
си туа
про токо
голя мо
stand ards
who le
th ree
il y
тех но
око лната
пра вят
финансо ва
о г
ed uc
че сто
расте ж
f t
n at
из не
co ord
пра вя
ва жен
en ces
am b
д ве
кра й
than k
благода ря
af fe
х те
min is
дан ни
напред ък
образ ова
г ре
ли м
hal f
вся ка
в ния
re ally
за бра
ве ни
reg ions
v en
х вър
транспо рт
mone y
в клю
safe ty
hes ion
го то
допъл ните
is ts
fe w
сво ите
) .
т во
Th ese
ent er
из ве
ра ме
ass ist
енер гия
att ention
to p
председател ство
б лю
ре гу
фи ка
demo cratic
object ives
comm un
se cond
p ur
предложе ния
l im
бюдже та
contro l
e ch
об ща
как ви
sustain able
с п
prev ent
по ви
присъ еди
и менно
послед ните
c a
po se
услу ги
v ar
си ла
ви жда
indust ry
r ic
Б е
кра йна
loo k
1 4
iv id
T ur
dire ct
il it
sel ves
ф ун
do wn
национа лните
контро л
изме нението
ю за
представ лява
child ren
принци п
v il
con clu
би ло
сме т
w ish
селско стопан
икономи ка
t un
in nov
дру же
agricult ural
бър зо
Съ юза
на т
interest s
въз становя
agree ments
проце с
право то
ad v
soci ety
compan ies
ou ght
pro mis
h is
за едно
направи м
съжа ление
ст ри
члено ве
с ло
при ветства
а р
бе ле
ex pect
развити ето
intern al
reco gn
li fe
икономиче ска
l ab
р ланд
A n
m es
също то
спо ред
зе ме
A r
be come
c ult
необходимо стта
h ar
p ass
po in
en coura
of f
после ди
bu ild
съ държа
increas ing
ner ship
environment al
under stand
конкре тно
ci vil
доб ри
ho ld
промиш ле
Иска м
H ouse
d id
g ed
ог ро
а д
. .
clear ly
създа де
по ма
tim es
ва х
положе нието
m ind
de fin
po p
борба та
achi ev
I s
пи та
търго вия
до при
me chan
gu e
с чита
я вле
до ку
из разя
spe ak
add ress
tur n
si de
fa il
про мени
c ut
re ce
s c
The y
соли да
Н о
на блю
f fic
g ing
из гот
ор ди
р ните
tern al
сбли жаване
иска ла
ни к
обла сти
ня ване
3 0
princi ple
м ър
an ces
pl es
помо гне
pro per
program me
le ast
fo cus
опи т
об я
mon th
appro pri
засе да
важ ни
съ вет
com es
уча сти
на ми
рам ка
There fore
an k
ris k
техно логи
еле кт
м ла
о паз
а м
проти во
de mand
ря ва
incl u
er v
неза висимо
F in
N o
m ber
д ре
ко орди
pos itive
iven ess
къде то
ресур си
l ack
тре ти
твър де
фон д
работа та
ext re
ма х
t reat
u clear
и нова
об щ
c k
ст ре
app lic
ус ия
мя там
причи на
a th
Гласу вах
к си
вина ги
am ong
l es
из вън
ч ното
полити ки
а ли
на се
peri od
consum ers
tech no
act ions
cre ate
М е
ви м
обсъ жда
co hesion
rel ation
far m
цел ия
пре стъп
if ied
some thing
група та
educ ation
ди ск
фун к
ли во
ба лан
страте гията
an other
ic ip
b our
un g
С А
prote ct
B ar
al ways
подкре пи
уси лия
м л
me e
c u
е ко
v ic
с паз
guaran tee
s en
про сто
M E
pr of
gener al
отгово р
region al
достатъ чно
СА Щ
же ни
станда рти
a de
ag es
м ни
та й
ре ние
de ed
clo se
ж но
спе кти
E C
разпо ред
намаля ване
Щ е
прилага нето
ра к
ic k
пре мах
раз ход
current ly
К и
о ри
ind ivid
system s
sol ution
разпо лага
цен тра
гра ф
initi ative
solid arity
производ ите
ass ess
ва ни
съ би
Comm unity
на ти
propos ed
de f
rel ations
жа т
Р усия
въ преки
ли ца
у кре
hap pen
develop ing
законодател ство
р ма
manage ment
та ки
ent ly
ast er
e ver
ш ите
По ради
дове де
1 2
раз ши
in ing
же рт
sh ort
ши ро
aw are
ч ната
па д
l ines
r al
e ar
голе ми
b est
e ld
пи сме
Russi a
if y
n uclear
over n
Ка то
G ree
от в
де ние
проце са
ли п
on ce
it self
слу ж
голя м
e as
праве д
от да
т ия
възмож ността
av ail
it or
но с
пома га
w ar
de l
го ри
фе рен
е зи
emp has
тъ к
европей ска
стаби лност
individ ual
thing s
v ention
g est
с правед
concern ed
страте ги
включ ва
то способ
че нието
резолю цията
extre me
we e
и гра
у ва
ens ive
n on
прави ла
засе гна
for tun
из следва
dra w
G overn
sing le
во ди
f l
ful l
al y
це лите
as ed
concern s
chall eng
изто чни
праве ни
постигне м
var ious
mee ting
im prov
fund ing
in st
Min utes
де к
съответ ствие
правител ство
le t
ра ст
пред приема
an n
Ка кто
икономиче ско
Ту р
f am
кри ти
po ver
je ctive
споразуме нието
разгле да
но вите
ing s
ex peri
европей ско
e ach
con sequ
тех ните
m or
of ten
пре говорите
o gue
финансо вите
ш ното
ле нието
ве д
не я
marke ts
strate g
на де
ci es
oun g
програ ма
конкурен тоспособ
мо мент
сед ми
group s
ме ри
възмож ности
S e
те ли
стве ни
случа и
съгла си
U S
о пе
ря ването
cr u
за чита
sup p
m er
produ ction
invest ment
pover ty
b od
икономиче ската
че вид
ist ic
Re g
lab our
П ър
r or
о не
ф ри
st ates
ше то
invol ved
пе т
Пред се
1 5
200 7
Govern ment
P art
ни то
споразуме ния
об ър
свобо дата
използ ват
Се га
201 3
съв мест
b order
P L
гру пи
program mes
ч ност
таки ва
an im
comm end
legisl ative
тек ст
запо ч
Y ou
project s
E S
за да
об щност
con text
пу ска
P ol
на сили
финансо вата
struct ure
y oung
S tr
исти н
ces sion
assist ance
в ж
in al
p ack
б ре
ye t
рай они
за пла
състоя ние
ба та
пол за
еми си
пре говори
ци н
продъл жи
acc ord
му ли
оцен ка
коле ги
в за
из бо
i ans
пози ция
же ния
part icip
разви ва
major ity
cost s
us ing
po t
разгле жда
мал ките
ob jective
за си
пред отв
' .
challeng es
за клю
здра ве
loc al
respon sible
знач ите
мо г
ha ving
follow ing
minis tr
avail able
p at
писме на
d en
п ъ
цио ни
дълго сро
T o
f ound
ча ването
диа ло
H ung
Ч е
д но
mon itor
зи ране
прое кт
feren ce
i vers
o ld
is ter
М и
vic tim
л ността
за я
раз ходи
ча ват
С П
ве ро
гле дна
инте р
word s
Тур ция
в ното
h er
as pect
ra ther
сигу рността
comple te
па ке
То й
e ad
пре поръ
act ually
но ве
prior ity
resul ts
t le
Европейск и
На д
от говаря
бе ля
В ие
dis crim
tra d
гласу ване
transparen cy
смет ка
d ial
ни що
извър ш
Tur key
финансо ви
опреде лени
viol ence
W ith
pri v
реди ца
инстру мент
отноше ния
i ble
do cu
in a
осигу ри
хра ните
не й
st ress
прове де
jo int
proced ure
sh are
прилага не
F R
годи ш
гласува х
C our
e qu
Н я
гле жда
inte gration
appropri ate
би ли
Cour t
D ire
enter pr
с ля
ре ши
от кри
я ване
th ough
за е
commit ment
princi ples
ад мини
2 7
ри з
ag o
be g
ab ly
instru ments
интере с
at ory
че ния
fe l
need ed
c ise
о съ
сво ята
над явам
ефекти вно
cre ation
дове ри
ам би
разли чните
диск ри
стопан ство
изследва ния
по в
cl ar
об що
прави м
s id
о същест
ст ите
con stit
прое кти
по ле
be half
гарантира ме
govern ance
оне зи
pe ace
ad ministr
ду ми
app ly
dial ogue
ни ци
дова тел
поста вя
un t
за ся
възстановя ване
м оби
изве ст
Д и
о свобо
се ме
фон дове
fortun ately
ни ка
ke ep
pos ed
въпрос ите
val ues
at ors
па ри
act ive
Ко н
effe ct
защита та
В сич
мо р
p arliament
se ver
benef it
st ability
елект ро
че ските
чевид но
Съ що
подчерта я
effici ency
in depend
но вя
int end
те ро
extreme ly
об щата
Сле дователно
k ind
М но
бе ра
cas es
ра вно
s im
а ген
об у
me an
чу в
ap pe
стъп ка
b illion
d om
ве р
conf lic
та та
cru cial
re commend
li es
инстру менти
promo te
то чно
а л
ou b
ля не
га ва
ф ра
compet ition
р ът
систе ми
админи стра
l an
l ist
re le
re view
du e
ific ation
poin ts
члено вете
и мето
ма ти
партньор ство
pack age
redu ce
Af ric
L i
st at
dec isions
n ame
семе й
Д не
реги они
позво ли
li ber
Те зи
month s
о глед
ри ба
де се
продължа ва
mi gration
ти ране
ля ват
instit ution
кра т
щ ността
Ка к
L et
l ing
из пра
член ка
практи ка
жи ве
Г о
в същност
м ре
ефектив ност
innov ation
вза и
д ът
па к
би ва
medi um
у част
ре форми
ce ed
еди не
и мигра
ч ния
main tain
call ed
farm ers
ме сто
g er
по каза
amend ments
функ циони
м нение
ра вен
of fic
c he
Т я
полу чи
activ ities
дискри мина
enterpr ises
О О
he ad
мно зи
fi eld
provid ed
simp ly
солида рност
si z
все м
политиче ска
и сто
не т
обще ство
an ia
са та
end a
ob lig
b ur
ic ation
изме нение
оча ква
se en
до като
igh bour
причи ни
mention ed
я дре
че на
че но
am oun
конкре тни
по стоя
sever al
part ies
fore ign
постига не
л ство
n or
re v
ма ни
ter ror
рланд ия
п ус
re t
B el
д вете
за па
па ра
пе р
o ve
ме ди
ност ите
подоб ряване
кон ф
pop ulation
ir st
прави лно
протоко ла
с вят
regard ing
запо чна
инициати ва
r on
s es
създа ване
ОО Н
F irst
в ла
Х а
spe cial
fe el
взе ме
de mon
ем ври
indust ri
земе дел
до гово
concern ing
fair s
жа ва
предсе дате
inclu de
R i
е л
По д
С а
em o
на края
car ri
л ията
еко логи
em is
зна ем
ръ ко
vo id
ша ване
victim s
t on
in ed
под държа
compet it
изпъл нението
w ers
chan ges
respon se
зи ден
com promis
конф ли
fish er
th reat
инте гра
из бе
зо ната
доб ра
В то
consequ ences
п ят
по ч
quest ions
безопас ност
о це
настоя ще
2 5
к ро
qu ick
min or
бъдеще то
er ia
прие м
публи ка
str ict
пен си
сериоз но
приорите т
R O
S p
j ud
стра ните
необходи ми
инвести ции
Мно го
Спо ред
То зи
ския т
l ink
директи ва
П рез
до сти
тран с
П ра
за гу
про у
веро ят
a void
пре во
se em
вия т
a ve
re en
кри тери
business es
i ther
t es
на каза
мя на
Не обходи
директи вата
instru ment
h ist
мо ни
do ing
как ва
it er
govern ments
програ ми
con stru
кре ди
работни ци
ple ased
k es
Г ър
стра ната
Р а
на лага
реша ва
с пи
un ities
certain ly
inte gr
поло жите
ко то
реги он
g as
i ght
бъде м
дейст вите
В се
fa ce
секто ра
Ме жду
Гър ция
не ни
доб а
съгла сно
sur ing
Gree ce
Над явам
е та
по лага
f le
че ска
ня т
сво я
тру да
Fin ally
m ult
ха рак
sub st
ра но
мо ята
дейст вието
so on
fir m
за кон
доста в
тен циа
убе жи
pl ac
ag ed
демокра цията
енергий ната
технологи и
pot ential
ве на
ви де
знач ително
ab sol
участи е
дру гите
Об щността
beg in
ра на
га рия
под помага
мис ля
икономи ката
з ва
re quest
з ор
an ced
пре о
гна т
разход ите
у потре
ни ците
en ough
it arian
ли бера
разиск ването
increas ed
по тенциа
gr ant
ри ск
съ всем
съще ствено
регу ли
ж ително
tr ue
работ ят
свобо да
средства та
настояще м
тел ни
qu ite
сре ща
връ ща
Та ка
организа ции
Ди ректи
спо де
право мо
оча к
к ции
пробле ма
каз ват
Ar tic
competit iveness
or ig
al e
настоя щата
absol ute
мо га
ста не
ab ove
ха р
използ ването
мини ст
t arge
ent ire
те ж
но во
regul ations
тех ни
уси лията
organ is
n ers
un ction
fin al
прие ти
ня ването
сътрудниче ството
proced ures
em er
изме нения
евро зоната
мили она
Ag ree
achiev ed
ne ver
фа кт
require ments
бро й
приема нето
exist ing
диало г
Ri ghts
R ep
к ия
усло вията
мал цин
перио д
Dire ctive
ter rit
До кла
long er
би ха
ус пя
подкрепа та
m om
respon d
оста на
пре зиден
насър чаване
каже м
Rep ublic
r ate
Д а
от колкото
принци па
reason s
id ence
говори м
обе з
ложе ни
роля та
p t
200 6
подкрепя м
prior ities
H e
pre vious
cap ital
mechan ism
Предсе дател
чове ш
б ия
сте н
accept able
приветства м
укре п
про фе
ка те
до то
осно вни
opport unities
сред ство
e qual
finan cing
w ast
у ле
държа вата
прави лата
цел та
tech n
D emo
из явле
фра структу
ма ща
them selves
с ве
im um
бед ността
каче ството
S econ
А фри
So cial
discrim ination
Secon d
en suring
ко ва
am p
ist an
other s
val ue
applic ation
ex ternal
регламен т
л ъ
ater al
пе тен
един стве
европейск ия
докладчи ка
li ving
matter s
ин фраструкту
ta il
з у
з ни
де ца
us es
пре вър
при клю
са м
en cies
Та зи
fel low
b road
c al
t ar
Д е
но в
социа лни
G er
по не
за това
ac cession
пробле мите
Min ister
ele ctions
su l
li ance
aim ed
mom ent
кон су
об щи
ap prov
устойчи во
промишле ност
ре ни
il legal
In ter
ком петен
в несе
г ъ
пред ложи
cont ain
ч ите
за ко
ри ст
ve re
о пас
предизвика тел
addition al
та къв
социа лно
sit ting
неза кон
И н
ag reed
ня ват
бо ло
ключ о
encoura ge
emis sions
con ne
работ им
ide a
Въ в
tal k
Ки тай
интер нет
1 1
h on
in fra
ст вия
cons ist
suf fici
П ре
не ща
part nership
предста вител
require d
c ure
н ство
парламен та
Artic le
о про
сто и
ac ross
contribut ion
из цяло
adop t
ва ри
adop tion
hap s
v ital
w a
ext end
ne ighbour
vo ting
crit eria
Раз бира
P T
p ite
s ci
en able
из глежда
паза ри
ж изне
ч ки
пъ ти
h ard
с мър
во ен
социа лните
с ми
de ter
га р
tra ffic
рия та
заето стта
Дне с
прео до
p ast
то гава
ли з
member s
strateg ic
im medi
пла ни
tal king
S w
пра в
социа лна
Сле д
agricult ure
st ud
съ л
ru le
п ло
ри боло
си лно
слу чи
contin u
affe cted
Agree ment
on d
1 8
M ed
c ross
d it
ord ers
Ch ina
techno log
in deed
con tra
tra ining
me th
iv ed
предста вите
supp ly
а ри
li ed
iv ing
дей ността
bal ance
ar ound
пози цията
consum er
s top
в лия
предизвика телства
b i
priv ate
профе си
раз но
вре мен
нача лото
убежи ще
Е П
т на
pl ain
въпро сът
l um
r up
ситуа ция
на шето
rel ating
зася га
quick ly
n ed
но вата
при ро
pre pare
al ong
са н
въз ду
gr ound
Всич ки
compromis e
че ти
приеме м
вътреш ния
adv ant
cult ural
последи ци
fl u
ва н
ag enda
мер ките
използ ване
organis ations
4 0
th us
от и
во де
li ve
support ed
coord ination
за висимо
иска т
pre h
O ne
то р
опе ра
C an
въз действие
every one
monitor ing
ду ши
U k
р д
ка пита
ли сти
реше нието
e an
o t
от во
интере си
тек ста
въве де
pract ice
Uk ra
O ur
at or
ci r
iti ous
coord in
ade qu
t ack
hu ge
an u
раз преде
зна е
Мо же
implement ed
contribut e
U N
c ord
d est
в лиза
р ка
на зна
in s
щия т
amend ment
r ist
И рландия
систе мата
d oub
к ът
въз полз
reg ards
един ствено
Ба ро
де цата
ch ar
постоя н
lo gy
prov isions
siz ed
ur gent
ну ж
level s
друже ства
s ha
по казва
фа кто
discus sion
carri ed
ди н
ll ing
вя ва
постига нето
вероят но
C o
м ня
раз про
вя ме
икономиче ското
abl ed
заето ст
M ore
re new
ча сти
dra ft
а та
er b
ind ic
цен ности
Ch rist
f all
о па
о чевидно
от беля
ти вни
ста на
ter s
гласу ването
демокра ция
Б лаго
източни ци
m ess
следва щите
provid ing
of fer
об рази
ma kes
Пър во
з ия
ou ts
об или
тя ване
redu ction
сп ря
ж де
с ра
it ing
резулта ти
ref le
aspect s
Р у
га ни
вя нето
Не ка
основа ва
сериоз ни
механиз ъм
amb itious
про стран
me et
доб ър
19 9
рист ия
Благо да
сре дото
цион ни
прозра чност
гре ш
N or
d ist
ч ия
ко му
ele ct
едине ните
b ar
за кри
въз раст
принцип ите
expres s
nat ural
за гри
li ves
simp li
амби цио
ма й
об новя
pe ctive
Вто ро
с мятам
не но
под пи
effe cts
о м
un employment
без работи
through out
законодател ството
vis a
съ средото
предста ви
д я
с ия
за стра
serv ice
cor re
крат ко
съ де
при ложи
ev al
отгово ри
търгов ията
безопас ността
Докла дът
международ ната
colle ag
П реди
сти мули
око ло
мани та
поч ти
cir c
п ря
lit tle
Сле два
голе мите
съгласи е
m ilit
де кла
con v
cre ating
sol utions
fac ilit
коорди на
part ners
над зор
задъл бо
уча ства
I rel
f our
201 2
De velop
rele v
Irel and
M ar
v ol
Ц е
lo t
внима нието
призова ва
led ge
ва ния
за тво
сре щата
търгов ски
образова ние
d am
зи рането
партнь ори
професи она
po wers
wee k
Ми сля
интегра ция
W or
о фи
as y
com preh
def end
E x
я сни
the less
ce ll
dec id
budget ary
освобо жда
su s
постигна т
Bar ro
разпоред би
I I
ду ма
под гот
meth od
ре ли
ма кар
te es
нужда ем
мла дите
от хвър
гъ вка
B al
ul ate
fle x
A ll
Съ гла
techn ical
О бе
м обили
т ните
проду кт
Is ra
re pe
comm unity
национа лни
работни ците
ch arge
mi ght
заседа ние
насе лението
re lig
ра ел
предоста ви
ar ing
маща б
по ве
по сла
ро б
тър се
wast e
Афри ка
b orders
процеду ра
Rom a
y es
ли це
pre cise
зе мно
инте гри
Wh en
N L
i bility
во та
опаз ването
no thing
зе н
ху манита
mat er
взема т
amoun t
C z
I ran
b ig
t able
ди не
con sul
suf fer
k ill
sh all
gr ants
ob vious
упра в
re fer
ou th
ти н
reco very
Second ly
d ut
наш ия
сел ските
парт ия
effici ent
насили е
управле нието
har mon
развива щите
bas ic
ма т
exp lo
сп ло
де ли
su g
производ ство
crat s
кан ди
infra structure
Cz ech
u ine
во й
при нос
между наро
посо ка
продъл жим
treat ment
t ation
за вър
pr ices
report s
A p
пред вижда
tr u
насър чава
Af fairs
A T
мо ре
дей ности
производ ството
reform s
unt il
lan gu
demon str
ша ва
успе х
strengthen ing
те р
по твър
рабо те
Develop ment
о свен
ре ния
за виси
съ ди
ab il
сле дователно
месе ца
b l
ч лена
ex port
med ia
програ мата
труд но
sen se
f ive
че те
мя та
f unction
из гражда
In tern
invol ve
fish ing
absolute ly
цион на
spe ech
car ry
initi atives
хи ля
пад ъ
F urther
станови ще
.. .
pat i
de ath
ля нето
just ice
финанси рането
promo ting
балан си
w ide
human itarian
industri al
н ъж
мл н
S ME
i res
Спо разуме
Intern ational
B ut
би о
осно вата
ic s
из правени
сред ните
стопа ни
неза ба
sector s
M y
с правя
is on
политиче ските
every thing
net work
кате гори
1 7
с ва
стой ност
правител ството
отноше нията
improv ing
relev ant
де ле
mo del
ran ean
емиси ите
Med iter
8 0
съ кра
икономиче ските
aim s
effective ly
reach ed
обу чение
liber al
Mediter ranean
% .
to ol
въз действието
справед ливо
риз ма
outs ide
m p
he ld
ition al
ге ти
ant i
доклад ът
assess ment
u le
на ра
от падъ
Ко га
pres sure
заси л
предотв ра
Под кре
да ват
пра вна
bod y
docu ment
ме т
ле кар
до каза
ac y
гарантира т
европей ското
ръко вод
O r
В същност
ж на
ре жим
to mor
раз би
действите лно
Ukra ine
Обе дине
tomor row
У крайна
за паз
съ д
po st
tak es
t ary
а спекти
наде ж
conflic t
asy lum
6 0
h im
ш ната
gr at
опи та
fisher ies
as soci
ск лю
ne g
мен тите
бли зо
mar k
сел ското
h ind
че ско
дейст вител
open ha
мъ же
comb at
C openha
mo tion
време то
практи ки
простран ство
Copenha gen
s co
С и
de tail
ци ен
clo sed
establish ed
Afric a
Баро зу
Barro so
b ly
а б
че ската
пен ха
includ ed
При ветства
in flu
end er
high light
увели чаване
Ко пенха
meas ure
минист ър
съде б
Копенха ген
д ву
доб и
обще ството
ек спло
дви жение
от беле
пара граф
а нали
л ъж
cre dit
per haps
мина лата
офи циа
у становя
вто ро
' ,
s at
енер гети
принци пи
safe gu
cap ac
избо ри
ета п
разпро стра
спря мо
E L
цяло ст
diffe ren
дово л
ва с
подоб ни
предприят ията
бан ка
мл рд
orig in
1 00
O f
из сле
produ ct
gra ph
milit ary
В е
з ло
те рна
develop ed
good s
тях ното
осигу ряване
Hung arian
хар мони
изисква ния
паке т
1 3
по настоящем
су а
ans wer
пла т
crim e
предоставя не
comb ating
commun ication
коорди ни
ри та
спе кт
Further more
an aly
пре кра
un ch
опреде лено
name ly
у тре
за слу
ти м
ор ъ
alth ough
att ack
Str ate
Между народ
приклю чи
Inter net
ч ността
en sion
от ли
енерги йна
pass eng
Ру мъ
ден ти
call s
ангажи мент
за д
European s
support ing
бли з
отде лните
b it
съ ста
ct ing
па циен
спе ци
помощ та
14 9
R ule
T od
б си
до стъ
ця лата
say ing
compet itive
допри несе
вед нъж
Tod ay
u g
ни во
Съ ще
станда рт
Е дин
въз обновя
за та
не щата
пре разгле
Кога то
ст вието
регу ла
Директи вата
compreh ensive
sub sid
benef its
обх ва
N ow
al tern
il ar
социа лното
administr ative
sci ent
а кт
за ради
се к
day s
provid es
suffici ent
С тра
по вто
по мня
are d
est ic
въве ждането
външ на
гото в
e quality
our selves
ин форми
remain s
institution al
adequ ate
декла ра
r ing
al most
раз работ
жда т
dire ction
ME P
H U
d an
is ms
про мяна
real ity
move ment
aster n
A C
A mer
y ing
не бре
mo der
rel ated
ask ed
производите ли
SME s
Amer ic
L T
e ither
я ваме
pos sibility
reg ime
cl ud
конкурен ция
седми ца
C ent
r ural
ш ни
ва щи
да ле
пре къ
вя не
поста ви
нати ск
пер спекти
sat is
о добре
st age
су бси
грани ци
requ ires
международ ните
лиза цията
допълните лни
rece ived
Demo crats
Румъ ния
С мятам
ad ap
жи вота
reg ret
слу чва
нару ше
deter min
si x
comm er
настоя щия
организа ция
последи ците
T ra
re mind
па ни
a ke
З на
въ гле
раз де
така ва
случа я
Rom ania
ал терна
al loc
из клю
кра лство
Се ве
H u
не нията
ли зира
си м
br ought
опаз ване
p tion
р ството
re ly
стве на
фор мата
deb t
att emp
pr ice
начи на
резулта тите
hap p
Благода ря
B ank
r un
s end
се бе
съ образ
we ak
redu cing
оби к
represent s
р ната
мо ст
пе ча
прилага т
тери тори
цион ните
nat ure
Sw ed
w ater
во йна
cre ated
seem s
по здра
це на
бо ле
implement ing
emphas ise
t est
х рани
дру г
институ циона
институ циите
mess age
Г е
е сте
re turn
Съ юз
ban ks
подпомага не
смър т
C O
под роб
sub mit
sum mit
app lied
effor t
corre ct
к ция
съ сед
же нието
бе жа
сто ки
позво лява
S ch
Th ank
complete ly
Ня ма
сми съл
Обедине ното
u ge
to ck
de leg
при зи
state ments
Щ о
е ти
ма тери
е ма
це ните
ун гар
в место
чи ето
ду мата
wor th
ложе нието
упра ж
забра вяме
circ um
специ фи
в ният
ш ните
съ обще
съ гласува
ви дове
заклю чение
g reen
м ври
en h
ше ст
следва щата
step s
conclu sion
конкурентоспособ ността
достъ па
ч ка
fin ally
тре во
даде м
pen al
обе ща
ial s
commit tee
too k
decid ed
за цията
ли в
ex cell
структу ри
recent ly
build ing
стре ми
fam ily
изсле довател
Hu man
C ha
те же
ща ти
кон ча
здра вето
commit ments
увели чи
d ate
r at
о ра
commit ted
s ources
р ва
орга н
нужда е
ca used
colleag ues
b re
en ge
terror ism
S erv
a way
та кова
ва лу
ke t
act s
кон вен
председате ля
A d
y ond
хо да
ex er
насо чени
chall enge
селскостопан ска
игра е
m ing
ш ния
econom ies
pres s
нау чни
Необходи мо
targe ts
Т О
ру с
бю ро
ефекти вни
изпъл нение
нали це
ran ge
5 00
г ене
who se
Въ про
cep tion
Strate gy
те лен
ре но
пре ка
ce mber
необходи мите
prov ision
ком про
съществува щите
De cember
й н
лага не
ev ents
дейст вията
state ment
accord ing
s an
на правят
пре небре
има м
процеду ри
fac ing
pract ices
bil ities
дек ември
Г ру
ar us
port ion
ge ts
кон ститу
довери е
пов ди
десе т
A sh
A ction
P e
t ies
ри ско
при я
ul g
si bilities
произ ве
инициати ви
Bel arus
Приветства м
it em
our ce
coun ter
speci f
experi ence
s is
an ish
за ни
con grat
ob tain
Con vention
c le
А ш
ч ване
de ep
Un fortunately
prof es
с фе
sh own
Съ единените
гле да
голя мата
стъп ки
подоб ри
благо прият
on es
ле ния
im migration
тях ната
gen uine
съвмест но
H a
d ri
тъ н
оста ва
жерт вите
s ent
s he
д лъж
же нията
стве ните
mi grants
close ly
sug gest
m ut
ле те
be hind
сто ве
ish ed
въгле ро
J ust
ле ти
co ver
oura ble
g iving
н ти
съ к
sup erv
о ните
ве но
vo c
Н и
про я
ag encies
mo t
ня кога
призова вам
бюро кра
H igh
a king
i er
про цен
полити ките
introdu ction
мог ли
be yond
ho od
то к
Ва жно
засегна ти
fam il
P ort
о ру
ре публика
ст ват
le ft
мест ните
lead ing
First ly
загри же
O ffic
ent ions
из бор
настоя щото
eng en
Догово рът
образова нието
l er
om ic
интере сите
difficult ies
More over
E con
из раз
he ard
un acceptable
пи т
ангажи ра
служ ба
independ ent
запа зи
Sch engen
c ers
ar ily
чи ли
це ни
кри зи
него вите
о конча
and s
Ба л
log ical
en ing
не отда
от не
regul ar
gu ide
rece ive
лип сата
l ar
s pend
de m
cre di
form s
процеду рата
B ulg
ли цата
слу жите
зада ча
жизне но
Isra el
h ome
o s
ма р
tr ust
person al
% ,
д ните
с виде
ro at
зна чението
min imum
Из раел
мре жа
capac ity
moder n
ва ли
to tal
че та
из ма
ше ни
съответ ните
f il
а к
vi a
dis aster
перио да
technolog ies
p i
осно вно
ман дат
success ful
широ ко
И та
or g
ната тъ
има ше
pl ans
pre par
предложе нията
пови шаване
re ject
за интере
до ма
te ll
гаран тиране
invest ig
сек суа
circum st
у ни
необходи ма
oper ate
повече то
приема т
ек спе
activ ity
Reg ulation
съществу ват
pur su
насе ление
prepare d
действител ност
M ay
S outh
p or
ту га
правомо щия
консу лта
A m
C roat
м ът
раз бе
struct ural
инова ции
1 6
свето вната
crit ic
инова циите
transparen t
mechan isms
commer cial
компро мис
F r
t abled
у ме
it ation
cre te
доку менти
sim ilar
обх ват
doub t
pro portion
un e
социа лен
discus s
иде ята
precise ly
Econ omic
c amp
g ender
o st
р ното
не ка
ther n
crim inal
loo king
safegu ard
И ран
in king
le ave
ър ват
дискримина ция
territ or
н ството
ic ial
со лю
социа лната
дан ните
внима телно
противо ре
inst ead
bur den
L ast
t ask
Е О
У н
па рти
lo ss
call ing
des ign
techno logy
accord ance
транс грани
обик нове
че ните
con crete
ex per
свобо ди
евро то
pen sion
MEP s
с вет
produ cers
ефекти вна
представ ляват
авто моби
счита ме
заинтере со
circumst ances
ви дим
са т
чети ри
ле ви
я зви
ри сти
съще временно
del ay
мери кан
ri end
Ва с
взаи мо
компетен т
междунаро дни
Споразуме нието
dan ger
E n
к ръ
на ре
po or
гра д
ръ ща
ue l
discus sions
ref uge
Pro gram
scient ific
у язви
for get
право вата
sel s
des pite
profes sion
for ced
до стой
ex change
present ed
Ита лия
es tern
ro p
ar s
че ския
предоста вят
di vers
represent atives
разполага ме
Ash ton
Аш тън
м ия
с ят
re member
от чита
Part y
започ не
сра в
B rit
d ict
In d
създа ва
критери и
altern ative
Offic e
о стро
у станови
Wor ld
sco pe
ква ли
ези к
експло ата
re in
re strict
on s
ли де
про мен
for ces
ev ent
отгово рността
med ic
неза виси
An d
D o
ure au
външ ните
Sp anish
l at
из бира
га з
wee ks
f riend
би л
стра да
dis charge
основа ние
know ledge
полу чат
седми ци
specif ically
A c
P r
p aid
in ary
об стоя
ul ner
енергий ни
мили ар
cult ure
constru ction
а мерикан
un ivers
въз наме
кон ферен
establish ing
добро то
спа н
Л а
П и
con side
con dem
първо нача
Бе ла
дале ч
conside red
f lo
g ency
v ulner
М СП
о доб
see k
рма ния
recommend ations
Ге рмания
съм нение
секто ри
реа ги
собстве ните
ear ly
particip ation
по р
ди ре
па да
път я
ограни чения
приорите ти
беле ж
Part nership
аб солю
Ф ран
а спект
м на
мо де
se par
It aly
pr im
conf idence
begin ning
pati ents
Бела рус
w ise
зи ск
ста ту
me t
fore st
leg it
гри жи
intend ed
мнози нство
neg ative
superv ision
u ations
it able
зе р
уле с
C A
E ast
Е вропей
ло ш
fin ance
На края
stand ard
ann ual
т ради
ми сле
ci de
ap er
На й
свобо дна
политиче ско
необходимо ст
Въ з
послед но
б рита
th ous
об рат
pr ison
съгла сен
нас ят
discus sed
strong ly
присъеди няване
achiev ing
parliament ary
О р
на р
на праве
ни кога
ко п
ан ти
национа лно
тери то
invest ments
докладчи к
довери ето
от ри
мо ите
se x
he ar
Парламен т
ser ve
използ ваме
cent ral
includ es
proper ly
excell ent
л ният
ка па
сво ето
ext ent
B e
Д ър
об еди
Re present
Li by
дъл г
разно образи
e th
n am
at ic
не прием
че нията
трябва ше
dis tribut
орга ните
la unch
bil ateral
increasing ly
p resid
ю к
об вър
ex tra
посо чва
нау чно
обсъжда ме
improv ed
stat us
мъже те
G e
А л
С реди
ма рт
гне м
демо н
изпъл ни
Среди земно
M arch
it ors
во да
mo bility
къ сно
sc ale
у стано
de clar
tra vel
mat ic
подчерта ва
Al though
дву стран
2 1
c ame
m ass
o il
по иска
ка къв
регламен та
relation ship
def ence
minor ities
ле сно
over all
обя с
опро ст
ar gu
че р
до сега
trans fer
произ ход
bal anced
участи ето
Д ру
мо дел
органи зира
мини ма
кажа т
introdu ce
show s
администра ти
Пра ви
Pe ople
при способ
con st
опреде ля
high er
recogn ise
ува жа
теро ризма
y s
part y
правител ства
предприема т
о прав
пре глед
ra ised
път ниците
Program me
Х ърват
с мята
than ks
контро ли
bod ies
de cl
зи рани
потре б
el se
traffic king
координа ция
прека лено
E gy
N ations
d im
у би
у ско
op position
up on
На стоя
вид я
hist ory
средство м
Nor th
i um
тя сно
anim al
влия ние
Mar ket
ю ни
as h
mo bil
us ive
обсъ ждане
балан с
земедел ските
Christ ian
гъвка во
Croat ia
E P
r ise
С о
от разя
пре мина
работ ните
дан ък
мал ки
allow ed
approv ed
J une
d le
expres sed
пое ме
Т ъ
ре на
he art
ки стан
ex act
след ствие
председател ството
осно вен
add ed
мина лото
ris ks
g ain
по се
con du
вър хо
дъл бо
know n
redu ced
свето вен
граждан ското
direct ly
conclu sions
dom estic
живе ят
пря ко
dut y
канди дат
Тъ й
s ens
ж ни
за б
ar ia
висо ки
сро к
speak er
емиси и
взаи мно
споде ля
conne ction
S ome
a z
я ването
на ред
то рите
инфраструкту ра
Фран ция
та ли
ка м
во ля
про те
ед ва
spe c
try ing
law s
discus sing
вся ко
cho ol
ристия н
Дър жа
Хърват ия
t reaty
з ите
по средством
ле к
си гна
employ ed
коле гите
experi en
renew able
Represent ative
A ud
e g
ъ ка
лан ти
подкрепи м
Ун гария
re li
за мър
ви ди
200 4
право съди
grow ing
взема не
istic s
langu age
H ow
S erb
Ш ен
об мен
из каз
ля ване
200 5
един ния
О СП
In deed
подкре пят
per man
после довател
насили ето
integr ated
rup tion
сан кции
управ лява
Шен ген
C S
c ks
е фика
un fortunately
нара ства
c at
w r
не достатъ
раз мер
ant ic
la be
famil ies
О ба
С вето
че ското
при ну
мис лим
лиза ция
подкрепя ме
sp ir
comple x
общ ности
по ко
за бо
мя рка
възможност ите
пред приеме
со во
спе ку
заседа нието
риба рството
dam age
посла ние
Cent ral
Tra de
S a
об ра
ill ions
ge o
ous ly
паза рите
каза но
път у
нама ли
lim it
Ger many
представите ли
безработи цата
справя не
Egy pt
за ция
se cure
ги пет
вър ха
pl ause
sup er
pers pective
акти вно
вклю чени
vere ign
guide lines
r us
s chool
след ване
wr ong
c and
по я
не от
or i
ent ry
st ri
го р
de fic
not e
sa ving
продъл жение
want ed
данъ ко
подходя щи
производите лите
constit ution
O b
a ut
Т ре
си лна
тел ните
Fr ance
J ap
и спан
за дово
ма кси
so vereign
тира нето
над яваме
продължа ват
рели ги
незаба вно
Jap an
E astern
c ri
ми р
ля ска
fe red
man ner
иска не
Mr s
ner gy
Ре гламен
доку мент
наблю дение
ре й
пра вни
ку ва
mand ate
ге о
link ed
G ener
m ic
o v
s po
Б ъл
al one
въз ник
ind ing
пу сти
стро ги
vulner able
2 3
i ally
Е Ф
а ви
с х
задъл жения
serious ly
равен ството
hist or
tar get
пациен тите
поздра вя
п ти
re feren
ко ру
из рази
прое кта
tax pay
Ра зиск
ляска ния
за сили
га зо
produ ce
pop ul
passeng ers
ра ните
важ ните
правител ствата
въве ждане
establish ment
осъщест вя
plac ed
advant age
b ureau
е ни
en ed
за ба
ar ter
тел на
ця ла
rap h
set ting
lead er
дек ват
исто ри
хиля ди
2 4
на да
or m
to ur
de li
id dle
go es
важ ност
rap id
consider ation
решава що
conv in
c ast
О тно
ва нията
те ма
за лата
де фици
го ре
comp any
еле менти
стаби лността
guaran tees
Как во
знае те
S K
h ic
ag raph
инвести циите
услу гите
lim ited
кому ника
Бъл гария
Р ъ
в ки
ст вите
ли зиране
de cide
prev ention
деле га
капа ците
I r
реги оните
осигу рява
равнище то
cor por
Подкре пя
influ ence
Ge org
мо я
гра ди
една к
конкурен цията
каче ство
r ates
а декват
же ле
health care
conclu de
ann oun
укреп ване
relig ious
l antic
я сна
па лата
con solid
go al
участ ват
J anu
W estern
en force
мис ли
мест но
изисква нията
механиз ми
Janu ary
D P
Европейск ите
dis put
ша т
lear n
ele ments
clo ser
реша ване
бро я
oc cur
харак тер
Or gan
differen ces
не на
ve hic
де на
би хме
develop ments
pract ical
docu ments
Aud itors
N e
j our
z e
я ну
зи рат
преди м
anim als
Це лта
Bulg aria
S ince
к ло
пъл на
crit ical
introdu ced
protect ing
Hung ary
Севе рна
яну ари
g ives
pos es
fac ed
външ ната
expres sion
pur pose
разпоред бите
дългосро чен
independ ence
срав нение
б изне
ди с
po ll
sit uations
няма т
насър чи
инициати вата
о каже
ре шите
it ure
об ръща
пред назна
ex pend
el im
живот ните
остана лите
отпадъ ци
Serv ice
cand id
V ice
a i
от ра
se ts
наме ри
публи чните
разгледа ме
tack le
P al
T un
v est
st ake
ty pe
Se a
зая ви
факт ът
И спа
за мест
ul tim
ин ду
сла бо
конфли кт
CO 2
san ctions
congrat ulate
Испа ния
P ak
U K
b inding
l ay
u fact
П ор
ре ферен
съ щия
ди пло
de p
man ufact
стве н
По л
структу рните
suc ceed
Pak istan
L at
ж дение
и денти
над ле
ефектив ността
poin ted
facilit ate
об щите
ad ver
кон стру
кто ве
ланд ия
Se curity
извест но
immedi ate
категори чно
р г
че ст
кла у
пър вата
международ ното
ses sion
function ing
територи а
отри ца
b loc
h ouse
ка ни
ти сти
pro ceed
гласу ваме
обх вата
присъеди няването
CA P
d s
Е И
у чили
напред ъка
person s
Ag ency
Ap plause
енергети ката
коп ляскания
Ръ копляскания
ве ните
мо стта
pl om
постигна то
използва ни
рати фици
sc he
inclu sion
ори ен
жерт ви
oblig ations
земедел ски
f is
В ре
за ла
съ щите
ти ча
ex cess
ком пани
lead ers
степен но
съби тия
involve ment
зани ма
M on
T r
g l
v ision
ле сти
pro pose
con clud
би в
man aged
inte l
fi ed
fra ud
нужда ят
deal ing
разбе ре
con ference
id es
вен цията
бя г
par agraph
pay ments
fail ure
регули ране
влиза нето
к ни
н ците
у до
ш на
citiz en
осигу рим
прозра чността
запла ха
Са мо
Sp ain
suffer ing
алтерна ти
7 0
б ло
go als
дне вния
включ ват
бед ствия
Ту к
предоставя нето
Го спо
обстоя телства
E G
S ing
не гово
до пусти
ra il
вя р
di plom
процеду рите
Ir ish
n a
ро мите
ле ги
ex plain
задъл жите
promo tion
обществе ни
премах ване
S lo
че ство
jo in
organ ised
consist ent
expend iture
r ating
но рма
ко ми
ra ise
кон текста
дру го
свобо д
regul atory
thous ands
данъко плат
k ed
п цията
с пре
ко ве
ar ies
st im
из ле
бъде щите
съм нено
фа л
бед ните
ангажи менти
региона лно
значите лни
опа се
Въпро сът
Just ice
B rus
w ants
in come
ре до
pos itions
ack now
use ful
посо чи
defin ite
помогне м
електро н
mut ual
Pal est
Brus sels
) :
G 20
n ic
re am
ко па
as king
при ложе
би ла
ac cep
мно же
фор мули
cont ent
изключ ите
struct ures
improve ment
електро центра
tru ly
Tun is
b ad
З еле
р юк
у вре
ко ли
до ха
ag ing
high ly
полу чават
open ing
вътре шен
расте жа
rapporteur s
ситуа цията
commun ities
уни вер
Пор туга
z one
е мите
cons en
оста не
продължа т
пови ши
престъп ления
Cha mber
P act
но вия
en jo
ча ваме
ap point
тру до
ефекти вен
реше нията
допълните лно
happen ed
Bal k
fis cal
рюк сел
у жа
er ve
из о
тел ите
ac qu
сме ни
чове к
equ ip
Can ad
perman ent
a head
h ol
o so
p ath
in c
по зна
ко ви
pro b
con cent
Ли бия
di o
нау чните
креди ти
фал ши
9 0
ре форма
от пуска
дъл жи
вен туа
прие т
ub l
view s
При зова
Про гра
предизвикател ство
coordin ated
постоян но
ак цен
P E
er ous
ic y
жа ването
ur s
Бе з
demand s
immedi ately
абсолю тно
Gener al
Sing le
m ac
Б рюксел
г ли
ли ва
ли стите
ve mber
пред вари
прове жда
No vember
exact ly
ре ните
ви зо
ша ването
spe ed
par ts
сен су
freedom s
fail ed
потенциа л
Е гипет
о се
un i
part ner
ban k
S V
T A
a ign
И менно
а то
th inking
но ември
жи ли
act er
leg ally
икономиче ския
сред ни
защита ва
употре ба
refuge es
макси ма
p ed
з но
о ку
ли ви
will ing
str ic
St ability
comp ly
comp liance
af f
него вата
извърш ва
minor ity
Swed ish
експлоата ция
Свето вната
Tr ans
E I
по някога
де м
ми кро
при те
ло ва
ur ge
Liby a
е вентуа
на в
съ се
ch ance
це ле
икономи ки
read ing
кту а
потребите ли
допъл нение
наблю дава
eval uation
тел ство
pre ad
предста вя
plan ts
вземе м
Ger man
наруше ния
С ър
те ни
си и
lo st
Ко мисия
стве ната
Пол ша
M any
S y
е р
па дна
кон сенсу
доб рите
стру ва
respon sibilities
ресур сите
протоко ли
създаде м
eas y
харак тери
char acter
прекъ сна
Португа лия
б лъ
я сен
ни какви
ди о
спо мо
фи к
vo ice
тира ни
вна ся
ele cted
recogn ition
ivers ity
camp aign
territor ial
F ore
из тък
ex ception
out come
ast ers
начи ни
прове р
author ity
истин ски
пенси он
constru ctive
Ex ternal
предотвра тяване
sex ual
Подкрепя м
W rit
e ase
л м
be coming
зна чи
лни ка
насо ки
Af ter
живот ни
поло жително
Pr ime
желе зо
consen sus
m al
за държа
ри б
пре връща
de ad
грани ците
бюдже тни
законо дате
contin ues
Af gh
нача ло
намаля ването
land s
негово то
Writ ten
f low
Ш ве
re mo
бюдже ти
help ing
cor ruption
промишле ността
спаз ват
изявле ния
парти и
Сър бия
L adies
ра жда
trans actions
fact or
cus to
inter vention
стратеги чески
Pol icy
избо рите
предотв рати
продукт ите
д ия
н г
se vere
polit ic
resol ve
разши ряване
Pol and
sens itive
ко мента
ли чно
dis asters
стъ пи
bud gets
sur ance
crim es
успе шно
Bel g
grant ed
flex ibility
пренебре г
Fore ign
h ous
в ло
т ю
на ясно
ре жи
st ated
кон текст
сред но
народ на
законодател ни
car bon
външ ни
десе ти
факто р
засил ване
Съюз ът
Ha iti
научно изследовател
ф гани
на л
on ia
ne ar
pl ant
continu ing
ръковод ите
ug al
l ater
s to
pres sion
еле мент
глоба лизацията
ca uses
innov ative
Port ugal
M al
в наш
ри ска
co he
vi g
осно вна
put ting
месе ц
bar ri
Am end
оправ да
Organ isation
Госпо жи
по казват
за т
to col
че ството
трябва ло
пи с
expect ed
Ня кои
administr ation
E nergy
in cent
en ary
из пит
ря ват
tr ary
зна ят
ll ed
вле тво
наме са
търгов ска
международ но
method s
заслу жава
spir it
г ръ
я с
ко ри
ка рта
cur ren
стро ите
organ isation
cho ice
recogn ised
лип са
share d
Ac cord
convin ced
s kill
ста тисти
there by
информа цията
inter pre
поло вете
hold ers
загриже ност
фгани стан
т ски
us h
ex clu
ire d
изиск ват
strong er
аген ция
функциони рането
Пи смени
Afgh an
f are
та ри
Па кистан
пла нове
опреде ли
твър до
бед ност
конкурентоспособ ност
ети ке
const ant
Разиск ването
L ith
В П
жа ват
прие та
form er
приема не
sign ed
bring ing
Al liance
Serb ia
prob ably
Lith u
u de
за тру
ри е
Wh ile
tes ts
Съгла сен
liberal isation
analy sis
констру кти
r id
s ource
по мни
об ви
ск ъ
тел ното
spe ct
num erous
2 2
b ri
т ията
че ш
че твър
пре це
при вле
ord inary
over come
политиче ската
международ на
наде жда
зачита не
F I
h it
на ложи
на правени
пре хвър
wh om
пред стоя
ob st
sign al
ситуа ции
очак ваме
рей тин
затру дне
s w
а да
да дат
en orm
un ion
ter day
фи ска
some times
помо гнат
pay ment
sp ent
иде я
ника къв
obvious ly
Ор гани
изле зе
O c
и ти
п лена
мен тът
докла ди
comp ens
С та
ра д
не со
ка ра
con cept
пра вно
fe ed
Afric an
закри ла
освобожда ване
био логи
преразгле ждане
Гру зия
spend ing
противоре чи
възнаме рява
е же
о све
ве к
из казва
раз кри
low er
ful fil
гаран ции
вле зе
свърза н
насър чаването
изгот вянето
наказа ние
отбеля за
simpli f
happ y
Georg ia
д ра
о казва
у нищо
про ме
про довол
com ments
pl enary
pre ci
опреде лят
ele ment
серио зен
откри то
effect iveness
теже ст
лош о
obst ac
а ктове
п ите
go t
ma x
vo tes
усло вие
member ship
sustain ability
гото ви
възстановя ването
happen ing
Ха ити
свиде тели
разнообрази е
Държа вите
f uel
Н А
ве ще
до пуска
га та
държа вните
проблем ът
Ре публика
друже ствата
Де й
обхва ща
profession al
Ц ен
re act
за щите
our s
кон та
труд ности
Tur k
извън ред
subst ant
неот ло
замест ник
осве до
2 6
O L
s ound
в ти
st aff
ren ch
main ly
inform ed
start ing
религи о
A S
B y
Г а
Ф и
Я по
е тни
ч ването
ad voc
опреде ляне
right ly
жела е
огро мни
обър на
Brit ish
НА ТО
N ever
p un
Б о
О сно
м нението
т ния
ш вед
те мата
но са
че ра
до говори
te x
mar ks
accoun ts
territ ory
възполз ват
замър ся
w on
с правим
in f
то н
но си
пре пят
be ar
пред у
ло жат
ча ка
Th ird
do w
spe aking
prote cted
връз ки
точ ки
присъ ства
ге р
excess ive
удо влетво
на ции
по следва
из бра
раз чита
pre ced
ход ите
stand ing
изме ненията
Пред вид
култу ра
бу д
fight ing
равен ство
уле сни
спеку ла
K ore
p ing
u ct
ли на
слу ша
плаща ния
understand ing
conflic ts
становище то
taxpay ers
Accord ing
o od
r ound
де ния
il ateral
import s
201 4
без по
споразуме нията
resol utions
наме рим
Ch arter
значите лен
мре жи
сигна л
консенсу с
ада п
Япо ния
на правя
да ване
по пу
пред стои
гласу вам
тен ден
демокра тите
съгла сни
set tle
consider able
ядре ната
eth nic
ви н
пред приети
ide as
great est
first ly
добро во
устойчи в
вклю чи
изпра ща
президен та
A L
по ложи
мо е
port s
въз държа
каза х
програ мите
wel fare
бу рг
dim ension
P PE
in ian
re cord
it ude
пре ко
con trary
ur y
изто к
плаща не
селскостопан ски
sid es
G reen
k en
ou thern
па рите
polic e
финансо в
ефе кт
consum ption
обществе ните
strateg ies
N AT
S um
t emp
С мет
м ните
о кто
о каза
с блъ
ни кой
от бра
Wh y
способ ността
plan ning
дискримина цията
explo itation
субси ди
enjo y
NAT O
B ud
E R
А р
на помня
ре зер
ко ре
ля вам
жда ва
direct ives
build ings
вла ст
elim in
окто мври
по у
to ber
ти ци
свобо дно
свърза на
Ма кар
действа ме
подходя що
significant ly
Canad a
Oc tober
e co
й те
it ime
ab ol
сигу рни
any thing
Ка нада
ради о
собстве ни
акти ви
contain s
зако на
кратко сро
credi bility
Европей ска
гъвкаво ст
Програ мата
b ed
у р
ed er
ма кро
ми ну
de g
ката стро
certain ty
oc cas
address ed
техни чески
stud y
опера ции
железо път
Смет ната
D es
ent ially
il st
un able
op tion
support s
разли чия
resol ved
причи ните
жела ние
приорите тите
Ту ни
sim ple
изгражда нето
отне ма
l s
ти нен
for th
са мите
ше на
te ction
пи там
извест на
превър не
чия то
Never theless
F ra
F rench
r ich
а при
и рланд
th ought
ou d
ти е
су ве
осно вната
ша ват
За що
зд равни
свърза но
cap able
култу рата
подходя щ
ней ните
критери ите
анали з
barri ers
Органи зацията
2 8
3 1
G lobal
пе чат
еди нен
потре бле
colle ctive
тво р
елект ри
обър не
конфли кти
E ven
Д у
ми ра
из бяг
ста нат
ку пу
ru g
премах ването
зая вя
appe al
функциони ра
чете не
submit ted
deli ver
ultim ately
Туни с
t ions
да ваме
ри ето
com mission
вя рно
кон тинен
член ът
ръ ка
chan ged
eng age
dra wn
ident ify
Russi an
поръ чки
affe ct
зачита нето
tour ism
Sum mit
в следствие
т рите
st ead
об ору
зо на
ty p
ele ction
даде на
хра на
Следва щата
К Т
съ вър
pro s
сле ди
бо рим
Гласу ването
подпи са
Прави лника
G DP
c up
об ли
пред полага
com plain
est im
фика ция
eas ier
hon ourable
f ill
r s
съ обра
ob serv
За пад
продъл жите
изме рение
Има м
Има ме
месе ци
риз ъм
definite ly
curren cy
A pr
re ference
an cing
та ря
ре ш
от правя
st able
lo b
ча к
ur ally
су ро
od iversity
adop ting
negoti ating
данъ ци
rev ision
condem n
брита н
mac ro
апри л
Apr il
or ation
ve red
об лек
work ed
По ли
взе ти
дате лят
съв ме
G iven
d iv
i b
n ual
ли ген
об лагане
пред паз
тър пе
produ ced
bo ost
бя х
sur ve
истин ска
отговаря т
exer cise
с дел
на пра
re p
ab stain
get ting
bud s
институ ция
offic ial
network s
attack s
милиар да
отразя ва
буд с
pros per
7 5
Т и
п ръ
щ ията
то ра
is ive
und red
In vest
еди но
dis ease
пол зи
само то
trans ition
br u
увели чава
структу ра
require ment
бан ките
участ ници
ron t
enorm ous
i ra
П Г
то ку
инте лиген
помо щи
Пред ложението
енергий ните
Gree k
Ве че
K oso
Н у
en abl
си лен
до пус
ло я
чи и
Ко сово
end ing
По зво
comp lic
контро ла
encoura ging
oblig ation
меди ите
Съще временно
referen du
p ill
p has
s al
о ке
le ct
ля ването
На пример
пър ви
оста ват
иде и
ins ist
associ ated
печа л
vehic les
M iddle
х ва
im migrants
op les
qu e
спе че
Не зависимо
разли ка
bo ard
tal ks
Об щата
coura ge
нами ра
паке та
appe ar
ЕФ ПГ
F e
в ред
en large
ли ча
qu o
раб отно
отгово рни
финансо вия
демократи чни
viol ations
огро мно
председате лят
президен т
restrict ions
p ubl
Б лиз
й ски
не съмнено
if t
200 0
разу мно
тек сти
серио зна
търгов ските
bour g
inst ance
firm ly
предизвикател ствата
гео граф
manufact ure
и ск
pro cure
ци ф
ще ния
un fair
необходи м
източни к
опе рати
Предсе дателят
elect ric
mater ials
geo graph
g ap
l ate
Х ристиян
д ване
с цена
ou ble
мест ни
осигу рят
dra f
живе е
малцин ства
B o
M old
m illions
с ложи
pe oples
ri a
ин ди
тъ ра
cris es
control s
мла де
particip ate
здраве опазването
чув ствите
offic e
достав ки
перспекти ва
Mold ov
B ra
O s
Б ВП
й ни
ч ват
ъ г
те ле
st er
мнози нството
m il
В я
Ю жна
cl ass
gu res
поста вят
благода рение
Fund amental
oc cup
зависимо ст
repe at
установя ване
Стра те
н да
с ията
on ess
ре кла
не прекъсна
па та
па лести
жи вя
социа листите
систе мите
основа на
fi gures
invol ving
Bar oness
започ нем
Международ ния
стандарт ите
увре жда
D anu
N G
пре ход
при обща
сти гна
deb ates
just ment
respect ed
региона лните
reach ing
спаз ването
parliament s
единстве ният
enforce ment
EI B
Koso vo
Позво лете
Danu be
С лу
д ъ
от варя
кра чка
ig no
бан ко
commun ic
земе дели
екологи чни
refle ct
eval u
attemp t
ori ent
E very
e arli
ст рия
ic i
strengthen ed
пое мат
положите лен
satis fact
Tunis ia
buds man
re stric
ст ъл
пре бива
se c
кон це
Не що
финансо во
европей ците
коле кти
насо чена
край но
emphas is
засегна тите
keep ing
jud icial
достав чи
Ин дия
urgent ly
d ign
ct ic
при надле
ня ваме
твър ди
individual s
имигра нти
procure ment
C y
g g
на след
не по
me rely
пи са
фе де
af for
подоб но
случа ите
публи чни
allow s
allow ing
обе кти
bi odiversity
ом будс
отбеле жа
danger ous
saving s
испан ското
Amend ment
bri ef
чии то
Християн демократи
A ust
g ence
h undred
z il
А н
А фганистан
у м
та ция
но вото
се рва
co vered
fact ors
бан ки
състоя нието
граждан ски
Че ш
риболо в
deleg ation
повди гна
жизнено важно
стату т
bru ary
Fe bruary
w at
въ д
ev idence
На истина
dec isive
gra du
Мо л
плаща т
consul tation
законодате лен
max imum
Поли ти
i ation
в ру
д ят
не р
фе вру
разиск вания
improve ments
отде лни
har m
солида рността
trad ing
emer gency
Americ a
съсед ство
консулта ции
забо лява
Fra mework
O m
И С
съ щата
мо ра
for man
ac ed
само стоя
see king
мето ди
оцен ката
забра на
независимо ст
укре пи
aware ness
преодо ле
Slo v
Des pite
Bra zil
C ol
p ush
re pre
ст ву
по то
мо то
se cre
ur ban
къ с
int ention
201 5
европей ци
чу ж
висо ка
sha dow
факто ри
Bal tic
repre ne
d on
ж ните
к вот
на гра
ни ски
ст вията
con fir
li ghts
ver age
ap preci
200 2
Pro tection
meeting s
Reg ion
мог ло
имигра ция
bre ak
правосъди е
leader ship
февру ари
Ф акт
au to
кри ване
ан с
high est
ban king
On ly
допри нася
капаците т
Balk ans
G az
b ol
t ro
съ чета
ня кой
co operate
работ на
важ ността
мери ка
правомо щията
divers ity
американ ски
моде рни
distribut ion
Ду нав
не благоприят
се т
об щия
iv al
гла с
my self
транспо ни
sp ace
загу би
approv al
конвен ция
Ind ia
неприем ливо
оке ан
уврежда ния
Мол дова
И кономи
О чевидно
а ре
er ves
не равно
st abil
про ва
са ми
са мата
жа л
тира т
oper ating
start ed
вътреш ни
широ к
Кон венцията
ron ic
lar gest
обвър зва
опрост яване
ва ните
as ks
ch ed
lo ye
под копа
каз ваме
dec ent
сега шната
app lies
interest ing
ком проми
обществе ното
препоръ ки
служите ли
AL DE
deg ree
w in
д вата
н ка
st ay
при ето
сти га
це ната
fe ar
wor se
зна м
дне вен
red und
реше н
тра фика
увели чение
демократи чна
изгот ви
али анс
разши ряването
yes terday
equip ment
politic ians
Близ кия
Y et
Е дна
ф рен
al ity
до й
ги й
спе ст
вод ят
включ ването
follow ed
Мо га
prevent ing
изразя ване
извърш ват
зако ни
безработи ца
заинтересо вани
flo od
enlarge ment
affor d
Om budsman
forman ce
в ди
an g
ва що
по ка
ol ution
послед ната
reason able
призова ваме
годиш ни
опас ност
Средиземно мо
множе ство
електроцентра ли
skill s
Slov ak
an cial
ти й
из лиза
ra b
chan ging
emp loye
real ise
задъл жение
Из то
мили они
регула то
super vis
ЕИ Б
дио кси
веще ства
А мерика
ме ра
ent reprene
st e
про пор
fe at
iv ity
дове дат
изпъл нява
цяло то
sequ ently
опит ва
harmon isation
tool s
неотда внаш
medic ines
Вре ме
универ сите
В место
г но
о добри
ф у
re ven
из разход
пред по
un ited
ложе н
vi ation
ser ies
оби ча
собстве ност
Ба р
introdu cing
култу ри
противо поставя
здраве опазване
семей ства
Съще ству
exclu sion
безпо кой
катастро фа
M one
по каже
ци ви
lo se
op posed
interest ed
val u
обе кт
Li ber
plac es
alloc ated
defic it
S uch
s ort
on going
ри ра
па ния
ad es
след ните
кт но
равни ща
позво лим
огро мна
центра лна
Ха рта
flex ible
дипло мати
О ще
не у
or ary
об ре
би ват
ex e
Ко ре
contin ent
дово лен
Иска ме
off ers
abil ities
bl ue
b or
да ж
ре нието
ст у
te ed
може те
mar itime
compet ence
жела нието
пое ма
пер со
прево зни
освобожда ването
2 9
I S
n es
К у
т ъл
по вод
де те
be long
con ver
ra in
mo ving
кра тно
иска ли
прави лното
спе шно
жела ят
depend ent
реша ването
нару шение
Ar ctic
значите лна
догово р
проу чване
subsid i
AC P
есте ствено
legit imate
Отно сно
EG F
фалши фици
referendu m
Moldov a
из те
res pective
su itable
пред приемем
so le
ab use
подкре пе
finan ces
just ified
присъеди ни
огро мен
престъп ност
recommend ation
industri es
спи съ
човеш ки
лиз ъм
determin ation
Afghan istan
съвър шен
о черта
х ристия
не ф
де ба
de v
de light
im posed
he av
It al
слу жи
oper ations
подоб ряването
say s
real istic
sur pr
какви то
аген циите
substant ial
Invest ment
A no
H er
f requ
ре це
per mit
задъл жително
задъл женията
изключ ване
des cri
guaran teed
воен ни
бежа нци
penal ty
направе но
приспособ яване
изказ ване
Ano ther
A re
h op
а т
б ру
то п
че то
пре ми
пре чки
об ро
пред виде
ab s
fe ct
per formance
създа дат
му л
настоя ва
sol ve
pur poses
зае ме
аген ции
mean ing
проу чва
repe ated
ави о
Mone tary
Y es
d ig
h y
в зи
на па
да м
ar ri
be ha
ди кта
se m
mo d
спо рт
пла на
stru gg
наро да
la id
comp ar
оча ро
Fund s
Fin ancial
dest ro
Коре я
F rom
O S
o ts
ва кси
to ld
пред ви
следва щия
тя ването
До ри
свър ши
Str uct
осъщест ви
исто рия
положите лни
adver t
кни га
hous ing
м ле
an ian
за бележ
раз ру
si bly
енер гията
stit ution
реше ни
мал ка
defin ed
proper ty
съби тията
стратеги и
игра ят
пов таря
accep ted
обли га
Б я
т ва
ни ско
le a
об щото
об служ
из общо
te le
ex emp
правител ствени
преодо ляване
унгар ското
ора тора
exper ts
промен я
терито рията
labe lling
характери сти
g ment
в ката
с пра
ш ия
ре ци
pos ing
Un der
thor ough
ке до
writ ten
благода рност
докладчи ците
разполага т
Тре то
mic ro
кору пцията
Kore a
G row
h om
s la
Б рази
Г н
п те
to t
as sure
из яс
раз очаро
гра дове
Th ose
co al
създа ват
plan ned
Pro ced
equ ally
зася гат
stat istics
Оба че
Га за
i o
А КТ
с прави
у ре
про даж
id ents
гово ря
ся нка
cont act
вно са
af fairs
собстве на
бюджет ните
гре си
Ме р
деклара ция
кори ги
earli er
dign ity
Struct ural
АКТ Б
пра вната
член ство
прави лната
fic ation
реа листи
наме рят
contribut ions
resul ting
приветства ме
pass ed
хуманита рна
изгражда не
разработ ването
Third ly
преко мер
A rab
g or
im pose
ту р
су бе
важ ното
like ly
мя ната
any one
cent re
cond ition
осигу ряването
проти вен
commit tees
initi al
бро ят
трети ране
targe ted
въглеро ден
неотда вна
данъкоплат ците
Gaz a
пропор циона
3 00
R ules
ко мите
im per
сре ди
годи шно
дне шното
deal t
Цен тра
. )
K ing
d y
v acc
в печат
е ки
с ните
бе н
vi our
възмож ни
бя хме
process es
достав ките
гръ ц
обору дване
delight ed
Д С
п ция
ве ст
при ключ
при доби
тел ния
work s
form ation
път ува
пози ции
устойчи вото
find ing
focus ed
обя ви
стре ме
меди цин
зло употре
възобновя еми
нар ко
forth coming
Ital ian
Grow th
Брази лия
С у
con cil
ch ain
ната тък
пър вите
позво лят
инвести ционна
care fully
подходя ща
guarantee ing
субси диа
announ ced
преце ден
Харта та
I ce
M F
T O
на ла
as p
ба ро
икономи и
каза ха
mone tary
спаз ване
Може м
preced ent
n al
ж ност
ро н
ве ната
па тен
im possible
cl usive
сре щи
конкре тен
наме рения
play ing
призна ва
Comm un
ней ната
active ly
исто рията
уби й
F T
V AT
си лите
il t
из гра
ня вам
produ ctive
настоя щите
loy ment
ограни чаване
авто мобили
спи сък
очак ват
малцин ствата
tru th
бежа нците
reli able
Регламен т
Global isation
съвме сти
P lan
T i
s mo
С С
с правят
по коле
ли зирането
il ities
из чер
un anim
if f
По настоящем
съще ство
вод ите
оста нат
des ire
доку мента
Всич ко
обу чението
мони тори
успя хме
prim arily
бизне с
предвари телно
Turk ish
Фи нан
prosper ity
s pread
at tra
от че
ar range
ве ния
wh ilst
com ment
am a
ду х
cl ause
произ тича
обсъ дим
play ed
предлага т
ear th
peace ful
изпра ти
neighbour ing
греш ки
прекра тяване
spec ulation
conclud ed
subsidi arity
beha viour
Д ДС
с ли
ф изи
три н
subst ances
hon est
technolog ical
exper t
experien cing
Ice land
3 5
W TO
r ul
о ди
ко р
ic tion
го рите
гла вно
Па кта
int entions
все обхват
време на
Ли тва
Ма кедо
cut s
дре б
лип сва
мог ъл
unt ary
теро ристи
Директи ва
Призова вам
won der
Ti bet
k ers
w it
в чера
й ца
п раз
на сам
те ку
ви зи
we alth
спо ро
над зо
нама лява
демократи чните
изразя ва
discrim in
emer ging
пове дение
demonstr ated
експе рт
ни м
се пте
ве ри
ля ваме
ted ly
реа лно
законодател на
какво то
entire ly
укреп ването
приро дни
риско ве
Lithu ania
непрекъсна то
Чеш ката
tot ally
King dom
Македо ния
септе мври
I ra
n ations
с гра
у съвършен
пре разгледа
съ зна
ment al
ху ман
min utes
обще ствено
represent ative
устойчи ва
призна ем
exist ence
граждан ска
expect ations
мла ди
нос ят
сим во
candid ate
инду стри
преду пре
Ira q
M aced
O ther
н тите
о нова
in corpor
at s
но р
ar ma
ent it
se a
reg ister
tri al
In stead
доб рата
ша н
propos ing
тех ния
qual ities
defin ition
теж ко
средно сро
obstac les
inf ring
диокси д
A si
u ly
т ност
ро дите
ли чните
se ven
при помня
ря ваме
ver se
ex plan
бъде щата
dis eas
oper ational
ian nual
cent ury
успе ем
acc ident
спаз ва
extend ed
съста в
остро ви
демон стри
declar ation
изтък на
l am
l ap
n ation
и ме
es ts
of in
ле т
as su
Th us
pres ence
sy m
polit ics
comp ared
dec ades
med ical
реа кция
полу чава
първо то
вътреш ните
pur ch
призи в
critic ism
stake holders
компани и
Palest inian
рад вам
diseas es
а со
з ните
х ране
re ci
не сат
си лни
тел ната
ду м
слу ш
oper ators
Last ly
diplom atic
швед ското
C E
S ep
t ember
у дъл
да ден
во дне
съ стои
про тек
ill ance
act ual
wor ry
pr us
свобо ден
необходимо то
exam ples
вся къде
отда ле
neighbour s
continu ed
big gest
ръководите ли
Cy prus
D A
А в
Е дно
д жа
ле тия
ви ната
съще ствени
парламен ти
съгла сна
person ally
government al
ар гу
ней ното
apply ing
demon strate
simpli fication
уме ния
typ es
a verage
за явле
во лю
га не
бе т
гле дне
нама лят
обществе ността
hand s
top ic
селскостопан ските
отда вна
He alth
Sep tember
W est
c ity
f ront
p an
в з
за ле
не при
ро м
се кре
ly ing
бъ да
sa ve
разиск ваме
инстру ментите
извър ши
нами рат
treat ed
relig ion
реаги ра
surve illance
наслед ство
employe es
G u
P er
c ate
d rug
z er
Х о
on line
га ти
пред прие
ra w
ex clusive
Commission ers
зна к
Съ да
тра фик
tax ation
вижда ме
Is lam
заклю ченията
разби рам
отбеле жи
Americ an
конферен ция
акцен т
реш ително
Средиземномо рието
Proced ure
А ген
г ната
на ши
да ването
по питам
из би
ha z
ul ated
дру гото
per fect
ся ка
see ing
demo crat
дейност ите
реши м
обез ще
refer red
лекар ства
adap t
sovereign ty
sche me
попу ля
суро ви
sym bol
D uring
Q u
О чак
С чита
or se
де нието
си л
до говаря
with draw
стра дат
дейст ват
защи ти
бюдже тът
случа ят
pen sions
увели чаването
global isation
invol ves
suf fered
trad itional
clar ify
rup t
cle an
сфе рата
асо ции
I C
g one
o rest
д ръ
re m
ro om
res to
ra d
грани ца
ific ations
изи гра
поста вени
ext ension
Лисабон ската
tax es
So lid
съдържа нието
годиш на
Co operation
reject ed
заболява ния
A gr
S tock
ре формата
ле ните
gr ate
19 8
ph en
затво рни
съобще ние
friend ly
Sa fe
sem bly
Agr icult
E E
т ла
т ят
on om
to ler
ме со
из б
te red
подоб рения
включ ване
реа лност
fac ilities
Про бле
contra cts
elect ronic
mater ial
деклара ции
изклю чение
валу та
separ ate
провер ки
десети летия
привле ка
конта кт
C ub
in ese
по чи
де т
su res
me ant
къ вто
кон серва
bal ances
резолю ции
устойчиво ст
wa iting
contra ct
нуж дите
търсе нето
Ad justment
tex ts
Maced onia
F ree
t end
В Д
в ра
г обро
м ля
за еми
се дем
Ch inese
ангажи мента
applic ations
потвър ди
detail ed
determin ed
боле стта
компетент ност
Solid arity
H ead
W omen
c ities
re place
по ро
ка къвто
com ed
кти ка
co ast
убе ден
ува жение
препоръ ките
fel t
осъ зна
nor mal
dut ies
enh anced
Бал кани
уязви мите
hol m
compens ation
гер ман
Stock holm
phen omen
s k
re cession
en e
ar rest
съ времен
об едине
при държа
ло гия
po l
хо пла
разиск ванията
позво лете
wel comed
гласува хме
данъ чните
минист рите
опасе ния
a viation
на водне
re tain
we ap
пред мет
ac king
ish ing
сме ло
разви тите
beli ev
висо ките
коле га
negoti ated
мето д
свето вна
air lines
стреми м
запази м
помни м
едино ду
Ну жда
mil k
феде ра
Центра лна
J uly
m id
и два
на пре
al le
де но
ло в
ul ating
cl aim
ЕС ВД
няма ме
здра во
посо ча
постигна хме
bu ilt
stud ies
langu ages
бло ки
cohe rent
чеш кото
ур нали
Запад ните
циф ро
u su
и тали
о пти
it age
мно гобро
Съ с
ус во
сме к
проце сът
причи ната
изпъл ните
прое кто
sur v
gener ation
служ би
енергети ка
рейтин г
temp orary
сдел ки
n one
s low
Р о
С ток
ю ли
in surance
по степенно
не о
от пус
ве дна
хо лм
ust er
ple ase
каза ното
ctor s
изпъл няват
собстве ната
air y
maintain ing
request ed
Зна ем
enh ance
design ed
lat est
предназна чени
Сток холм
ведна га
I m
N ew
d ed
g ic
j an
Н иде
й то
по гледне
con firm
lo ans
pos al
co re
цен търа
фа кти
нама лим
bon ds
нали чието
транспо рта
голямо то
Str as
диало га
извест ни
възду хопла
официа лно
одобре ние
wit ness
с бург
се сия
преди мно
цен ностите
око лна
директи ви
colle ction
With out
доба вя
доба вена
Christ ians
търсе не
subsid ies
лиде ри
settle ment
търпе ние
A u
d rop
С ТО
й но
н ската
п си
у да
ч ията
ва йки
ст ване
st or
до ш
ne ither
ri es
държа вни
въз станови
qu ot
цио нен
other wise
съще ствена
предста вени
насър чават
Pro gress
success fully
потреб ностите
еже дне
complic ated
dy nam
итали ан
Stras bourg
b reach
f ast
m ine
на ло
на всякъде
си е
ста ват
сто ят
дъл ъг
По доб
разли чен
даде ни
text ile
represent ed
демократи чно
mor ning
терито рия
geograph ical
деба т
р ния
con vention
ag ency
бо ри
иска нето
вече р
form al
съще ствен
част ност
att itude
pay ing
Ва шата
affe cting
EC R
ключо ви
кому ни
запаз ване
disput e
вяр вам
sto cks
phas e
Нужда ем
a ther
м ият
у твър
ч ният
ни ва
er ing
st ra
до хме
из че
из ку
ch es
ra dio
сти гне
сно то
след ното
ans wers
много стран
няма ше
exam ine
докладчи кът
нару шаване
hold ing
Ки пър
Че рно
ground s
dict ator
bureau cracy
Safe ty
P aper
s cr
у е
на раст
ко ра
ro b
ле чение
ter ri
200 1
мал ък
задъл жението
постигна ти
ман дата
lim its
обсъжда ния
проект ите
изявле ние
плани ране
associ ation
highlight ed
legit im
дефици т
свобод ното
изказва ния
simplif y
Au thor
d airy
Ж е
ж урнали
й ните
re iter
не са
ти ето
си ите
из ли
ha bit
ad mit
послед ното
региона лни
bring s
Al ban
cho ose
tar iff
справедливо ст
опита ме
Стра сбург
AC TA
сат ланти
обрат ното
constitution al
асоции ране
з ната
st ream
си лата
из ложени
so ld
com pe
въз ра
si ght
you th
mar g
мина лия
изпъл нени
чу жде
increas es
ris ing
adv ance
mult ilateral
подроб но
pi e
спомо гне
S ub
h ours
k o
Е Ц
И с
ли ни
де ла
ди нами
из оста
ще ние
ch ap
ред ите
стве ното
ку р
един на
част ни
национа лното
less ons
специа лни
speci es
number s
регламен ти
действа щ
At lantic
speak ers
обър нем
поле зно
ядре на
греш ка
бюрокра ти
Со ли
aut onom
Belg ian
quot as
l ined
е на
у ми
mo ther
ин ци
ня какъв
су ма
всич ките
защи тни
подоб рим
тра г
уве ря
compet ences
рай он
подкрепи х
мор ски
функциони ране
май чи
отпадъ ците
специфи чни
rein force
lat ter
осе м
защите ни
advert ising
Финан со
S ud
по кажем
пре структури
про след
ки тай
tra ged
cour t
consider ing
Та й
демократи чен
спомена ва
независимо стта
моби лност
tack ling
смърт ното
appoint ment
uni form
abstain ed
Ис ландия
Соли да
Г у
о си
об работ
il ing
ду мите
На пълно
необходи мата
lear ning
цен три
пър ва
world wide
поста вим
продължа ваме
соли ди
resul ted
счита т
mult i
orig inal
mark ed
готов ката
матери ал
incent ives
T a
С лова
У бе
е мата
ж ното
ф ору
то то
at lantic
пре работ
ви но
жда ме
ren ce
ръ це
работ ната
предложе ни
comp at
народ ите
прове рка
точ ното
способ ност
фон да
On ce
Все ки
капита л
отбеля з
vol untary
съкра щения
rat ification
уважа еми
jour nal
референ дум
вз ето
B os
c ard
t ren
м ната
р ство
я ва
на бор
мо ето
из вле
па рни
ex ists
ба ния
pr oud
До като
col lab
streng th
Ре ше
No t
храните лни
храните лните
осъщест вява
terror ist
избе гне
bi o
detail s
differen ce
prepar ing
loss es
обикнове но
mobil isation
acknow ledge
Зеле ните
custo ms
безпокой ство
среди земно
d ouble
m ur
не пре
ве ност
зи ран
бъде щи
ба на
иска ния
dis posal
опреде лен
вто ри
inter ven
публи чно
практи чески
defin e
demand ing
farm ing
разглежда ме
offic ials
очак вам
обез поко
застра хо
happ ens
prim ary
газо ве
Bos n
Й е
Я сно
раз положение
под готовката
op tim
со ве
въз препят
wor st
сво е
вре ди
200 3
бюдже тен
настоя телно
negoti ation
health y
малко то
benef icial
убе жде
siz e
започна т
wa it
speech es
investig ation
pun ish
confir med
dig ital
предви дени
споро ве
grate ful
F ood
c ou
О доб
и д
т ната
ко сно
кон солиди
ха за
су трин
under min
разли чна
жерт ва
found ations
зае ма
чув ства
contain ed
advant ages
длъж ност
declar ations
Шве ция
проме ните
чужде стран
Sud an
m ap
В тори
на ха
за ста
от сла
спо р
поло вина
opin ions
wish es
мор ския
съсредото чим
приложи м
квали фици
experien ced
сблъ ск
valu able
entit led
Ниде рландия
b ro
h ib
t asks
Ф он
в ност
е мо
з ъм
н зи
ни ква
ре волю
по кри
al ar
от те
из чи
же сто
ста р
бе л
sh aring
qu ant
То чно
цен тър
rel ative
защи тим
пас ите
soci et
viol ation
област ите
amoun ts
Международ ната
служите лите
конферен цията
двустран ни
O ver
и сля
с ват
на скоро
an a
те м
за ви
be l
из ри
при близ
ate ver
us ers
ед ни
per form
new s
инте ле
ine qualities
deb ating
Аз ия
свето вно
призна ване
ефектив ното
draw ing
семей ствата
инфраструкту рата
вари ан
риболо ва
амбицио зни
proceed ings
acqu is
непри косно
W ar
Ю жен
ь о
at ta
ли ната
пре чи
ми тни
из го
ци п
con serv
un employed
ap pointed
ure ly
гу б
фор мите
послед ствие
gener ally
подчерта е
устойчи ви
внесе ни
воде ща
Це лите
consul t
graph ic
flo or
суве рените
Аген цията
A z
b ase
f ru
ре ност
of fered
от каз
съ щи
го сла
пе ти
ба рие
тър сят
каза хте
предоста вени
реа лна
Из разя
място то
depend ence
ident ified
minis ters
постоя нен
представите лите
разби ране
Си гу
launch ed
дис цип
s outhern
в лича
п лу
по ла
ви ду
res ist
po orest
връ х
пър вия
great ly
national s
ele ctor
позво ляват
play s
ident ity
Бе л
constit ute
ключо в
pursu e
En vironment
осведо ме
supervis ory
монитори нг
a uster
u k
п че
на ша
ли чния
con trad
ще ти
mo dif
би на
бо гат
au d
разли чно
опреде лянето
конкре тна
contribut ed
contribut ing
Con ference
amend ing
ph ys
amb ition
prof it
constit u
запа си
екологи чните
каква то
Бал тий
експе рти
auster ity
Б ю
на ри
ва щ
под ложени
ci pl
tri ed
лага нето
опреде лена
едно временно
зира ме
play ers
справед лив
валу тен
credi ble
condu ct
продовол ствената
Region al
фу ра
И рак
er ies
не търпение
поли це
вен ция
propos es
cent res
Ре золю
exp and
съби ране
intend s
dom in
ангажира ност
Страте гията
комите т
concil iation
здраво сло
g amb
o ting
за къс
не ле
be comes
мо ля
въ оръ
res ource
im ag
reg is
some one
sa w
отгово рно
рам ката
ult ure
национа лен
послед ствия
свърза ните
стопан ства
цион ната
региона лната
каче ствени
tur ning
допълните лна
address ing
мор ските
опас ни
дя л
баланси ран
алтерна тивни
клау за
биологи чното
характеристи ки
дръ ж
Слова кия
M ex
n ity
in y
pro tocol
not ed
op tions
20 50
жи в
coun t
und oub
инте нзи
min ute
полу чим
авто р
авто но
An y
treat ies
фондове те
показа тели
che ck
конфли кта
употре бата
незакон ната
dest ru
канди да
export s
Swed en
жили щ
Sy stem
hundred s
Mex ic
A ct
M or
i or
К ри
Х ер
д вой
н ди
щ я
из нос
und ers
зо н
тре се
цен тро
помо гна
създа дени
beli ef
разгле ждане
запо чва
стро го
mand atory
спа д
nat urally
encoura ged
among st
neighbour hood
mp loyment
доказа телства
green house
процен т
мар ки
дълбо ко
poll ution
леги тим
Бо сна
estim ated
enabl ing
инди виду
Вя рно
Bosn ia
f eder
g ies
с ви
у бед
re ens
ве ли
ло н
ор ъж
въз никва
тре та
реги стри
рабо то
ship s
help ed
насър чаваме
структу рни
ангажи ментите
vis it
paren ts
threat s
загу ба
subst ance
coordin ate
mass ive
потребле нието
infring e
Втори ят
A F
e red
e ight
f f
ста в
ab and
ше но
ложе но
sup posed
сигу рен
годи ната
въпрос ните
political ly
наш ият
fi g
граждани н
тек стове
gener ations
достатъ чна
signific ance
Ag enda
моби лността
сфе ра
constant ly
затрудне ния
elimin ate
Slovak ia
destro y
E T
R es
p ain
а ктуа
ж та
к редите
т ръ
по жа
er r
al i
st one
при ходи
op pose
spe cts
проце си
демо граф
настоя ваме
abl es
vis as
struct uring
успе ха
кан ския
previous ly
Co hesion
run ning
призи ва
упраж нява
обрат но
spo ken
разбере м
Author ity
кредите н
u me
по ми
по нен
ли х
ra ising
жи е
econom ically
сво й
tra ve
полз ват
подоб на
защита ват
requ ests
прове ждат
fav ourable
achieve ment
малцин ство
respond ing
устойчиво стта
плани ра
prison ers
gamb ling
индивиду а
C or
F ish
R ese
i k
м оти
ва жи
не дости
го ра
до ход
ke pt
ex clud
важ ната
предложе ните
създа ден
подоб рят
прове ждане
реа лната
clo sure
access ible
отговорност и
benef ici
effici ently
appropri ations
администра ция
Го во
link s
дости гна
разпреде ление
заб ране
работно то
Слу ж
Изто чна
Су дан
Rese arch
s tock
Ч лен
на бле
st ip
пред прия
Th urs
разви ват
гаран ция
разли чията
regul ated
публи ку
насо чено
вся какви
ail y
Pol ish
дългосро чни
never theless
близ ко
penal ties
промен ят
spo ke
предим ство
Lat in
intel lect
режи ма
electric ity
интеле ктуа
undoub tedly
G o
G reens
I MF
d aily
i to
r ation
w ent
w ider
т ият
ent ail
as sets
пре живя
про гно
пра вен
ver sion
com mod
мен я
act ing
pl ed
цио низ
следва щото
път ни
публи кува
depend s
съдържа ние
годиш ната
имигра цията
grant ing
нуж ди
dist ort
съдеб ната
passeng er
готов ност
визо вия
съобра жения
conver gence
J o
p aper
к циите
н ските
re structuring
ст ър
мо щ
пра вните
ря вам
ex cept
cl aims
dis cipl
under taking
demo graphic
правител ствените
ti ght
въве дат
care ful
cho sen
war ning
единстве ната
хиля до
regret table
съобще нието
univers al
histor ical
Mon ten
acknow led
publ ished
самостоя телно
heav y
Thurs day
N ational
g ave
М ек
не възможно
de tri
под помогне
end ed
end orse
То гава
тира м
issu ed
обсъ ждането
open ed
prof its
ези ци
разглежда т
пъ лен
Че рна
теж ки
hon our
въведе м
матери а
матери али
Ob ama
Ne ther
exception al
E F
I ts
x ed
не д
пре говаря
го ве
ut most
ho st
cons ent
att le
запо вед
висо к
environment ally
стаби лна
Con stitution
степен та
follow s
призна е
отде лно
civil ian
list en
Са ха
интегра цията
пъти ща
Дру г
Оба ма
съсе ди
Asi a
legitim acy
Мек си
Nether lands
b ul
Р ад
is ol
ch air
ul ations
ur gency
me at
бъде щото
Th en
ба л
дъл га
осно вният
fa ith
преди шното
рам ко
здра вните
цион ния
съответ ства
last ing
голе мият
ограни чава
извър шени
транспорт ни
вер си
вла стта
sci ence
възраст ните
correct ly
dri ving
заинтересо ваните
manufacture rs
Ку ба
субе кти
обезще те
бел гий
а раб
а фри
о казват
те леви
for cing
из слуш
пе че
при дви
ложе на
gu id
prov ed
основа но
compet ent
сро кове
lead s
sp here
реша т
var i
appe ars
Гру пата
histor ic
изключите лна
sw ift
sec ution
Факт ът
reven ue
приблиз ително
intellect ual
E M
F ollow
н ски
у се
не избе
ла ция
мо но
про спе
до колкото
раз следване
Съ зда
time ly
ful fill
trans itional
помо ля
гарантира нето
cons ci
бед ствие
сна б
nov ation
механиз ма
допри насят
199 0
разпростра нението
преразгле ждането
съобраз но
гене ра
univers ities
земедели е
Счита ме
Agricult ure
Солида рност
d ivid
Д али
м нения
ю ри
ре ка
ве ността
бе р
гла ва
import ed
пъл ната
chan ne
политиче ския
mon o
necess ity
negoti ate
акти вни
вижда м
Вто рата
mult iannual
лиз ма
стимули ране
argu ments
потреб ности
eg ro
NG Os
communic ations
satisfact ory
тъл ку
resto re
комуни сти
terri ble
Mexic o
Mor oc
Monten egro
R ed
S P
на че
об о
ce ler
вър не
вър нем
въз стано
гово рят
co decision
има те
годи шен
вно с
приема ме
мест ното
реа лни
изиск ване
енерги ен
насо ките
бър за
contro ver
sen sible
pat ent
priv acy
убежище то
върхо вен
пъту ват
отбра на
сгра дите
worry ing
weap ons
fig ure
Fish eries
I P
Y u
f em
f ers
r out
й ския
ни каква
to od
от каза
ти п
го де
de red
же на
раз война
пред поста
ба зата
vi able
iti g
int ens
На шата
finan ced
гласу ват
насър чим
насо ка
Con sum
достатъ чни
sp ite
дово лна
power ful
глоба лно
прево з
Social ists
приро дните
Ла т
Be fore
popul ations
коли че
societ ies
вариан т
unders tood
M a
c rop
e li
с гради
in spe
по зова
за пад
ро д
че м
пре ферен
из кажа
wh atever
раз грани
раз говори
чи е
em en
ac celer
pos sibilities
end ors
оста нали
appro x
финанси ра
съответ но
изве стен
turn ed
обя сни
rele ase
He re
човеш кото
consist ency
лети ето
улес няване
Ал бания
school s
Col le
жив отно
в ус
в дъ
re construction
ва ща
ре пре
er ror
ro ots
ли ния
съ бра
об единените
im es
ля зат
полити ци
fore most
пъл ното
int ensive
sy mp
прове ждането
invest ors
него вия
цион но
насо чен
val id
авто рите
авто мати
affe cts
Бе ше
пома гат
applic able
прево зва
suffici ently
extend ing
възполз ва
доказа телство
заслу жават
обикнове ните
независи ми
истори чески
concent rate
flow s
четвър тък
Head s
scr ut
L ef
к ър
из мер
из носа
im balances
ност ран
com plement
зо ве
По ложението
rel ates
ком п
оцен ки
прозра чни
second ly
дългосро чна
Как ви
che cks
незакон но
междунаро ден
организира ната
администрати вните
succeed ed
gl ad
облига ции
кора би
Alban ia
Follow ing
Лат вия
Lef t
3 6
М О
Ч рез
ре формите
от насят
въ гли
из пита
we red
су ми
We ll
обла годе
тър си
каз вам
подоб ен
собе но
author isation
large ly
мигра цията
съби рането
ify ing
her itage
прием ливо
връща не
установя ването
проя ви
поко ление
пъту ване
near ly
изчер па
Ав стрия
траг ед
Балтий ско
V i
V IT
W ill
и ран
ч ките
ш ият
ва на
en n
ро ят
pro hib
раз следва
пра г
lic it
фи ни
fin e
sup plement
pre fer
ну жно
основа ни
ext ensive
чу де
comple ted
нами ране
разши ри
mor al
supp lies
положите лна
Minister s
парламента рен
времен ното
satis fied
proportion ate
свет лината
кръ г
bureau cratic
еднак во
interpre tation
Ста ва
континен т
субсидиа рност
протек циониз
traged y
W I
W here
e ye
s ad
та кси
те ми
но сите
er y
не сигурност
ри рат
от съ
ма со
ви с
be aring
com pon
бо рят
pl ural
tra ck
some what
социа лния
тран сатланти
послед ния
нами раме
съгласи ето
зачита т
беля за
indic ators
завър ш
предотвра тяването
Lat via
резер ви
пото ци
кор по
затворни ци
fru it
aband on
хилядо летието
p u
О собено
re action
но вете
ди верси
пе ри
he aring
ag ue
под ле
след ването
ту ра
кра тък
икономи ките
cy cl
им у
deb ated
high lights
even ing
protection ism
принци път
col lap
потребите л
acc idents
show ing
promis ed
добри ят
Ми на
незакон ни
ключо во
информи ра
върхо вния
субсиди и
occas ions
lob by
аре ст
обслуж ване
Per haps
тла сък
оръж ия
K y
P ublic
b ound
c ofin
s il
В Ф
И П
у довол
ш ният
то в
at ure
to u
ли чни
пре следване
фи р
много образи
До во
енер го
Con sequently
взема нето
край бре
eas ily
ann ivers
администра тивни
либера лите
консу л
partnership s
амбицио зна
надеж дни
риско вете
prepar ation
pill ar
квот и
парни кови
плу ра
4 9
E st
F reedom
S WI
c op
m itig
А ли
Т ран
к цията
м ъл
о кажат
ни какво
or al
se le
из ви
li gent
жда ване
ня каква
дател ите
under taken
see ks
част ния
стаби лизиране
хи ми
граждан ските
maintain ed
сам ия
потвър ждава
alloc ation
harm ful
abs ence
tou gh
SWI FT
Г жо
ь ом
re move
въ т
до ст
из ход
ort ure
сто тици
мис лят
въз лиза
go sla
кт ът
stand s
appro ve
стро й
represent ation
Ва шето
Pro tocol
плаща нето
механиз мите
създаде на
field s
fisher men
вой ната
запаз ването
бюрокра цията
проучва ния
arrange ments
шан с
phenomen on
Yu gosla
e astern
re marks
ва щите
ст р
по гре
ро ко
пе тро
при мери
под ходи
под хода
бе не
бо лни
do or
има ло
icul ty
trans action
trans atlantic
съм нения
produ cing
национа лна
изиск ването
diff iculty
бюджет на
amb itions
вклю чат
вклю чим
престъп ление
char ges
sus pend
Isra eli
тин ска
разпростра нение
attemp ts
counter fe
изма ми
annivers ary
S OL
m ical
М ВФ
ю с
ма на
ви зия
до ла
из раел
are n
ста ни
Съ в
предста вят
incl usive
govern ing
qual ifications
благо ден
кту али
ясно та
car s
посо чени
данъ чното
дви жението
Reg ard
мнози на
Подкре пи
склю чването
прекъ с
боле з
Ла тинска
задово лите
Aust ria
assu me
SOL VIT
е вти
о позицията
ко го
ка т
во дни
be low
раз бра
спо ме
cre ates
trans l
пу ск
fact s
ради ка
cond itional
qual ified
invest ing
инвести ра
обсъ ди
фика цията
съдържа т
стре с
съвмест ни
Dire ctor
refle cted
cat ch
defic its
Шве йца
предпо чита
Y emen
a str
по ток
не лоя
ro s
ла йн
le ase
мо гла
па дат
при ве
ще ше
id ers
ill enn
do s
зо ни
ед ностран
пости жения
защи тят
каз ване
bo o
process ing
нова тор
des erve
Con tro
жела л
cut ting
изгот вяне
constit utes
offer ing
Съгла сно
цялост на
правосъди ето
приобща ване
непо сред
appreci ate
redund ant
Пробле мът
phys ical
центро ве
вус мисле
стр ьом
1 50
4 5
r ust
а ктуали
за м
за беле
ка рти
при стра
act ors
pres erve
тру ден
Па рт
бър зи
безопас ни
мигра нти
друже ство
опит ват
conne cted
Iran ian
carry ing
конститу ция
obtain ed
else where
ави а
зат варя
rep ly
Cub a
Швейца рия
N R
r um
u gu
ö m
К ан
Л е
у каза
х ите
an ge
по срещ
мо л
тел ност
op ard
въз награ
ту ристи
str öm
По вече
пла те
age ing
sure ly
regard less
necess arily
pen se
Из ме
sm art
ph arma
free ly
back ground
Пър вият
годиш ните
равно ве
очаква нията
потенциа ла
задълбо чено
подроб ности
genuine ly
Port ugu
изма мите
дома ки
леви ца
независи ма
argu ment
condu cted
кам пания
задово лство
осъществя ване
Ne ighbour
sche mes
компани ите
дой де
strugg le
earth qu
Изразя вам
нари ча
s or
ю л
на кратко
от стра
ви зите
го вина
це говина
ин г
ба за
In ternal
je opard
полз ва
пър вият
уве до
послед ствията
достъп ни
достъп ът
дово лни
култу рно
exp ensive
опит ваме
fl ag
отговаря щ
oblig ed
избе гнем
президен тът
Зна м
оконча телното
Bo th
поколе ния
Хер цеговина
Portugu ese
B lack
D C
r are
та р
ма с
se as
pro spects
im pression
ex ceed
кон центри
ту ризъм
зна ния
гу би
сво и
На лице
cons iders
put s
осигу ряват
изпъл нят
ca using
гори ва
запла хи
trad ition
годиш ния
меди и
съсед ните
демон стра
spec ul
poll ut
lea ving
Хо рата
haz ard
dynam ic
оси новя
L e
d ens
s l
г ър
in j
за ве
че ната
чи сто
ac cus
ду ха
ess entially
mis take
reg imes
много кратно
отгово ра
подоб рение
loc ation
Из точното
ограни чени
култу рни
допри несат
истин ско
заклю чения
rev ised
поддържа т
търсе щи
перспекти ви
печа та
pi pe
достой нство
forest s
заб лу
иденти фици
учили ще
willing ness
draf ting
pie ce
Йе мен
illenn ium
5 5
h n
p a
С тру
д ността
ъ де
ва телни
to uch
ar ising
as ing
про фи
se cut
ce ut
сти мул
te ach
вя ват
tim ber
осно вите
фа рма
дове доха
regul ate
нама ление
et c
пазар на
запо зна
imate ly
въве жда
Мо ля
рай она
обществе ност
бюджет ната
EC B
lives tock
стимули ра
оръ жие
worth y
EP A
замърся ване
пръ в
вди гане
вакси ни
надзо ра
зале гна
rob ust
Бел гия
вдъ х
dos si
ceut ical
C iv
en vis
er ad
ко ло
ла ге
ти вните
до ходи
при стани
вя ване
pos ite
ob ser
наро ди
рам кова
път ници
причи нени
employ ers
При ема
amend ed
първо степенно
промиш лени
акти вна
протоко л
забра ната
остана лата
harmon ised
лекар ствени
decl ared
Шенген ското
bloc k
максима лно
occas ion
restric ted
списъ ка
обедине на
journal ists
fem ale
Подкрепи х
Contro l
Neighbour hood
6 5
G A
P lease
j ur
л д
for um
ди фици
no on
са р
op s
op posite
pos sibly
fo ster
доб рия
dis par
important ly
европейск ият
under line
начин ът
предоста вим
тра ги
know s
стой но
regard ed
чу я
нару шава
глоба лната
влия нието
refer ring
Ве ли
разработ ване
наруше нията
deep ly
контроли ра
спре м
стъл б
secre t
ang ible
популя ри
relative ly
destru ction
C F
E mployment
P NR
b ing
r ou
v ina
е но
in habit
ни вото
ва шата
ar med
из праве
un less
ab road
te am
go vina
cer t
ан та
грани цата
положе ни
постигна ли
euro zone
US D
координа цията
seek ers
смята ме
видя хме
ze govina
complain ts
Her zegovina
Рад вам
бене фици
Civ il
C ar
S h
b ra
e yes
Г ражда
ж ната
th ly
на пус
re ve
от чети
пре следва
пре обла
пре гледа
ти чно
we b
ру мъ
дър жи
хо мо
ac erb
ex acerb
ня къде
ба й
дей ра
tra gic
сре дата
политиче ското
прове дени
vir t
ком пенси
soci o
remain ing
глоба лното
гото вка
rece iving
опро сте
doub ts
sha me
отбеля зва
friend s
дире кто
проте сти
Полити ката
забележ ки
дисцип лина
Jo int
C l
M us
w an
в последствие
д во
е те
и гри
к са
ва жа
по ни
по бе
ent ered
de cre
ce l
ex pense
след ват
ту ризма
man aging
au dit
тре то
trans position
он лайн
сега шното
специа лен
даде но
Догово рите
информа ционна
посо чено
публи чния
гри жа
ran k
голе мия
fair ly
contro lled
aw a
tun a
assess ments
ней ния
семей ството
rev olution
сам ият
теже стта
igno re
омбудс ман
чуж бина
взи ма
погледне м
compat ible
проспе рите
pharma ceutical
h ence
i z
t orture
u ff
С ред
Т вър
на кара
le br
ви за
пе сти
pro of
раз работи
ce lebr
Ко лко
ба се
ta pe
per cent
полз отво
предста вяне
доклад ите
ensure d
способ ни
inter institutional
Con serv
труд ностите
пови шаването
Cent re
Serv ices
presid ency
rad ical
неле га
I L
b and
h or
У важа
х ристиян
in ev
re es
по жела
де фини
ма га
при ходите
ще то
пред види
ut il
un necessary
ri fic
du mp
пла новете
report ing
prov en
отгово ря
cour ts
чу хме
gener ate
Ма роко
спомена то
глоба лен
стратеги ческо
поддържа ме
подпи с
colleag ue
мобили зиране
delay s
недостатъ ци
dep th
ориен тация
режи ми
evalu ate
wat ers
Бар ние
мля ко
опти ми
reiter ate
ръце те
афри кан
юс юл
D ut
M er
А т
Р ом
л оби
х е
то ле
да мента
от кло
ите лни
из ясни
па кт
im posing
lo sing
сти е
це вти
сто вете
ir regular
вър ви
mission s
je ction
тър сим
resol ving
основа ват
гру пите
help s
eng th
конкре тните
вся кога
стаби лни
въве дени
cho ices
спомена х
земе тресе
emphas ised
зада чи
поле ти
feel ing
plac ing
stud ents
mot ions
Въз мож
заба вяне
announ ce
intel ligent
Bud get
спече ли
interven e
4 00
H am
T ai
а ва
с чето
за сел
от близо
st uff
as ide
съ хра
де ло
из мина
un precedent
чи йто
us al
ac cur
sh r
гла си
tra ce
вто рата
isl and
специа лна
ограни чи
свето вния
дате ли
exp licit
minis ter
премах не
справед лива
let ter
Se cre
зая вява
kind s
внесе но
съкра ща
weak ness
Cha ir
бюрокра ция
Brit ain
Belg ium
надежда та
Ар ктика
Съществу ва
баро неса
collab oration
Служ бата
jur is
unprecedent ed
L eg
M illennium
d iction
m its
p act
s port
v ast
на сил
за ме
от чете
из тича
тел ствата
вър ши
бо га
следва ло
зе лена
ev ident
ху ба
без прецеден
му м
comp ul
As sembly
опи ти
несе ни
енергий ния
vious ly
фун дамента
справед ливи
consequ ence
ядре ни
превър на
cal c
уско ри
cat ast
OS CE
предупре ждение
stra ight
Реше нието
err ors
Mus lim
Tai wan
B ur
на ста
st ree
съ оръ
до но
de t
га н
li f
em or
pr ing
отгово рен
app aren
sign ing
inter im
Из глежда
Пред ложе
Al so
Rom anian
партньор ства
еко ло
пов лия
integr ity
регули рането
изявле нието
оконча телно
medic inal
адекват но
териториа лно
ЕЦ Б
Кри зата
feder al
предприя тие
discipl ine
controver si
inhabit ants
Ат ланти
apparen t
D ay
О СС
а в
а лко
на зад
pe tr
до несе
ra id
ad just
под дръж
държа вния
if ies
can cer
In formation
per petr
ev a
свобо дни
съгла ся
far ms
respect s
нали чните
поло вината
услу га
съществува щата
bu y
отде ля
забра вя
look ed
hold s
short coming
bur dens
отхвър ли
деле ги
процен та
нататъ шно
бизне са
Trans port
character istics
чака ме
entreprene urs
персо нал
sole ly
хаза рт
зави сят
rout es
Dut ch
controversi al
ОСС Е
3 4
P S
S u
b ir
l ength
p urely
r ant
s light
t angible
u sion
О П
с вете
у че
по мислим
er ly
не допусти
ро ди
во бо
con ce
пра вното
ire ct
ключ ова
cont am
без спо
min im
being s
направи ха
връз ката
respect ing
des erves
свето вните
feren ces
хвър ля
бързо то
явле ние
извърш ване
отхвър ля
deleg ations
установи м
прину дени
disput es
тари ф
ira ble
benefici aries
M ade
S he
ar ms
държа вна
fe wer
Ко ми
прие хме
prov al
under mine
създа ваме
sit es
Догово р
От гово
open ness
promo ted
реша ват
призна ването
отноше нието
сбли жаването
focus ing
запла тите
закон но
Ap proval
modern isation
еднак ви
евентуа лно
комента ри
извънред ни
религио зни
stor age
Резолю цията
марки ро
Moroc co
approx imately
bir th
N ab
b lack
h ung
w age
w ine
н ския
re call
по глед
за топ
от раз
от въд
pro m
раз решение
ря з
между институциона
гле ди
сигу рно
На бу
тира ме
пен са
исти ната
безо па
докладчи ци
uc co
промени м
found ed
човеш ките
влиза не
завър ша
завър ши
Ob viously
коми сии
stim ulate
опасе нията
uni que
лини и
фарма цевти
Ham as
Nab ucco
Набу ко
9 5
V an
b ile
д ж
й ските
с връх
in sufficient
in adequate
ва ти
да нието
по ред
от части
съ хране
мо ментът
при ложат
au gh
ind irect
fir ms
основа н
направи ли
sum mer
уве рим
опи тите
каже те
organ ise
inst ability
пари чни
che mical
Ха мас
оце нява
техни ческа
интегри ране
kill ed
устано вени
делега ция
consolid ation
противоречи е
abol ition
descri bed
демонстри ра
Sub ject
rou te
b attle
f ire
g ers
s ac
s ory
v ens
В сяка
С вобо
в ска
ф она
за плащане
ли зират
об разу
си н
мо з
под готовка
mo bile
ха й
man ag
str ing
За се
sa ke
използ вам
imp lic
съответ ната
търгов ската
ict ory
Rom pu
плаща нията
promis es
ret ire
пенси ите
integr ate
ключо вите
indic ate
conv entions
професиона лно
defend ing
територи и
rat ified
първонача лно
воля та
осъществя ването
adver se
научноизследовател ска
orient ation
cou ple
усе ща
mono po
hung er
Rompu y
d ing
Т ри
з ву
in no
an cy
er a
ко е
че ският
до мо
пе л
ha vens
ac compan
ap art
fo ot
гла д
гла со
dis abled
слу жат
сигу рна
leg ed
предста вим
pet ition
So vi
организа циите
заседа ния
war m
вза им
проведе м
jud ge
предложи м
mater nity
death s
item s
бив ша
редо вно
Mal m
exe cut
Islam ic
единоду шно
уе б
преферен ции
облагоде телства
6 7
F unction
N at
N one
d r
e lig
С ре
м ят
не ред
st ance
пре ван
про вали
до ходите
из лага
de term
part ly
ple as
председател ства
cre ative
предста вен
каза л
af raid
чо вече
опреде лим
разиск ва
реа лизира
опи са
pers ist
жела ем
19 7
собстве ния
Ма лм
данъ чно
съжа лявам
comb ined
ези ка
joint ly
опро сти
воен ните
refle cts
facilit ating
pati ent
есте ство
exer c
минима лни
popul ar
candid ates
задължите лни
пребива ване
неф т
градове те
злоупотре би
asp ir
explan ations
reci pro
Тай ван
alar ming
Regard ing
Malm ström
determ ine
R o
g ross
к с
п ру
у по
на ция
по ти
st ations
съ ве
де ля
об ед
be came
ск ри
ше ната
дър вен
За падна
тър пи
sit e
dra matic
ком пенса
увели чат
ангажи рани
jo ined
Про це
данъ чни
прозра чен
exp an
educ ational
14 2
нати ска
pot entially
old er
equ ival
поле зни
догово ра
хуманита рната
jour ne
cohe rence
ат мо
believ es
ид ват
нед вусмисле
белгий ското
compul sory
accompan ied
Малм стрьом
w o
z on
С пе
th row
те стове
не пълно
or ing
че ното
are r
em bar
ke ts
хо дни
има х
член ството
иска нията
report ed
вле ния
произ хода
wel comes
provid ers
proced ural
сериоз ните
използва н
Про токо
мили он
обществе ния
пое ти
promis e
fortun ate
връща нето
опера тори
съсредото чи
vol at
send ing
territor ies
Do es
extra ordinary
rapid ly
occur red
данъкоплат ци
прова л
изри чно
Мекси ко
преобла дава
shortcoming s
Function ing
L ab
L ond
T reat
b ill
m un
В ър
то рът
ва шите
ра щи
it zer
ent ities
до говорите
пред ход
ab uses
има хме
In novation
ку п
ключ ително
trans it
рабо тен
fra gment
интере су
наме рение
Про е
Ре з
предлага ме
sc en
широ ка
осъ жда
изпра вен
head ing
199 9
dist in
хармони зиране
специфи чните
решите лни
тю тю
научноизследовател ската
етике тиране
gradu ally
EE AS
Убе ден
conserv ation
Go als
Вели ко
Lond on
M ost
w ind
Е сте
Ч у
по между
по свете
за ли
to wn
ar ians
ви да
il es
до з
при зове
раз мера
ря д
un certainty
ne o
mis takes
въз може
pl at
cl arity
пу н
ограни чен
отговорност ите
бър з
иде а
нару шават
adv ice
нами рането
стратеги ческа
Над яваме
равно поста
показа ха
Необходи ма
Sw itzer
indic ated
подгот вени
повто ря
смърт та
задача та
мрежа та
занима ва
предотврати м
пренебрег ва
exe c
нарко тици
пси хи
бана ни
Създа ването
дола ра
earthqu ake
възможе н
Switzer land
a qu
m ers
ра циона
но вият
ст ки
по дава
ка са
от прави
ro g
съ действие
ря да
иска те
ho sp
На шите
fund ed
ан са
where by
sur round
успе е
ограни ченията
account ability
fail ing
технологи ите
war ming
che ap
broad er
капита ло
ора тори
гледа ме
брита ния
двустран ните
напра вите
неблагоприят но
греси вния
rul ing
usu al
барие ри
недости г
удовол ствие
stuff s
Sovi et
expan sion
Рез улта
Велико британия
B er
C C
P re
S outhern
W ed
b es
f re
i eld
n ight
o g
r ational
ле нията
пре чка
be gan
из точ
pro test
ста рите
ci fic
полити ците
pre dict
национа лната
мини стри
ком понен
clo sing
увели чим
хра ната
перио ди
сло жни
изразя вам
Пър вата
транс фе
прав ки
работе щи
safeguard ing
пор туга
Настоя щият
споделя м
реце сия
изгра дим
произтича щи
exclud ed
Саха ра
Мина лата
Lab our
Wed nes
P ri
p ict
Т ър
в рата
е ст
на мо
as ion
om an
го това
до н
res erv
li e
ча са
би т
финан сите
ся ването
Ка за
ide o
contin uation
резулта та
цион ното
после дователно
инициати вите
adv anced
period s
обсъжда нията
изследва нията
зада м
амбицио зен
склю чване
adap ted
Ha ving
уязви ми
кам пани
несо ха
frequ ently
уеб са
Wednes day
4 8
C ur
b ia
Е нер
у строй
х ези
re cycl
по хва
ou ter
де вет
са ма
ul f
co pe
Евро пол
per secution
up d
финанси рат
структу рата
инвести раме
fac ility
prev ail
Про гресивния
култу рното
спомена хте
наде сет
текст ът
зае мат
налага т
along side
advant aged
зависимо стта
зер бай
краткосро чен
мину ти
потребле ние
университе тите
джа н
Gu ant
chap ter
Али анса
2 50
C IT
O pen
S IS
n ar
s ought
s outh
á na
И сти
о логи
о чевид
на стро
те о
ре ден
ле й
as es
as sum
ти вна
об мена
си ня
чи сло
вър на
tr ic
Th rough
Съ став
част ните
сър це
законодател ната
съществу ването
региона лна
вътре шно
pra g
deal s
Ма дейра
ath y
Че твър
stress ed
зае ти
одобре нието
разде ление
загриже ността
decl ine
иденти чност
remo ved
Bud gets
христия ни
реци кли
преструктури ране
Гу анта
Одоб ряване
sor ry
IL O
dump ing
det ention
човече ството
Guant ána
Гуанта намо
Guantána mo
3 8
L ank
S ri
Д обре
Л ан
Л он
Ш ИС
е ли
е пи
п ък
я вно
на ви
at ically
за ги
не стабилност
ко рабо
от ре
от рази
из слуша
при носа
ab ort
под чи
гла са
разу мни
финансо вото
present ation
интере сно
прове дат
финанси рани
наме рението
hope fully
насо ча
допълните лен
крити ку
supp li
чув ство
проу чи
Необходи ми
consist ently
парламента рна
fall s
сра вните
произве ждат
voc ational
разнообрази ето
последовател на
засили м
inc ident
напа дения
отдале чените
журнали сти
осведоме ността
scrut iny
корпо рати
пести ци
Made ira
S up
a h
b ab
c ú
f un
i ver
i gu
n ier
м юсюл
ю госла
то чни
по страда
ле ното
про сти
про пус
se cur
пред ло
Euro pol
вър нат
Съ жа
ans wered
може ше
ку н
gr ass
цен но
предста ва
under take
стой ността
реа лен
резулта тът
инвести рат
conf ident
граждан ската
Bar nier
prof ound
eld erly
зада ден
очаква ния
ton nes
поддържа не
Can cú
капита ла
възполз ваме
застра шава
изклю чения
нататъ шни
квали фикация
incent ive
иск рено
спест я
endors ed
Treat ies
outer most
Cancú n
G uine
P a
b lo
А зербай
Ш ри
у ли
ш о
по ражда
and a
от казва
про па
se ll
при нужда
ло гията
ri gor
ma kers
cre d
dis advantaged
полз ите
стъ ра
опреде ление
сътрудни чат
Из ключително
нужда та
ек зе
road s
друга та
глоба лна
sc and
наблю даваме
гори во
препоръ ка
пъти щата
erb ai
simpli fied
лице то
управ ляват
спект ър
adap tation
прия тели
mot iv
нататъ шното
сексуа лна
делега цията
предим ства
алтернати ва
формули ро
Зеле ната
изо ли
bank rupt
dead line
замърся ването
положи м
железопът ния
купу ват
конце пция
drug s
майчи нство
Az erbai
Кан кун
изправе на
retire ment
Вър хо
португа л
Лан ка
Azerbai jan
F eder
m us
w ides
у местно
на тру
re af
ра в
от стоя
от пуск
се ло
ла цията
ск лон
па н
res erves
мен ят
след ният
гла вните
осно вното
тру дна
mar king
тира на
rel a
сега шния
направи хме
fra g
увели чават
pay s
два мата
присъ ствието
престъп ността
развива щи
препоръ ката
list ened
Li ke
решава ща
Де мо
воде щата
model s
съкра тени
запаз ят
произве жда
mot or
отчита т
поя ви
consolid ate
коми сиите
stim ul
тенден ция
hom es
expert ise
секре тар
Qu est
Progress ive
Consum er
праг мати
collap se
пристра ст
dispar ities
Азербай джан
wides pread
C r
p estic
t il
М ла
П ла
у стен
in fe
ск е
при мера
im er
сто ен
ex c
Com mon
art ic
out lined
requ is
As soci
sign s
чу х
сро ка
присъ ствие
уча т
Ва шите
ъм п
мигра ция
Ag ain
екологи чна
Social ist
зако ните
сми сле
Съгла сна
разби рат
cle arer
lar ger
редо вни
оправда но
доставчи ци
омбудс мана
repeated ly
imper ative
Фон да
elector al
Атланти ческия
затоп ляне
hosp ital
хези он
4 3
L a
a ks
f it
s cept
u x
w ages
w oman
Г ви
Р ам
а бор
о пла
х ран
на ше
на ложени
on a
то на
ра два
en de
де ми
ми н
ми та
ня какви
ща стие
ту рата
co vers
кра и
Parliament ary
един но
един ство
respon ses
предоста вена
eng aged
нали чни
inter governmental
jo ining
word ing
вклю чена
крити ка
found ation
дости женията
техни ческите
Си рия
зло употреба
мар ш
изказ ването
ori zon
Дей ствите
advoc ate
eco logical
brief ly
wat ch
perfect ly
сурови ни
фору м
бенефици е
ende av
S ar
T ime
Y ear
в ността
д ро
д ъмп
о чите
ва те
en shr
ст ът
не правителствени
ri g
стра ху
има ли
dis agree
cont acts
цен ни
just ify
bo t
mat ically
оста ви
пози циите
reco ver
зира на
depend ency
съществува щи
achieve ments
дек с
съвмест на
Кон го
загу бата
засяга щи
възду шния
съди ли
засил ва
длъж ни
cover ing
изпълни м
етни чески
тенден ции
engage ment
Ти бет
stabil isation
изб рани
консерва тори
отте г
Бю дже
набле гна
Colle ge
hazard ous
Засе данието
Лон дон
Действите лно
D F
D is
F our
К ъм
л от
ф оку
re settlement
an ks
по ня
ou red
ar bit
про дава
при ви
li qu
хо океан
co very
under lying
prote in
human ity
обще ства
ця л
мест ната
br id
consider ably
contribut es
promo tes
prior it
cor ner
нау ката
данъ ка
ref ers
Бе р
civil ians
екологи чно
либера лизация
греш ките
застра шени
съдеб ни
пациен ти
конститу цията
suggest ed
profession als
последовател ност
отра жение
авио компаниите
нор ми
нараст ване
възпрепят ства
punish ment
исля м
imag ine
trace ability
марш ру
P ers
П е
б ля
з ма
с не
al ia
во дим
мо дели
for got
de part
pro spect
при кан
im pet
un ions
ill ust
ir ing
pres er
зе мята
пла не
За щото
преди шните
вто рия
национа лния
мини мум
eng ine
des irable
accoun ting
дви га
emphas ises
споде лят
broad cast
vol ume
demonstr ates
suggest ions
разбе рат
свет лина
автомоби лния
избира тели
опрост яването
задължите лна
фалшифици рането
праз ни
inno cent
scen ar
pict ure
Съжа лявам
ске пти
impet us
E X
G ulf
a ward
b illions
z he
В ан
о то
с ряда
у лов
ч та
на ка
re med
re mark
en sures
ли зирани
пре сата
пре засел
до р
de liber
сле дим
кто ри
зе мя
социа листи
защита ваме
особе на
послед ък
every body
less on
loc ated
съществу ване
program ming
plan et
инстру мента
убе ждение
Al zhe
вклю чен
съдържа щи
US A
мор ска
emis sion
threat ened
налага не
представител ство
прекра ти
възобновя емите
трансграни чните
автомоби лната
дире ктно
стату та
обяс нения
последовател ни
ато мни
Sy ria
задържа не
статисти чески
скъ по
div ision
quo te
доставчи ците
дете то
dev ast
exclusive ly
autonom y
револю ция
МО Т
equival ent
Есте ствено
Alzhe imer
A bo
G en
m ag
n ine
Л у
Ф рон
о кажем
х т
an e
по сред
за ложени
не ните
ко раб
ме ж
ме та
ли чен
во ар
из ва
so il
not ice
all ing
pr ud
свър з
настоя щият
основа ния
полу чаване
подчерта ем
Ва шия
play er
amb igu
сло вото
започ ване
particip ating
избе гнат
talk ed
времен ни
затво ра
работе щите
лети е
investig ations
взаимно то
ефика сно
кло ни
отваря не
подкрепе ни
Commun ist
Очак вам
сблъск ват
consult ations
легитим ност
dossi er
Secre tary
кампани и
Abo ve
6 00
M o
S L
К рай
о с
у ника
ц хай
на това
на стъпи
an cies
по пита
не равен
ar my
пре венция
при ложени
ър б
li fer
жа лко
хо ри
зна нието
кла си
По правки
dec ade
законодател но
законодател ния
princi p
viol ent
small er
sequ ent
присъеди нят
ca ution
стри ктно
Bar cel
отговор ът
заси лено
отво рени
професиона лното
дели ка
цялост но
повто рно
взаимо действие
Европей ското
Ал цхай
чест но
ратифици ра
пенсион ните
живее щи
земедели ето
satisfact ion
излиза не
Liber als
заеме м
hy po
compar ison
smo o
reve al
prom pt
implic ations
югосла вска
екзе ку
Гви нея
Barcel ona
Алцхай мер
4 4
N ord
R ural
m iddle
к ъл
л ът
ва телните
en ko
не вин
ко вете
от мяна
съ бира
об разя
un it
ска нда
sh oc
стра х
ant icip
поли цията
между правител
държавите членки
отгово рим
sub sequent
dire cted
оста вя
inform al
логи чно
par alle
региона лното
три стран
извър шите
Ма лта
регламен тите
обществе н
гре с
beg un
поле зен
кате го
wa iver
II I
рели гията
надеж дна
отли чна
press ive
наре чените
лиде р
Со циа
адекват ни
дипло ма
отрица телно
pill ars
permit ted
домаки н
percent age
irregular ities
string ent
fre ight
Associ ation
. '
h orizon
s pring
Е К
о казване
с ложен
на х
in comes
at tain
за ло
не об
ме три
от гле
st ages
ле ната
ли к
съ пру
de commission
раз работе
бъде те
end s
cl a
ан гли
начи ните
бюдже тите
fi res
sector al
пазар ът
жите лите
exam ined
car ious
собстве н
Мо ята
граждан ско
функ ция
балан са
широ ката
избо ра
stress es
зае тите
strict ly
полага ме
emer ge
Demo cratic
воен но
contra st
мобили зирането
зависи ми
deleg ated
съгласува ност
nam es
presid ential
посе ти
campaign s
enabl es
orient ed
feat ures
Бар село
изте за
мле ко
реци про
cate gor
Cor re
предпоста вка
accur ate
Guine a
Pa cific
. "
R E
r ated
u ments
z y
к ване
на време
ре да
ла й
as ser
пре тен
se ction
при ло
res c
раз говаря
un ified
un fortunate
not ably
resid ence
ament ally
ure d
marke ting
специа листи
жите ли
успе шна
after noon
ек стреми
prevent ive
clar ification
поддържа нето
успя ха
предизвикател ството
hard ly
воде щи
Be cause
mobil ise
сх ема
инду стрия
клау зи
приложе ние
риб ните
simplif ying
британ ски
surpr ised
федера ция
compe te
инци ден
tren d
чуждестран ни
trave lling
crop s
трагед ия
погре шно
басе йн
forgot ten
lifer ation
P ar
S m
c king
g s
k y
p sy
Е сто
С ед
е ните
и лю
к ват
ю г
я ни
re cast
re pression
то тали
от кро
ar ise
he t
li ked
ne l
ща тски
Ко мите
co oper
co dif
part ial
ob serve
лни к
ces sions
mar ine
вле ние
прилага ме
сел ски
причи нява
инвести ционни
кли ен
отде лен
recogn ises
focus es
Ра б
сам бле
infra structures
adequ ately
mess ages
участва щи
influ en
прия тел
квали фика
отразя ват
сх еми
капаците та
универ са
Mal ta
интелектуа лната
неизбе жно
pipe line
съоръ жения
Барсело на
Corre ctions
8 5
H ome
M an
g ame
g ory
l acking
p il
М ини
к ият
in side
re conciliation
ни та
не гати
ко мен
ed ge
во дата
про мяната
il legally
це ля
ex posed
спо рта
act ed
осно вния
vo ters
pres sed
pres cri
pre carious
ow nership
До ха
реги стър
cus sions
прилага ни
inter ference
бед ствието
represent ing
Con go
данъ ците
организа цията
друга де
техно логия
селскостопан ската
experi ences
чув стват
администра цията
head s
Докла д
превър нат
засил ването
съдеб на
safegu ards
Do ha
bad ly
предстоя щите
igno red
Икономи ческата
персо нала
hop es
индустри а
нео либера
работо дателите
телеви зи
divid ed
plural ism
Уважа еми
Budget ary
бога тите
volat ility
Тър го
stimul us
тотали та
I N
i able
l in
t ong
u ries
и дните
at mo
ре нията
по редица
за оби
от иде
пре мест
ти бет
de pri
бъ л
ap ers
co t
du al
дъл ги
гла ви
dis proportionate
dis astr
um n
mon ito
ide al
where as
тран зи
mi grant
consider ations
Би хме
озна чават
food s
разбира ме
разпоред ба
You th
запла ш
препоръ чва
живе ем
транс план
креди тиране
полага т
сан кциите
sha pe
Nor thern
Споразуме ние
divers ification
transfer red
свобод ната
продовол ствена
observ ed
lob ally
sal es
чувствите лни
flood s
впечат лението
усъвършен ства
средносро чен
democrat isation
Очак ваме
наводне ния
зон та
моти ви
многообрази е
cop y
juris diction
aspir ations
каса е
Gen eva
Есто ния
monito red
д ри
re placed
по пада
be e
im age
въз му
вя рва
кон тра
tr ation
иска х
dis advantage
pres sing
pre requis
fa ther
без работни
rel ate
сега шните
сътрудни чи
br ut
ves sels
тек с
mi x
par ad
Re covery
Би рма
ph one
станови ща
show ed
смет ки
defin ing
extre mis
семей ство
риба рство
доба ви
регули ра
fall ing
four th
аб сур
Ве роят
total itarian
трансграни чни
En gl
Ind ust
vehic le
излезе м
суве рен
квот ите
exemp tion
медицин ски
abort ion
blo od
краи щата
Фрон текс
disastr ous
Engl ish
f ur
g lobally
o res
В о
И воар
К от
М у
а ква
е мост
о позиция
п ьо
ва шето
по реден
за мени
че ви
st an
об стано
ин ски
mis sing
President s
stru ck
dif fer
present ing
af i
deb ts
regul ating
способ на
establish es
два ма
демократи чната
убе дена
намаля ват
отде ли
инова тивни
съби тие
посла нието
повто рното
информи рани
condem ned
бележ ки
поеме м
чест ни
електрон но
коли чество
dio x
discrimin atory
Other wise
cate gory
dictator ship
marg inal
Сигу рен
Est onia
Стру ва
Ром пьо
бля га
хори зонта
cla uses
Ромпьо й
F ron
T wo
f ing
p lic
y a
Ж ене
Р ен
у щ
у ст
re per
re verse
at al
за гла
за лив
ic ed
съ бе
ve y
pe l
про ф
se min
до казва
con vic
li ability
ста ри
ch a
ad vis
бе зна
гра фи
sh ar
fin ish
ist ical
тъ ква
пъл ните
важ ният
pri vi
връз ките
ban ana
практи ката
ограни чена
ref use
Раз би
наблю дението
дости гне
Между временно
единстве ното
нуж ни
bl ame
нара сна
хармони зация
analy se
съобраз ни
dri ve
одоб рен
stri ke
газо про
dep loy
внася не
изпит ват
дра мати
draf ted
младе жта
gradu al
годишни на
дипломати чески
христия ните
thorough ly
дреб но
breach es
убежде ния
vari ety
Колко то
наста няване
еколо го
Cur rent
recycl ing
nar row
tong ue
ущ ърб
4 6
C lo
F ar
G add
с ната
с равни
у ку
у чени
на пуска
за стъп
it ative
мо ят
из гради
га нда
op t
ин ста
fe as
str y
стве ния
dis appointed
На циона
отгово рна
усло ж
При чи
ban ned
поло жат
свето вни
граждан ство
subject ed
ca pe
селскостопан ския
засегна т
беля з
list ening
убежи ща
wa ke
dist ance
амбицио зно
експло а
координи ране
повди га
presid ent
комуника ция
learn t
citizen ship
доброво лно
attra ctive
изб ран
coast al
многобро йни
многобро йните
прослед яване
неприкосно веност
Cl imate
sac rific
reserv ations
Open ing
fun ctions
scand al
reper cussions
Gadd afi
3 7
L V
S pe
f als
i at
О ра
да фи
en sible
er t
ко рен
се м
про пу
въ л
из ди
The ir
кла са
доб ли
pre text
прие тите
per su
зе ни
tra in
gu ard
time table
Ка дафи
фа ли
нама лена
проду кция
ref used
транспорт на
риба рите
fle e
назна чаването
satis f
произве дени
Отно во
териториа лното
трудо ви
жили ща
десети летие
bor n
нало жително
resist ance
sl augh
CIT ES
prag matic
liqu id
resc ue
Вероят но
I vo
M e
e ast
i j
n om
o to
p ul
v it
v entions
Б ор
th res
in ational
ни ца
at ures
за плащането
от ча
ic ated
съ гласуване
ма ло
ма сово
из ложи
ha m
ul ar
ля та
ac ulture
mis leading
след обед
пи ра
fore stry
спе шни
fa ire
без пла
inv ited
социа л
fund amentally
реги стра
bas ically
system atic
подоб рява
оста вим
food stuffs
since rely
expres sing
subject s
дви же
доку ментите
fail s
запла ти
поле зна
теро ризъм
Дне вен
fisher y
ета пи
conne ctions
coordin ating
подгот ви
баланси рано
трево га
regular ly
relationship s
labe l
aut umn
Japan ese
rating s
occup ation
Are a
изче з
свое временно
grass roots
Fron tex
5 6
G SP
W ho
f al
p s
О преде
е сен
ч ваме
по ра
ка ните
из копа
res um
под новя
дър жим
държа вната
ха рта
спе кта
пла ти
До сега
ву л
sol ved
help ful
мини ра
полу ча
di ed
търгов ско
разя с
зира ните
сектор ът
approach es
progress ive
регламен тът
De c
култу рните
авто б
дълго ве
IT ER
шен ко
изгот вен
разгледа ни
trad itions
пари чен
avoid ing
спи ра
subst anti
разпреде ляне
отли чно
компетент ността
остро в
милиар ди
тради ции
администрати вната
Настоя щата
заб рани
сх емата
кору пция
fuel s
estim ates
вред ни
quo ta
географ ски
ici ary
преодоле ем
сет не
бру тния
отче тност
вери га
удъл жаване
except ions
Red ing
равнове сие
Гражда ните
Leg al
непълно ле
Sup port
Демо кра
Разби рам
9 9
C itiz
d den
r ical
Й ор
Р един
в ките
л ството
ш у
я ват
на значение
in ians
at ab
по падат
не стабилността
се рти
се вер
съ вест
ct ure
ми рно
ста та
под це
сто ките
more over
fore cast
зе лен
произ во
здра вно
насо чи
стаби лизира
три бу
fac es
нау чи
account able
акти вното
служ бата
Pol it
освобо дени
mult inational
изявле нията
contain ing
воен на
разпреде лението
sha res
загри жени
координи ра
enh ancing
Ни кой
decl are
ЕФ Р
manufact uring
diplom acy
Slo ven
spect rum
печал би
транспони рането
кориги ра
imper ial
напре жение
surv ival
суверените т
обезщете ние
neo liberal
frag ile
Cr im
enshr ined
Редин г
C lear
D oc
H R
Y our
f rank
Н ор
Ч а
у кра
ра дост
as surance
пре венцията
we ight
при влича
ло ст
ха ре
кри е
възмож ните
Па лести
им пери
Ка м
proble matic
real ised
насо чим
стаби лен
уси ли
уси лено
транспо р
постигна тия
вътреш ната
top ics
изгот вя
short ly
дългосро чно
имигра нтите
ядре ните
compromis es
jud iciary
интегри ран
harmon ise
въглеро д
Bulg arian
първонача лното
stri ve
rail way
Balk an
фиска лна
дра сти
obstac le
поу ки
macro economic
рекла ма
отваря нето
принадле жност
разочаро ва
аргу менти
дош ли
непре менно
manag ers
paralle l
b om
b low
d ream
d atab
f lights
p ens
г лу
на бляга
ва л
но сът
мо жа
до м
до стоен
ци фри
su ms
ag no
сти гнем
out standing
Съ щото
sy ner
път ната
наме сата
инвести торите
Re hn
vis ible
Про дъл
предлага м
Al low
допълните лните
наблю дават
inst all
nor m
avoid ed
отво ри
Благода рение
възраст ни
интегри рана
координи рани
altern atives
съобще ния
deep ening
взаимо отношения
concent ration
конта кти
OL AF
въздържа х
континен та
родите лите
иму ще
подпис ването
aqu aculture
pestic ides
Рам ко
хоокеан ския
horizon tal
Ора торът
B G
P et
s ched
v ent
Д ъл
З е
С ИП
а таки
а спекта
с ри
ни де
er o
ко декс
ле сен
пре цени
из нася
из тъква
con cessions
su dden
раз стоя
ex changes
стве ният
ку ра
ку ло
За криване
inv ite
дне шния
вод ните
грани чните
dire ctor
ig en
invest ed
Та къв
conf ron
съществува щото
отде лна
enter ing
сло ва
крити чно
крити кува
крат ки
избе ре
доба вената
tack led
conv ince
pursu ing
refuge e
restrict ive
гор де
вло шава
спекула ции
Вя р
жал би
Съществу ват
авио компании
Constitution al
None theless
Sm all
Crim inal
Doc uments
3 3
B an
D G
V oting
i ers
С ло
а самбле
е ц
ц из
on to
en thus
по пречи
ро га
ou l
пре чките
съ граждани
про во
ation ally
из правим
па губ
res h
ще нието
un certain
под ве
op ho
ir respective
ac com
спо мага
ap pl
In stru
dis abilities
пу та
into ler
разли ката
bo ld
where ver
every where
стопан ска
производ ства
цяло стен
di agno
рти ране
От криване
данъ чна
uc k
подходя щите
prevent ed
encoura ges
priv at
изпра тим
Го ди
пенси и
Пра вител
Афри канския
приложи ми
хуманита рни
wide ly
справя нето
обеща ния
проте и
максима лна
severe ly
лошо то
печал ба
redund ancies
arri ve
unanim ously
пети ции
пожа ри
хуба во
телевизи он
Ivo ire
faire r
enthus i
3 9
C ô
Ш е
in fl
re b
за винаги
ко ман
to m
се сията
ing u
пре тър
съ ла
про лет
при бли
при вати
ra cy
ri ed
ke en
държа вен
вър вим
спо кой
въз приема
pl us
St at
dis cre
преди шния
min ing
intern ationally
реше но
тран за
author ised
cra ft
cap abilities
достъп на
мето дите
der og
акти вен
сло жна
recogn ising
стре мят
ear marked
крити ки
амби ция
чув ството
догово ре
jud gment
sus pension
вой ни
конвен ции
according ly
експлоата цията
rein forced
21 st
прите жава
извънред но
доброво л
конце пцията
преодоле е
прецеден т
хуман ното
губ ят
Yugosla v
просперите т
pleas ure
Clo sure
импери али
Cô te
C am
T EN
е ра
у ч
ш има
на е
re mit
по стъп
по служи
за пасите
не справедливо
пре разгледаме
съ щността
об ем
си ра
из носите
раз бера
me re
Ко ле
Un til
много то
pre ferences
спе шна
fa ult
един ни
trans fers
свър зва
мина ло
sol ving
производ ствените
redu ctions
информа ционни
стро г
par amount
международ ния
ss il
демократи чното
демократи чния
призна ние
Ре ги
De clar
действа щите
мигра нтите
предлага нето
Раз ви
високо качествени
mee ts
assess ed
предприема чи
истин ските
препоръ ча
амби ции
получи ли
постоян на
dam aging
професиона лните
sent ence
gain ing
referen ces
делега циите
corpor ate
отрица телни
Призова ваме
ато мните
комента р
hous es
укрепи м
don ors
flood ing
tele vision
unanim ous
състав ляват
изчи сле
consci ence
Коми сар
C au
N ig
S EPA
a po
m as
s car
w ild
б дите
re jection
не до
от правени
ent y
st ic
st ick
ли тов
ла ции
ти ран
ми рни
pro liferation
im bur
бе дни
хо ден
кон центра
има ха
работ я
кт ни
разви е
lear ned
въпрос ната
без усло
цел ият
ine quality
фа за
social ly
тра фи
задъл жени
коле ба
При съ
успе шни
accept ance
colle cted
обсъжда т
наказа телен
човеш ко
stop ped
времен на
elect rical
подгот вя
product ivity
отли чен
adap ting
съгласува ни
forest ation
ужа ся
vig or
конструкти вен
плена рната
Ти хоокеанския
компроми си
приключ ване
вери гата
meant ime
radio active
жесто ко
compon ent
stree ts
execut ive
катего рия
pil ot
fal se
Citiz ens
ниде рланд
асамбле я
Declar ation
7 00
w ing
Н ова
в несо
й ската
те ните
от лагане
ar gue
ли н
пре ме
де рога
мо н
мо менти
до сие
из прави
со ф
бо ра
пи рат
tri g
възмож на
разу мен
пости гната
trans form
вид ят
att end
разгле ждането
set t
des per
директи вите
използва на
убе дени
ресур с
research ers
Има ше
air ports
изне нада
вклю чено
lim iting
Но вата
функ ции
assess ing
проект ът
откри т
rele ased
спи ране
подпомага нето
broad band
разно образ
опера циите
him self
второ то
capac ities
famil i
широко лен
реаги раме
споделя ме
недостатъ ците
религио зните
мул ти
повтаря м
изби рат
смек чаване
none theless
undertaking s
acknowled ged
EF D
fulfill ed
announce ment
Bur ma
сравните лно
endeav our
меж дин
decommission ing
) )
5 9
F uk
S pecial
m oun
o x
Ф уку
а така
в каз
д ност
ж ността
о чеви
с ително
у дво
я по
re imbur
по стро
al ign
it ably
пре хода
ти вно
il i
ще тите
раз се
Euro bonds
sh ift
out set
ба р
fo ssil
cl on
up hold
На ми
trans plant
отгово рят
issu ing
Въ ве
тран се
реа лните
насър чат
ten ance
crim in
ангажи рат
ограни чено
първо степен
призова ват
loo ks
партньор ството
пови шава
изгот вят
извърш ването
електро енергия
sim pl
appe ared
terror ists
оце ни
налага нето
укреп ва
парламента рни
чети рите
анали зира
установя ва
rat ify
investig ate
Am ong
достой нството
тради ционните
уважа емите
ефика с
complex ity
taxpay er
дис баланси
отра сли
постигнато то
вяр ваме
vig il
строите лство
разчита ме
сцена ри
повдигна ти
vacc ines
сяка ш
изигра е
constitu ents
destroy ed
entail s
detri ment
Дово лен
suspend ed
explicit ly
contam ination
suppli ers
Quest ion
Сед мата
syner gies
1 20
C amp
Z ap
l ending
n ut
o do
Г ене
П С
С О
и наче
на лите
on y
ни ска
по мисли
не бе
не достатъчно
не пропорциона
ро ни
st ar
ra c
us him
стра нен
Ко й
прави ло
ся ване
На против
present s
произ ше
sub sequently
стой ности
et ting
Ли п
производ ствени
съответ ствието
гласува ха
ангажи раме
gener ated
продължа ване
смет на
престъп ленията
крити чни
стана хме
vol can
repe al
регула тор
Бал каните
org ans
prepar ations
отчита не
дълбо ка
Регламен та
решите лност
учили ща
множе ството
оку па
character ised
remo ving
вло ши
Lithu anian
tro ops
обвързва щи
abs or
патен т
теку щите
zer o
договаря не
IC T
Ро лята
директо р
Nat urally
съве ти
atmo sphere
Pet itions
Cau cas
Fuk ushim
Фуку шима
Fukushim a
L EX
p in
p ace
w ave
В чера
в не
с пасите
да доха
за де
to x
as set
съ проти
до някъде
из пове
па нията
па спорт
de tain
con ven
раз решаване
li hood
ant ly
бо м
Съ всем
fore seen
ev asion
emp ty
min ors
stit ute
внима телни
здра вна
законодател ните
информа ционните
съответ ното
initi ate
прозра чна
глоба лните
defin itive
технологи чни
разши рява
ES F
либера лизацията
потенциа лно
amp ed
въведе на
влиза т
renew ed
части чно
199 5
dist ingu
официа лни
цялост ната
процен ти
сексуа лната
свет ът
лиде рите
устано вят
прите с
неравно стойно
сту ден
ежедне вно
modif ied
regis tered
кандида ти
бер куло
channe ls
животно въд
Приема нето
journe y
източ ната
scenar io
brut al
fing er
Нор ве
igen ous
A sy
E r
H A
M ult
S im
S even
b ail
f if
f ought
s pl
x ual
ж из
in ated
не правилно
ме рите
ли зиран
пре ките
se lling
из де
из каза
ab sur
отно сително
много годишната
vo ices
ind igenous
ose xual
мини сте
legisl ator
di ver
initi ated
global ised
предизви ква
нару шаването
премах нат
consequ ently
den ied
мор ската
ядре но
nor th
rev ise
ръко води
дости га
ръковод ството
event ually
extra ction
Настоя щото
gain ed
прину дите
горе що
прите жа
пенсион ни
пренебрег ваме
отбра ната
auto matic
подкопа ва
регулато рни
feat ure
еки п
autonom ous
tren ds
infringe ment
мъл ча
недопусти мо
безспо рно
surround ing
arbit r
Комите та
Норве гия
Asy lum
absur d
3 2
G B
G U
M S
T ha
b ac
o o
О свобо
в ля
д ната
з ла
у доб
ф об
ц ър
in ations
ст вител
за пита
не те
al leged
от крити
ro ot
ите лна
ли ст
мо и
ди ро
до лу
de live
при помним
зи м
це нен
wor sen
work force
прави лният
тре тирани
pres erv
pr ime
вно сите
гна ти
Ка вказ
рат ят
нама лени
Ли чно
tribut e
стро гите
Та яни
после дова
успе шен
поло вин
достатъ чен
ben ch
разбира телство
скоро ст
шен ген
expect ing
avail ability
ези ко
предотв ратят
веро изпове
поставя ме
Кон ферен
recommend ed
вла сти
carri ers
възду ха
постоян ни
пря ка
рели гия
интегри ра
отбеле жим
довол ството
обхва тен
suggest ion
уби ти
поздравя вам
адекват на
consolid ated
отра съл
задържа ни
dead lines
boost ing
допус нем
belong ing
преми нем
symbol ic
envis aged
ава рия
recipro city
Lank a
Гене ра
Caucas us
delive red
A b
N 1
W al
f ate
p one
z en
О Р
д жи
е мостта
м ията
ко рени
ве ното
мо дифици
раз вият
пред ложат
ста вки
ha ust
под ви
mo des
ex haust
кра ен
resid ents
dis pens
cy cle
За едно
sa fer
main tenance
стопан ски
наме си
aim ing
di verse
ran ging
присъ стват
успе шното
ограни чите
действа щото
диск уси
премах нати
участ ник
ton ight
прево зи
опера ция
гъвка ви
post pone
associ ations
обхва нати
attemp ting
оконча телния
rein forcing
улес нява
ратифици рането
повиши м
изказва нията
Осно вната
неотдавнаш ните
надзо рен
incorpor ated
Же ла
detri mental
cofin ancing
specul ative
профи ла
залегна ли
perpetr ators
slight ly
извършите лите
Раб от
copy right
усили е
изде лия
GU E
C ulture
L uk
N uclear
S om
T ri
b all
s ist
s ale
u ber
И Ф
Л ам
а социа
й т
о ползотво
се ни
ле чението
пре ва
ти вен
па р
раз работим
ra ce
ter min
ex it
ща ст
fe re
За щи
Не съмнено
път на
тра йно
реа лността
посо чват
конкурен тни
des ired
потребите ля
сла би
извър шена
cost ly
air craft
ог ъ
изне над
cu lo
Пър вото
риболо вни
тор моз
Ukra inian
Може те
Nor way
explo ited
ръковод ство
надеж дността
гене ри
dri ven
длъж ности
pursu ed
separ ation
thous and
мину та
съобра жение
entreprene ur
предвиде но
Бя ха
терористи чни
Tibet an
purch ase
секре тари
смело стта
usu ally
изче зна
суверените та
regis tration
symp athy
комп лек
осиновя ване
weakness es
неред ности
Доклад чи
Indust ry
slaugh ter
Clear ly
tox ic
preserv ation
1 N1
9 8
H 1N1
f aster
l ists
v ictory
Д ан
Ф е
г ът
у ди
у ред
но вени
по рт
ри стите
от правна
ле ка
se at
из хвър
из коре
при доб
im m
раз ми
ra ises
чи ста
ше ните
това ри
тел ният
со чат
sh ut
qu ar
ту беркуло
co ach
су мата
годи ните
над ви
част но
поста вен
exam ining
успе хи
since re
Ма л
безопас на
свето вното
introdu ces
обществе на
акти вност
високо каче
adv ances
предприема не
mor ator
particip ants
дългосро чните
вер сия
риба ри
либера лизиране
превър нем
внесе ните
преодо ляването
пло дове
continu ous
отво рен
fall en
десет ки
dri vers
кам ък
ато мната
remo val
обви нения
sal aries
изразход ват
compar able
пътува ния
explan ation
withdraw al
IC C
toler ance
смело ст
atta ch
полице йски
counterfe iting
карти на
Парт ията
недвусмисле но
exc use
бъл гар
обстано вка
Бор бата
crimin als
uber culo
uberculo sis
B ah
D al
L ux
S A
e per
g am
i x
Б ъде
б ри
л ности
о са
т ното
на последък
по кажат
за мяна
ме ти
от там
от стъпки
st ory
пре работе
об озна
до каже
res sion
ин спе
въз лагане
вя ването
Th anks
ma ch
In iti
предста вянето
пу л
any where
social ist
inter medi
нови на
кли мат
initi ally
сериоз ната
Ма р
отнася щи
ict ions
Гласу вам
прозра чно
life long
pass port
изгот вим
With in
осъщест вим
прево да
теж ките
незаба вни
mot ive
camp s
независи м
Liby an
heart ed
забо ляване
предим ствата
алтернати ви
трудо вите
отпуска не
поу ка
publ ish
NG L
стигна хме
мора тори
неравно поста
Мер ките
всеобхват на
хуман но
родите ли
ded icated
инци денти
снаб дя
юри ди
количе ства
въгли ща
енерго спест
CF P
упо ри
посвете на
rigor ous
сем бург
substanti ally
morator ium
4 2
B ase
G reat
f resh
g ri
s can
Л юк
П лан
в ски
д яване
у спо
re w
та к
en sions
по о
по све
er ion
ко зи
ка нали
от праве
от тук
пре чат
го вете
ци тирам
раз реши
ag g
em bourg
te en
ess ence
qu arter
вя вам
ту си
ба вно
du plic
иска хме
ЕС Ф
ен туси
over whe
Ка з
gra ve
fi xed
вън шен
позво ляваме
inter ventions
arch ite
форми ра
ограни чават
viol ated
bu ying
иде ологи
crit erion
промиш лена
спомена ти
съвмест ната
бре ме
Кон ститу
участ ниците
потенциа лни
лъ н
надзор ни
decid ing
demonstr ation
близо ст
доби в
пада нето
гъвкаво стта
кандидат ите
заба вянето
accep ting
inc idents
позна ния
значи ми
превръща нето
Turk men
Every one
hop ed
изяс няване
усво яване
jan i
Же ните
Ta jani
преработ ка
mur der
Член ът
протекциониз ъм
Отгово рът
Мла де
categor ies
psy cho
convic tion
Sim ilar
Lux embourg
Люк сембург
overwhe l
g ments
t em
А б
д война
н ското
о фор
те стовете
не правителствените
ро то
от печа
се дали
ли би
as sembly
be an
па си
de voted
de eper
ще нията
пра т
ста т
un ilateral
lo ad
ul ates
ска р
not ion
oun ce
us a
хо жда
ду бли
Com position
fin es
dis ability
зе л
фе р
пости жение
ително то
вно ски
предложе но
без работните
пу сто
гарантира ни
твър дят
позво лите
увели чението
нася не
Re port
vis ited
фици ране
tic s
забра нява
har a
технологи чно
Ки ото
отда внаш
съгласи м
заси лят
мор ското
Мно зи
факт ите
компетен тните
професиона лния
consul ted
demonstr ations
excell ence
mut ually
сексуа лно
critic ise
град ските
достой но
реаги ране
направе ните
посе щение
Sa hara
elim ination
учили щата
радио често
френ ското
бру та
attra ct
име нова
сурови ните
факти чески
кур с
пче ла
богат ство
преживя ваме
fulfill ing
Ky oto
забеле жите
erad ic
маркиро вката
пестици ди
предло жа
протеи нови
транза кции
Seven th
C er
O N
P ra
c ation
g a
О пи
Т ру
Х у
у точ
те но
да вам
по ст
за труд
ко гото
ка рие
съ блю
ми сии
из даване
па дне
пе ра
при дру
жа щи
чи сти
жда ването
ор ските
ня какво
мис лите
qu i
вни ците
сте на
лага т
зе лени
pr int
пла тени
тя ва
преде лно
Ка ква
human e
Wh ite
tw ice
При нци
структу рите
инвести ране
Из полз
пълно мо
vis ing
vis ual
жела ла
ref usal
remain ed
back s
действа щи
дви жат
край ната
pass ports
противо постави
конкурентоспособ ни
истин ската
мани пу
ses sions
наказа ния
Ра бо
харак те
обез ле
единстве н
парламента рните
отво рена
задълбо чаване
demonstr ating
официа лна
Севе рен
проя вява
мар ги
Дру ги
смята т
уско ряване
lay s
conclud ing
Palest inians
значи мост
vig ation
строите лни
предстоя щата
advoc ated
identify ing
допус не
теле комуника
неу тра
фалшифици рани
спра т
уре жда
въздухопла ването
witness ed
новатор ски
obser vers
Лу ка
Sloven ia
Сло вения
G M
I V
P o
P over
n an
w estern
О бя
Ч лено
б ун
т ността
у ро
th ou
на ема
те ст
to bac
съ да
де тски
об мислим
про ст
из влича
пе ду
res ort
ще н
so ever
ir responsible
спо рти
лю с
кре х
фи л
cl aimed
Съ дът
dis semin
прие ха
един ната
what soever
рам ки
основа телно
уве реност
изиск ваме
съответ стват
inter net
your self
инвести тори
гри жите
стаби лно
Те к
благода рен
ограни чат
lig ence
ph il
план ът
ident ification
високо то
премах нем
Тур к
конкурентоспособ на
съвмест ното
среща т
capital ist
tar iat
незакон ните
възду шен
капита листи
facilit ation
задълбо чен
пове дението
industrial ised
категори и
упраж няват
obtain ing
Ни то
изма ма
ash ing
замър сите
изрази м
провежда ме
съсе дни
неотло жна
облек чаване
транспони ране
blue fin
реце сията
hom osexual
усъвършен стване
заявле ния
democrat ically
arrest ed
Подоб но
sold iers
mother s
неприкосно веността
Повече то
Sh ould
побе да
призове м
thres hold
Вяр вам
Instru ment
претър пя
последова телен
Лам педу
поо щ
Cer tain
Pover ty
thou ghts
tobac co
Лампеду за
6 6
8 8
E A
G N
G old
H ence
L amped
S cot
V er
s cre
w all
й ния
м ък
с му
с лън
ц у
на ги
на именова
ни ските
по куп
or k
ка у
ro ll
ar a
съ ща
съ болез
съ образя
ти ците
раз говорите
пред ше
mo ved
ay s
ac ade
lic ate
ран на
осно ви
лага ме
new ly
ener gies
За пада
min ent
system atically
bo x
mat ch
бих те
fici ally
гри жат
di e
speci fied
разя ване
open ly
Ви наги
собстве ното
сла бите
стран но
мени стан
activ ists
move ments
обх ване
бу ди
gen et
ges ts
глоба лни
стратеги ческите
раст я
enterpr ise
фра г
ling u
integr al
обез пе
Ин стру
парламента рната
плани рането
приро дата
оти ват
интегри рането
explo it
sug gests
лекар ствата
възобновя ема
повто ри
деклара цията
pi racy
critic ised
трансграни чната
одоб рява
бележ ка
мисле не
организира на
ash enko
сигна ли
bloc ked
stric ter
риб ни
pun ished
адап тиране
confir ms
reven ues
дикта тура
физи чески
дреб ните
surv ive
уда р
chap ters
извле чем
isol ation
придви ж
abandon ed
подле жат
boo k
заве дения
Car ib
Su per
Протоко ла
bot tom
кораб ите
prerequis ite
vit ally
автоб ус
appl aud
infl ation
famili ar
Luk ashenko
Младе жта
Лука шенко
Lamped usa
съболез нова
0 5
K ur
R ef
S ol
v ary
И де
г ро
й ната
н ска
у еднак
an as
is s
по тъ
al be
es cal
пре даде
ти вната
об мисли
pro p
no ise
no body
пра га
com position
ri an
op pon
гра фик
sh op
Com b
лю би
кон солида
бъде щия
ха рт
вре да
следва ме
слу чват
сме ли
um b
up gra
без визо
без смисле
pect ives
financial ly
govern ed
твър да
приема м
послед ният
проду кта
наме рено
loc ations
посо ката
работи ха
Re cent
живот ински
ограни чаването
дви жи
беле жи
наблю датели
съби рат
Че сто
функциони рат
ета па
techn i
опас ността
indic ates
хуманита рните
био метри
post pon
ug g
dan gers
институциона лна
съгласува н
град ят
достой ни
дире кция
моде ла
eth ical
осъществя ват
дефици ти
UK IP
explain ed
електроцентра ла
евентуа лни
спекула циите
enjoy ed
gap s
преодоле ят
циви лни
Liber ties
уре ждане
incorpor ate
наводне нията
отпус нати
Финансо вата
atta ched
въоръ жени
превозва чи
благоден ствие
accus ed
Again st
дъмп инг
приви леги
невин ни
англи йски
shar p
Причи ната
fals ified
отча я
укра ин
entrepreneur ship
Докладчи кът
Turkmen istan
Турк менистан
Carib bean
albe it
C ong
F A
G al
j un
m ant
Н П
в стъп
м ния
о пусто
in sp
in sul
re cru
то ест
не състоя
it le
and em
ме тра
ro t
пре дава
ти чна
де мен
об ши
мо ми
до х
из лъ
de gra
пред писа
ag rees
държа т
въз об
след ния
По здра
new sp
цен ност
мя ване
без пристраст
min es
most ly
incre di
abl ing
тях на
прове дохме
exam ination
пълно ценно
кли мати
форми рането
жела телно
access ing
organ ising
comple tion
Об щото
Pro cess
транспорт ните
An ti
изразя ват
emer ged
bi ome
renew al
Второ то
затво ри
затво рени
одобре ни
трево жни
Belarus ian
благоприят ни
кръ га
обстоя телствата
ефика сни
ефика сна
lay ing
изо лация
предстоя щото
Осно вните
eco systems
интелиген тен
младе жите
чувствите лен
ъг ъл
обвързва що
неотдавнаш ното
сту денти
strugg ling
vacc ination
поро ди
отбеляз вам
infringe ments
Ma ur
коло ни
distin ction
Резулта тът
Енер гий
secur ing
Бюдже тът
Край но
5 4
