{"<S>":0,"</S>":1,"<UNK>":2,"<PAD>":3,"<TRANS>":4,"!":5,"\"":6,"%":7,"&":8,"'":9,"(":10,")":11,"*":12,"+":13,",":14,"-":15,".":16,"/":17,"0":18,"1":19,"2":20,"3":21,"4":22,"5":23,"6":24,"7":25,"8":26,"9":27,":":28,";":29,"<":30,"=":31,"?":32,"@":33,"A":34,"B":35,"C":36,"D":37,"E":38,"F":39,"G":40,"H":41,"I":42,"J":43,"K":44,"L":45,"M":46,"N":47,"O":48,"P":49,"Q":50,"R":51,"S":52,"T":53,"U":54,"V":55,"W":56,"X":57,"Y":58,"Z":59,"[":60,"]":61,"_":62,"a":63,"b":64,"c":65,"d":66,"e":67,"f":68,"g":69,"h":70,"i":71,"j":72,"k":73,"l":74,"m":75,"n":76,"o":77,"p":78,"q":79,"r":80,"s":81,"t":82,"u":83,"v":84,"w":85,"x":86,"y":87,"z":88,"°":89,"±":90,"²":91,"³":92,"º":93,"Å":94,"Ð":95,"Ó":96,"Ö":97,"×":98,"Ü":99,"à":100,"á":101,"â":102,"ã":103,"ä":104,"ç":105,"è":106,"é":107,"ê":108,"ë":109,"í":110,"ï":111,"ñ":112,"ò":113,"ó":114,"ô":115,"ö":116,"ú":117,"û":118,"ü":119,"ý":120,"ă":121,"ć":122,"ĉ":123,"Č":124,"č":125,"Đ":126,"đ":127,"ė":128,"ę":129,"ě":130,"ğ":131,"ī":132,"ı":133,"ķ":134,"ľ":135,"Ł":136,"ł":137,"ń":138,"ō":139,"Ő":140,"ő":141,"œ":142,"ř":143,"Ś":144,"ś":145,"ş":146,"Š":147,"š":148,"ţ":149,"ź":150,"ž":151,"ǐ":152,"ș":153,"Α":154,"Β":155,"Ε":156,"Ι":157,"Μ":158,"Ν":159,"Ο":160,"Τ":161,"έ":162,"ί":163,"α":164,"δ":165,"ε":166,"η":167,"ι":168,"κ":169,"λ":170,"μ":171,"ν":172,"ο":173,"ρ":174,"ς":175,"σ":176,"τ":177,"υ":178,"φ":179,"ό":180,"ώ":181,"І":182,"А":183,"Б":184,"В":185,"Г":186,"Д":187,"Е":188,"Ж":189,"З":190,"И":191,"Й":192,"К":193,"Л":194,"М":195,"Н":196,"О":197,"П":198,"Р":199,"С":200,"Т":201,"У":202,"Ф":203,"Х":204,"Ц":205,"Ч":206,"Ш":207,"Щ":208,"Ъ":209,"Ю":210,"Я":211,"а":212,"б":213,"в":214,"г":215,"д":216,"е":217,"ж":218,"з":219,"и":220,"й":221,"к":222,"л":223,"м":224,"н":225,"о":226,"п":227,"р":228,"с":229,"т":230,"у":231,"ф":232,"х":233,"ц":234,"ч":235,"ш":236,"щ":237,"ъ":238,"ь":239,"ю":240,"я":241,"ѝ":242,"​":243,"”":244,"•":245,"€":246,"№":247,"≤":248,"th":249,"на":250,"in":251,"the":252,"re":253,"on":254,"ни":255,"то":256,"an":257,"та":258,"ва":259,"ра":260,"те":261,"at":262,"но":263,"да":264,"en":265,"ре":266,"is":267,"ст":268,"по":269,"за":270,"er":271,"не":272,"or":273,"al":274,"ion":275,"ко":276,"to":277,"es":278,"of":279,"ка":280,"ро":281,"it":282,"ou":283,"and":284,"ме":285,"ри":286,"от":287,"ro":288,"ed":289,"се":290,"ing":291,"ar":292,"ите":293,"че":294,"ия":295,"ent":296,"ic":297,"st":298,"ле":299,"ве":300,"ли":301,"ла":302,"as":303,"во":304,"пре":305,"le":306,"съ":307,"ти":308,"ve":309,"де":310,"om":311,"ма":312,"ви":313,"об":314,"be":315,"pe":316,"ct":317,"си":318,"го":319,"мо":320,"that":321,"про":322,"въ":323,"ми":324,"ние":325,"il":326,"for":327,"ди":328,"se":329,"ation":330,"до":331,"ment":332,"ск":333,"ly":334,"из":335,"we":336,"па":337,"de":338,"пе":339,"га":340,"pro":341,"при":342,"res":343,"ци":344,"con":345,"ните":346,"im":347,"ще":348,"зи":349,"wh":350,"же":351,"no":352,"ване":353,"su":354,"вро":355,"ния":356,"ност":357,"he":358,"раз":359,"пред":360,"are":361,"ло":362,"po":363,"ър":364,"ки":365,"пра":366,"са":367,"uro":368,"ce":369,"li":370,"Euro":371,"ста":372,"ch":373,"Europe":374,"ря":375,"жа":376,"ut":377,"ver":378,"ha":379,"this":380,"ra":381,"ort":382,"so":383,"un":384,"ld":385,"lo":386,"id":387,"ul":388,"вропе":389,"вропей":390,"port":391,"com":392,"ne":393,"ab":394,"ру":395,"ска":396,"мен":397,"ri":398,"ith":399,"ията":400,"чи":401,"ag":402,"ill":403,"with":404,"em":405,"ше":406,"ate":407,"European":408,"ча":409,"ur":410,"ad":411,"not":412,"gh":413,"our":414,"това":415,"ter":416,"ke":417,"The":418,"ля":419,"под":420,"ната":421,"have":422,"сти":423,"ci":424,"що":425,"oun":426,"бе":427,"ould":428,"ity":429,"te":430,"mo":431,"це":432,"ство":433,"am":434,"кои":435,"сто":436,"тел":437,"op":438,"би":439,"sion":440,"ги":441,"ir":442,"бва":443,"рябва":444,"вропейск":445,"ay":446,"бъ":447,"ive":448,"со":449,"сно":450,"дър":451,"us":452,"хо":453,"20":454,"държа":455,"ac":456,"ich":457,"сле":458,"will":459,"гра":460,"жда":461,"ор":462,"ex":463,"which":464,"трябва":465,"ts":466,"ду":467,"които":468,"ess":469,"sh":470,"all":471,"ъл":472,"ust":473,"me":474,"лен":475,"като":476,"ies":477,"ин":478,"ain":479,"ge":480,"вър":481,"ber":482,"by":483,"вите":484,"стра":485,"ня":486,"ето":487,"спо":488,"ват":489,"ща":490,"fe":491,"ът":492,"мис":493,"Com":494,"жи":495,"ция":496,"mis":497,"ant":498,"въз":499,"Европейск":500,"лно":501,"qu":502,"бо":503,"отно":504,"has":505,"вя":506,"след":507,"лю":508,"ването":509,"act":510,"ol":511,"ther":512,"нието":513,"Европейския":514,"кти":515,"est":516,"wor":517,"Ко":518,"къ":519,"ства":520,"if":521,"кон":522,"ers":523,"mission":524,"бъде":525,"pos":526,"art":527,"ions":528,"ха":529,"si":530,"out":531,"lic":532,"tr":533,"ред":534,"кре":535,"Commission":536,"фи":537,"end":538,"мно":539,"гово":540,"EU":541,"go":542,"ско":543,"лу":544,"Th":545,"ту":546,"зна":547,"ap":548,"дател":549,"нето":550,"кто":551,"co":552,"do":553,"ma":554,"cial":555,"ember":556,"има":557,"also":558,"член":559,"coun":560,"мисията":561,"ламен":562,"ба":563,"reg":564,"коно":565,"man":566,"Un":567,"cr":568,"str":569,"поли":570,"ates":571,"кра":572,"und":573,"resid":574,"fo":575,"пи":576,"but":577,"one":578,"ят":579,"ното":580,"полити":581,"iv":582,"pl":583,"юз":584,"зо":585,"ard":586,"ree":587,"ta":588,"вата":589,"су":590,"Комисията":591,"Presid":592,"ament":593,"can":594,"сич":595,"ността":596,"съюз":597,"St":598,"ран":599,"rom":600,"ren":601,"ure":602,"able":603,"Member":604,"would":605,"We":606,"part":607,"there":608,"въпро":609,"very":610,"must":611,"du":612,"from":613,"ложе":614,"cl":615,"рламен":616,"циа":617,"ски":618,"дей":619,"Съ":620,"ans":621,"fin":622,"should":623,"гу":624,"щи":625,"всич":626,"клю":627,"много":628,"предсе":629,"ble":630,"може":631,"au":632,"вни":633,"tri":634,"ations":635,"към":636,"сте":637,"need":638,"In":639,"дъл":640,"Union":641,"work":642,"гла":643,"кла":644,"od":645,"President":646,"ple":647,"ist":648,"ef":649,"доб":650,"arli":651,"vi":652,"жду":653,"its":654,"иска":655,"То":656,"ud":657,"председател":658,"ус":659,"ЕС":660,"кой":661,"което":662,"arliament":663,"It":664,"cre":665,"дат":666,"еди":667,"стве":668,"ical":669,"кономи":670,"ments":671,"econ":672,"кри":673,"ght":674,"sup":675,"import":676,"States":677,"ous":678,"more":679,"икономи":680,"цията":681,"между":682,"dis":683,"ку":684,"този":685,"прави":686,"ction":687,"коя":688,"cess":689,"ance":690,"раб":691,"ръ":692,"ho":693,"been":694,"ската":695,"ед":696,"шение":697,"също":698,"comm":699,"fore":700,"която":701,"Parliament":702,"icul":703,"подкре":704,"ord":705,"така":706,"ire":707,"econom":708,"tim":709,"тре":710,"цио":711,"осно":712,"лага":713,"vo":714,"Евро":715,"вече":716,"ции":717,"членки":718,"който":719,"their":720,"ish":721,"you":722,"ast":723,"дру":724,"сво":725,"работ":726,"ary":727,"вре":728,"reat":729,"вен":730,"тъ":731,"gy":732,"Европа":733,"pres":734,"нан":735,"всички":736,"ходи":737,"тази":738,"рите":739,"pre":740,"прие":741,"This":742,"тези":743,"ted":744,"iti":745,"лко":746,"gr":747,"per":748,"финан":749,"пъл":750,"следва":751,"now":752,"слу":753,"мер":754,"гле":755,"мож":756,"зе":757,"или":758,"вия":759,"ша":760,"ството":761,"pr":762,"cy":763,"възмож":764,"докла":765,"ong":766,"other":767,"ally":768,"пол":769,"polic":770,"tra":771,"вет":772,"сре":773,"както":774,"фор":775,"стоя":776,"тру":777,"ране":778,"ките":779,"200":780,"сигу":781,"най":782,"ob":783,"лни":784,"Па":785,"ваме":786,"соб":787,"ца":788,"ind":789,"фе":790,"ach":791,"ational":792,"ces":793,"who":794,"form":795,"ll":796,"По":797,"int":798,"Това":799,"сме":800,"was":801,"these":802,"важ":803,"ens":804,"king":805,"ctive":806,"спе":807,"um":808,"cur":809,"Mr":810,"ключ":811,"чита":812,"държави":813,"tries":814,"important":815,"относно":816,"like":817,"new":818,"gn":819,"ся":820,"ities":821,"fa":822,"countries":823,"bet":824,"рез":825,"рт":826,"leg":827,"ated":828,"ye":829,"support":830,"velo":831,"защо":832,"velop":833,"бъдат":834,"ition":835,"пла":836,"fic":837,"нията":838,"up":839,"ev":840,"cer":841,"tern":842,"report":843,"ome":844,"стта":845,"годи":846,"mar":847,"само":848,"ката":849,"обходи":850,"доста":851,"ause":852,"гражда":853,"тя":854,"вам":855,"age":856,"дейст":857,"ople":858,"ските":859,"they":860,"чни":861,"low":862,"spe":863,"ting":864,"ener":865,"кт":866,"agree":867,"cont":868,"je":869,"икономиче":870,"ility":871,"сред":872,"държавите":873,"За":874,"ен":875,"все":876,"cil":877,"develop":878,"отношение":879,"На":880,"Парламен":881,"мата":882,"ghts":883,"един":884,"people":885,"рност":886,"ши":887,"economic":888,"лите":889,"ty":890,"ence":891,"Coun":892,"дни":893,"разви":894,"cause":895,"ser":896,"тира":897,"щата":898,"Council":899,"чно":900,"разу":901,"ial":902,"полз":903,"ution":904,"about":905,"gu":906,"необходи":907,"finan":908,"рен":909,"обла":910,"инте":911,"way":912,"ia":913,"лна":914,"бле":915,"lear":916,"преди":917,"пости":918,"ough":919,"въпрос":920,"стъ":921,"ците":922,"ху":923,"eve":924,"ително":925,"вно":926,"201":927,"time":928,"как":929,"ful":930,"some":931,"year":932,"policy":933,"предложе":934,"ced":935,"време":936,"over":937,"ене":938,"ден":939,"цен":940,"ative":941,"prov":942,"хме":943,"ход":944,"тър":945,"because":946,"гна":947,"come":948,"паза":949,"wever":950,"propos":951,"sa":952,"trans":953,"only":954,"get":955,"беше":956,"chan":957,"again":958,"мя":959,"европейск":960,"без":961,"лните":962,"съще":963,"ското":964,"sure":965,"what":966,"тите":967,"отгово":968,"ise":969,"ack":970,"стру":971,"lit":972,"ms":973,"Не":974,"ow":975,"предста":976,"ating":977,"оба":978,"през":979,"бли":980,"rent":981,"финансо":982,"щите":983,"гаран":984,"than":985,"разуме":986,"ase":987,"my":988,"rights":989,"emp":990,"ject":991,"цел":992,"пу":993,"issu":994,"under":995,"мите":996,"whe":997,"marke":998,"голя":999,"вета":1000,"clear":1001,"зда":1002,"хора":1003,"day":1004,"съм":1005,"inv":1006,"ip":1007,"им":1008,"вид":1009,"вле":1010,"stru":1011,"пробле":1012,"помо":1013,"ures":1014,"cris":1015,"ween":1016,"социа":1017,"between":1018,"ub":1019,"подкрепа":1020,"създа":1021,"парламен":1022,"pect":1023,"ass":1024,"fund":1025,"каза":1026,"кога":1027,"наро":1028,"00":1029,"produ":1030,"проце":1031,"вие":1032,"icular":1033,"financial":1034,"орга":1035,"pon":1036,"hu":1037,"oper":1038,"право":1039,"ue":1040,"rel":1041,"До":1042,"ан":1043,"particular":1044,"във":1045,"ine":1046,"into":1047,"inte":1048,"such":1049,"sy":1050,"вропейската":1051,"any":1052,"енер":1053,"crisis":1054,"стъп":1055,"ice":1056,"ose":1057,"още":1058,"доклад":1059,"sit":1060,"itiz":1061,"them":1062,"свобо":1063,"fact":1064,"tain":1065,"igh":1066,"използ":1067,"order":1068,"он":1069,"преде":1070,"Ка":1071,"рази":1072,"thing":1073,"споразуме":1074,"чение":1075,"гласу":1076,"citiz":1077,"дне":1078,"реги":1079,"гат":1080,"няма":1081,"polit":1082,"върху":1083,"фа":1084,"аз":1085,"ame":1086,"дове":1087,"повече":1088,"try":1089,"защи":1090,"политика":1091,"ep":1092,"ем":1093,"dif":1094,"вител":1095,"beli":1096,"форма":1097,"take":1098,"му":1099,"prote":1100,"make":1101,"sible":1102,"развити":1103,"respon":1104,"la":1105,"ink":1106,"pri":1107,"криза":1108,"ну":1109,"циона":1110,"min":1111,"бю":1112,"гне":1113,"вод":1114,"начи":1115,"present":1116,"af":1117,"със":1118,"лната":1119,"продъл":1120,"vel":1121,"deb":1122,"fir":1123,"ress":1124,"демо":1125,"връ":1126,"систе":1127,"рам":1128,"колко":1129,"ural":1130,"ради":1131,"citizens":1132,"just":1133,"произ":1134,"една":1135,"ency":1136,"грани":1137,"stem":1138,"therefore":1139,"ian":1140,"cus":1141,"гарантира":1142,"чо":1143,"политиче":1144,"дан":1145,"human":1146,"those":1147,"comp":1148,"incl":1149,"ефе":1150,"red":1151,"Европейският":1152,"рабо":1153,"social":1154,"каз":1155,"meas":1156,"над":1157,"ult":1158,"see":1159,"защото":1160,"stit":1161,"quest":1162,"dec":1163,"ublic":1164,"believe":1165,"intern":1166,"Парламента":1167,"ards":1168,"mon":1169,"лта":1170,"when":1171,"proposal":1172,"Ho":1173,"част":1174,"gra":1175,"energy":1176,"market":1177,"стано":1178,"tion":1179,"страна":1180,"political":1181,"обще":1182,"However":1183,"ности":1184,"наш":1185,"дже":1186,"ако":1187,"proble":1188,"парламент":1189,"чове":1190,"bas":1191,"system":1192,"main":1193,"stand":1194,"ския":1195,"most":1196,"чните":1197,"разли":1198,"тен":1199,"ният":1200,"други":1201,"ace":1202,"равни":1203,"она":1204,"incre":1205,"правата":1206,"нение":1207,"being":1208,"страни":1209,"bo":1210,"xt":1211,"bal":1212,"rest":1213,"органи":1214,"icult":1215,"many":1216,"народ":1217,"бюдже":1218,"рио":1219,"against":1220,"вят":1221,"ctor":1222,"cent":1223,"обаче":1224,"resol":1225,"читам":1226,"ефекти":1227,"cons":1228,"път":1229,"изме":1230,"sub":1231,"cern":1232,"подоб":1233,"level":1234,"uation":1235,"вните":1236,"трудни":1237,"effe":1238,"необходимо":1239,"regul":1240,"sel":1241,"Съвета":1242,"ives":1243,"add":1244,"plement":1245,"опреде":1246,"bud":1247,"concern":1248,"med":1249,"рат":1250,"лаго":1251,"ving":1252,"свър":1253,"лено":1254,"настоя":1255,"демокра":1256,"когато":1257,"ks":1258,"rit":1259,"могат":1260,"пен":1261,"ious":1262,"use":1263,"потре":1264,"защита":1265,"development":1266,"страте":1267,"made":1268,"dire":1269,"mat":1270,"случа":1271,"well":1272,"тъй":1273,"тът":1274,"лан":1275,"упра":1276,"oup":1277,"лия":1278,"There":1279,"вете":1280,"бя":1281,"рта":1282,"сега":1283,"пър":1284,"вна":1285,"включ":1286,"основа":1287,"ця":1288,"сътрудни":1289,"read":1290,"търго":1291,"ew":1292,"think":1293,"strate":1294,"чна":1295,"country":1296,"едно":1297,"гру":1298,"ide":1299,"ститу":1300,"гия":1301,"then":1302,"Въ":1303,"рането":1304,"measures":1305,"were":1306,"законо":1307,"say":1308,"лата":1309,"ву":1310,"unity":1311,"тех":1312,"agreement":1313,"uture":1314,"mit":1315,"реше":1316,"great":1317,"el":1318,"прилага":1319,"fi":1320,"where":1321,"жо":1322,"ound":1323,"ision":1324,"пя":1325,"future":1326,"row":1327,"call":1328,"начин":1329,"предоста":1330,"ual":1331,"right":1332,"тра":1333,"вто":1334,"imp":1335,"implement":1336,"abl":1337,"направи":1338,"adop":1339,"госпо":1340,"long":1341,"vern":1342,"циите":1343,"know":1344,"govern":1345,"мерки":1346,"good":1347,"някои":1348,"cond":1349,"ensure":1350,"rough":1351,"важно":1352,"sum":1353,"стой":1354,"бор":1355,"телно":1356,"твър":1357,"приема":1358,"мент":1359,"връз":1360,"същест":1361,"национа":1362,"bility":1363,"положе":1364,"стопа":1365,"паз":1366,"situation":1367,"pet":1368,"можем":1369,"Европейската":1370,"fra":1371,"чен":1372,"рия":1373,"contin":1374,"неза":1375,"сел":1376,"requ":1377,"ific":1378,"чрез":1379,"собе":1380,"qual":1381,"чава":1382,"уве":1383,"view":1384,"срещ":1385,"зд":1386,"app":1387,"сътрудниче":1388,"оста":1389,"tee":1390,"public":1391,"appro":1392,"ild":1393,"тях":1394,"ention":1395,"high":1396,"европей":1397,"тран":1398,"national":1399,"operation":1400,"alth":1401,"want":1402,"исти":1403,"isation":1404,"изи":1405,"demo":1406,"средства":1407,"through":1408,"секто":1409,"нци":1410,"cts":1411,"разиск":1412,"possible":1413,"нама":1414,"работа":1415,"менно":1416,"ices":1417,"ner":1418,"взе":1419,"развитие":1420,"вън":1421,"години":1422,"iven":1423,"сър":1424,"regard":1425,"budget":1426,"first":1427,"бите":1428,"sector":1429,"current":1430,"мина":1431,"ship":1432,"ism":1433,"As":1434,"ised":1435,"years":1436,"isl":1437,"hel":1438,"особе":1439,"att":1440,"кта":1441,"щия":1442,"благо":1443,"et":1444,"послед":1445,"debate":1446,"ors":1447,"put":1448,"внима":1449,"area":1450,"свърза":1451,"ие":1452,"uch":1453,"sol":1454,"евро":1455,"мест":1456,"кту":1457,"осигу":1458,"sign":1459,"here":1460,"улта":1461,"равнище":1462,"utions":1463,"проти":1464,"serv":1465,"ability":1466,"loy":1467,"curity":1468,"правител":1469,"arge":1470,"ak":1471,"help":1472,"Ли":1473,"дова":1474,"разгле":1475,"съгла":1476,"бира":1477,"same":1478,"every":1479,"cep":1480,"възможност":1481,"золю":1482,"интере":1483,"причи":1484,"прове":1485,"вот":1486,"работни":1487,"today":1488,"реа":1489,"pend":1490,"сигурност":1491,"issue":1492,"even":1493,"лява":1494,"здра":1495,"срещу":1496,"преки":1497,"inform":1498,"ign":1499,"fer":1500,"виси":1501,"ele":1502,"изпъл":1503,"мини":1504,"legisl":1505,"пазар":1506,"резулта":1507,"логи":1508,"world":1509,"областта":1510,"институ":1511,"ti":1512,"човека":1513,"пример":1514,"men":1515,"говори":1516,"compet":1517,"br":1518,"thor":1519,"законодател":1520,"reed":1521,"commit":1522,"праве":1523,"eng":1524,"помощ":1525,"instit":1526,"подход":1527,"проду":1528,"усло":1529,"ves":1530,"особено":1531,"доклада":1532,"law":1533,"Wh":1534,"държава":1535,"мента":1536,"achi":1537,"въпроси":1538,"поста":1539,"ry":1540,"рани":1541,"мал":1542,"includ":1543,"reaty":1544,"point":1545,"protection":1546,"прият":1547,"far":1548,"връзка":1549,"ite":1550,"vir":1551,"cannot":1552,"Commissioner":1553,"less":1554,"парт":1555,"нашите":1556,"ig":1557,"резолю":1558,"gram":1559,"насър":1560,"нението":1561,"gent":1562,"програ":1563,"стан":1564,"certain":1565,"own":1566,"ready":1567,"зво":1568,"специа":1569,"ясно":1570,"tak":1571,"voted":1572,"ext":1573,"resolution":1574,"принци":1575,"конкре":1576,"tw":1577,"жите":1578,"даде":1579,"дна":1580,"too":1581,"Mad":1582,"изиск":1583,"real":1584,"how":1585,"cour":1586,"change":1587,"ory":1588,"финанси":1589,"fav":1590,"interest":1591,"Догово":1592,"cooperation":1593,"That":1594,"process":1595,"bon":1596,"европейските":1597,"ление":1598,"стопан":1599,"omen":1600,"рни":1601,"vote":1602,"international":1603,"exam":1604,"тно":1605,"legal":1606,"rap":1607,"necess":1608,"наме":1609,"tribut":1610,"could":1611,"пас":1612,"тро":1613,"set":1614,"region":1615,"тни":1616,"ректи":1617,"добре":1618,"производ":1619,"напред":1620,"ited":1621,"тери":1622,"йна":1623,"respect":1624,"вето":1625,"значение":1626,"полу":1627,"dra":1628,"onment":1629,"common":1630,"Madam":1631,"security":1632,"2020":1633,"employ":1634,"нова":1635,"invest":1636,"does":1637,"still":1638,"place":1639,"ък":1640,"ген":1641,"Трябва":1642,"redu":1643,"бих":1644,"pen":1645,"нали":1646,"car":1647,"граждани":1648,"vironment":1649,"much":1650,"ложи":1651,"fici":1652,"ком":1653,"Ето":1654,"both":1655,"two":1656,"ential":1657,"цяло":1658,"щност":1659,"зова":1660,"cing":1661,"енерги":1662,"clo":1663,"aim":1664,"within":1665,"тек":1666,"задъл":1667,"чу":1668,"запо":1669,"висо":1670,"информа":1671,"него":1672,"question":1673,"num":1674,"favour":1675,"ile":1676,"коле":1677,"рата":1678,"позво":1679,"ответ":1680,"прое":1681,"сътрудничество":1682,"lobal":1683,"лят":1684,"hope":1685,"ider":1686,"вести":1687,"опи":1688,"crat":1689,"увели":1690,"точ":1691,"засе":1692,"конку":1693,"author":1694,"еле":1695,"goti":1696,"2009":1697,"бра":1698,"state":1699,"hap":1700,"pare":1701,"способ":1702,"нас":1703,"mi":1704,"itions":1705,"черта":1706,"sur":1707,"решение":1708,"управле":1709,"ten":1710,"Treaty":1711,"възможно":1712,"loc":1713,"negoti":1714,"лното":1715,"всичко":1716,"роля":1717,"tal":1718,"ствено":1719,"wel":1720,"цион":1721,"discus":1722,"изключ":1723,"съответ":1724,"съществу":1725,"environment":1726,"illion":1727,"crim":1728,"inter":1729,"посо":1730,"фон":1731,"бъдеще":1732,"При":1733,"already":1734,"предвид":1735,"публи":1736,"серио":1737,"структу":1738,"нови":1739,"стро":1740,"sions":1741,"action":1742,"your":1743,"сро":1744,"arch":1745,"инвести":1746,"had":1747,"ята":1748,"разпо":1749,"necessary":1750,"зви":1751,"рна":1752,"imate":1753,"reas":1754,"днес":1755,"jor":1756,"DE":1757,"насо":1758,"вся":1759,"val":1760,"Из":1761,"гри":1762,"program":1763,"major":1764,"стаби":1765,"менти":1766,"inci":1767,"di":1768,"бед":1769,"система":1770,"конкурен":1771,"gan":1772,"имат":1773,"ban":1774,"strategy":1775,"ources":1776,"trade":1777,"обсъ":1778,"бяха":1779,"Те":1780,"ask":1781,"они":1782,"там":1783,"cted":1784,"голяма":1785,"diffe":1786,"рти":1787,"course":1788,"allow":1789,"споразумение":1790,"търгов":1791,"women":1792,"par":1793,"борба":1794,"мисия":1795,"ствие":1796,"matter":1797,"пълно":1798,"soci":1799,"safe":1800,"ква":1801,"why":1802,"работи":1803,"speci":1804,"гажи":1805,"last":1806,"кли":1807,"opport":1808,"effective":1809,"urther":1810,"гражданите":1811,"princi":1812,"used":1813,"международ":1814,"sing":1815,"група":1816,"гласува":1817,"role":1818,"position":1819,"въве":1820,"Сле":1821,"уси":1822,"consider":1823,"initi":1824,"peri":1825,"вната":1826,"Ch":1827,"око":1828,"нася":1829,"text":1830,"col":1831,"information":1832,"health":1833,"ablish":1834,"pay":1835,"ангажи":1836,"grow":1837,"Пред":1838,"des":1839,"реди":1840,"case":1841,"въпроса":1842,"От":1843,"increas":1844,"ince":1845,"plan":1846,"хората":1847,"пози":1848,"инстру":1849,"establish":1850,"нь":1851,"разя":1852,"искал":1853,"global":1854,"itive":1855,"предприят":1856,"key":1857,"година":1858,"потребите":1859,"ке":1860,"нужда":1861,"Re":1862,"taken":1863,"consum":1864,"ran":1865,"искам":1866,"wer":1867,"оби":1868,"reason":1869,"свен":1870,"сни":1871,"provid":1872,"региона":1873,"uring":1874,"require":1875,"два":1876,"ss":1877,"gener":1878,"присъ":1879,"члено":1880,"needs":1881,"Af":1882,"щото":1883,"number":1884,"areas":1885,"EN":1886,"чени":1887,"vis":1888,"лиза":1889,"open":1890,"партнь":1891,"чески":1892,"said":1893,"живот":1894,"indust":1895,"particularly":1896,"job":1897,"права":1898,"сен":1899,"ствата":1900,"подкрепя":1901,"Би":1902,"contribut":1903,"няколко":1904,"дали":1905,"2010":1906,"without":1907,"group":1908,"имаме":1909,"дата":1910,"lead":1911,"ряване":1912,"Та":1913,"struct":1914,"mework":1915,"считам":1916,"три":1917,"подчерта":1918,"invol":1919,"ун":1920,"promo":1921,"форми":1922,"ents":1923,"уча":1924,"образ":1925,"ules":1926,"после":1927,"writ":1928,"дите":1929,"ese":1930,"pers":1931,"еми":1932,"бон":1933,"практи":1934,"контро":1935,"Lis":1936,"Lisbon":1937,"голе":1938,"той":1939,"нен":1940,"благода":1941,"сабон":1942,"чаване":1943,"края":1944,"успе":1945,"reedom":1946,"ограни":1947,"поло":1948,"Лисабон":1949,"ини":1950,"казва":1951,"represent":1952,"oura":1953,"stain":1954,"ately":1955,"issues":1956,"гот":1957,"шата":1958,"продължа":1959,"tax":1960,"процеду":1961,"каже":1962,"ved":1963,"жен":1964,"сна":1965,"Con":1966,"жела":1967,"cept":1968,"изисква":1969,"гламен":1970,"access":1971,"истина":1972,"продукти":1973,"сили":1974,"ollow":1975,"means":1976,"example":1977,"agr":1978,"ination":1979,"problems":1980,"reco":1981,"цата":1982,"действие":1983,"self":1984,"fair":1985,"agricult":1986,"sibility":1987,"европейски":1988,"prior":1989,"gress":1990,"степен":1991,"дава":1992,"ital":1993,"amend":1994,"accoun":1995,"Ние":1996,"ждане":1997,"Договора":1998,"ues":1999,"jo":2000,"чат":2001,"fac":2002,"рно":2003,"допъл":2004,"жение":2005,"достатъ":2006,"ning":2007,"employment":2008,"ben":2009,"отговорност":2010,"например":2011,"вътре":2012,"действия":2013,"Се":2014,"първо":2015,"демократи":2016,"institutions":2017,"better":2018,"problem":2019,"Ако":2020,"свързани":2021,"strong":2022,"транспо":2023,"pra":2024,"amental":2025,"aid":2026,"economy":2027,"tech":2028,"становя":2029,"So":2030,"prove":2031,"малко":2032,"постигна":2033,"призова":2034,"Затова":2035,"кажа":2036,"freedom":2037,"quality":2038,"cra":2039,"ris":2040,"Min":2041,"обе":2042,"Парламентът":2043,"рамките":2044,"cap":2045,"специално":2046,"какво":2047,"озна":2048,"циати":2049,"места":2050,"force":2051,"бър":2052,"gentle":2053,"дори":2054,"reng":2055,"постигне":2056,"iness":2057,"effor":2058,"директи":2059,"vers":2060,"may":2061,"Ва":2062,"зира":2063,"sp":2064,"gentlemen":2065,"лност":2066,"тук":2067,"място":2068,"сите":2069,"gration":2070,"bus":2071,"19":2072,"adies":2073,"streng":2074,"варя":2075,"висимо":2076,"step":2077,"terms":2078,"prev":2079,"оча":2080,"loo":2081,"фици":2082,"depend":2083,"рността":2084,"diff":2085,"гията":2086,"къде":2087,"господа":2088,"кан":2089,"framework":2090,"aran":2091,"follow":2092,"ater":2093,"безо":2094,"орите":2095,"benef":2096,"среда":2097,"ланд":2098,"стойчи":2099,"инициати":2100,"външ":2101,"ъм":2102,"предизви":2103,"rules":2104,"including":2105,"Ви":2106,"lid":2107,"собстве":2108,"proced":2109,"ветства":2110,"cor":2111,"going":2112,"услу":2113,"информация":2114,"представ":2115,"лени":2116,"основните":2117,"fully":2118,"сектор":2119,"рим":2120,"conf":2121,"wards":2122,"led":2123,"цели":2124,"term":2125,"If":2126,"For":2127,"serious":2128,"управление":2129,"project":2130,"eur":2131,"member":2132,"гите":2133,"проблем":2134,"porteur":2135,"give":2136,"suc":2137,"положение":2138,"расте":2139,"сериоз":2140,"ward":2141,"труд":2142,"resources":2143,"vide":2144,"внимание":2145,"rapporteur":2146,"сур":2147,"climate":2148,"mand":2149,"ird":2150,"sm":2151,"политиката":2152,"туа":2153,"food":2154,"writing":2155,"комисия":2156,"deal":2157,"проми":2158,"добро":2159,"continue":2160,"arity":2161,"provide":2162,"organ":2163,"instru":2164,"сла":2165,"низ":2166,"несе":2167,"ctions":2168,"medi":2169,"ге":2170,"sustain":2171,"child":2172,"устойчи":2173,"реша":2174,"знач":2175,"guaran":2176,"\".":2177,"решения":2178,"дел":2179,"жените":2180,"Мо":2181,"sed":2182,"извър":2183,"нау":2184,"стран":2185,"different":2186,"приорите":2187,"products":2188,"approach":2189,"енергий":2190,"станда":2191,"ail":2192,"Ту":2193,"мена":2194,"използва":2195,"policies":2196,"decision":2197,"предоставя":2198,"lig":2199,"wn":2200,"business":2201,"поради":2202,"проблеми":2203,"ulation":2204,"play":2205,"viol":2206,"явам":2207,"improve":2208,"EUR":2209,"тори":2210,"progress":2211,"since":2212,"Ма":2213,"съществува":2214,"bu":2215,"наистина":2216,"политически":2217,"after":2218,"климата":2219,"Въпреки":2220,"welcome":2221,"ек":2222,"докладчи":2223,"достъп":2224,"икономически":2225,"paren":2226,"безопас":2227,"бан":2228,"based":2229,"ically":2230,"Аз":2231,"Про":2232,"дово":2233,"fish":2234,"разбира":2235,"cost":2236,"мето":2237,"effici":2238,"pract":2239,"given":2240,"свето":2241,"rodu":2242,"факта":2243,"ph":2244,"иде":2245,"regulation":2246,"предизвика":2247,"чва":2248,"Ба":2249,"strengthen":2250,"difficult":2251,"acc":2252,"кар":2253,"къв":2254,"приеме":2255,"мили":2256,"cracy":2257,"On":2258,"отнася":2259,"момента":2260,"призна":2261,"clu":2262,"adopted":2263,"contro":2264,"further":2265,"убе":2266,"Считам":2267,"increase":2268,"мени":2269,"сът":2270,"ict":2271,"жим":2272,"изключително":2273,"ines":2274,"crit":2275,"before":2276,"ways":2277,"предложение":2278,"ied":2279,"als":2280,"данъ":2281,"Гла":2282,"отноше":2283,"взема":2284,"comple":2285,"означава":2286,"fundamental":2287,"next":2288,"light":2289,"result":2290,"legislation":2291,"Ре":2292,"включително":2293,"нача":2294,"рай":2295,"постига":2296,"10":2297,"намаля":2298,"free":2299,"дате":2300,"find":2301,"Presidency":2302,"предприятия":2303,"isions":2304,"вина":2305,"регламен":2306,"Иска":2307,"Бих":2308,"towards":2309,"ising":2310,"ouse":2311,"whether":2312,"uc":2313,"solid":2314,"ref":2315,"reach":2316,"предложението":2317,"ман":2318,"State":2319,"recent":2320,"growth":2321,"лту":2322,"introdu":2323,"обществе":2324,"отде":2325,"suf":2326,"care":2327,"нещо":2328,"De":2329,"дователно":2330,"achieve":2331,"случай":2332,"лена":2333,"ресур":2334,"точка":2335,"hand":2336,"making":2337,"Съвет":2338,"Об":2339,"conditions":2340,".,":2341,"search":2342,"signific":2343,"организа":2344,"сед":2345,"remain":2346,"cratic":2347,"ова":2348,"скоро":2349,"however":2350,"пазара":2351,"вията":2352,"expres":2353,"large":2354,"Pro":2355,"\",":2356,"Спо":2357,"ross":2358,"Гласу":2359,"back":2360,"services":2361,"Members":2362,"authorities":2363,"road":2364,"small":2365,"during":2366,"Освен":2367,"култу":2368,"directive":2369,"Commit":2370,"mone":2371,"авто":2372,"лкова":2373,"chall":2374,"euro":2375,"дени":2376,"област":2377,"av":2378,"opin":2379,"Fund":2380,"дейност":2381,"потребителите":2382,"Committee":2383,"account":2384,"coura":2385,"ladies":2386,"хра":2387,"pecial":2388,"нява":2389,"условия":2390,"каче":2391,"),":2392,"толкова":2393,"нения":2394,"2008":2395,"разискване":2396,"дълго":2397,"reform":2398,"план":2399,"шно":2400,"negotiations":2401,"importance":2402,"ждането":2403,"ute":2404,"действа":2405,"funds":2406,"start":2407,"gether":2408,"hal":2409,"изто":2410,"чим":2411,"жаване":2412,"глед":2413,"мъ":2414,"log":2415,"specific":2416,"basis":2417,"addition":2418,"зра":2419,"At":2420,"simp":2421,"bring":2422,"implementation":2423,"мигра":2424,"лото":2425,"госпожи":2426,"hes":2427,"transport":2428,"vious":2429,"йки":2430,"става":2431,"соли":2432,"промиш":2433,"спа":2434,"opportunity":2435,"greater":2436,"същност":2437,"coming":2438,"tur":2439,"бро":2440,"Gr":2441,"nov":2442,"feren":2443,"съжа":2444,"line":2445,"activ":2446,"гл":2447,"million":2448,"селско":2449,"mention":2450,"power":2451,"IT":2452,"der":2453,"essential":2454,"резултат":2455,"токо":2456,"together":2457,"ata":2458,"research":2459,"резолюция":2460,"оцен":2461,"европейската":2462,"third":2463,"comb":2464,"кризата":2465,"стратегия":2466,"ore":2467,"предлага":2468,"forward":2469,"Съветът":2470,"especial":2471,"utes":2472,"especially":2473,"000":2474,"Group":2475,"United":2476,"Al":2477,"нашата":2478,"ефектив":2479,"пое":2480,"прозра":2481,"arian":2482,"move":2483,"отново":2484,"Има":2485,"object":2486,"институции":2487,"шен":2488,"говаря":2489,"ime":2490,"person":2491,"taking":2492,"impact":2493,"ври":2494,"месе":2495,"working":2496,"ants":2497,"cho":2498,"всеки":2499,"air":2500,"ru":2501,"нару":2502,"while":2503,"land":2504,"вка":2505,"What":2506,"вото":2507,"ises":2508,"подходя":2509,"significant":2510,"Rom":2511,"акти":2512,"обх":2513,"exist":2514,"колкото":2515,"бу":2516,"вието":2517,"партньор":2518,"ness":2519,"телства":2520,"ханиз":2521,"състоя":2522,"станови":2523,"ety":2524,"Раз":2525,"друга":2526,"Ag":2527,"рати":2528,"oc":2529,"рят":2530,"transparen":2531,"proposals":2532,"ият":2533,"net":2534,"нем":2535,"2011":2536,"sequ":2537,"ident":2538,"word":2539,"високо":2540,"вътреш":2541,"Rus":2542,"хи":2543,"бюджет":2544,"gen":2545,"responsibility":2546,"success":2547,"Russi":2548,"Comm":2549,"временно":2550,"compan":2551,"дим":2552,"accept":2553,"граждан":2554,"fight":2555,"спомена":2556,"bil":2557,"плаща":2558,"сбли":2559,"cas":2560,"ges":2561,"перио":2562,"exp":2563,"atives":2564,"show":2565,"manage":2566,"създаването":2567,"democracy":2568,"лния":2569,"съв":2570,"workers":2571,"ually":2572,"искаме":2573,"говорите":2574,"финансиране":2575,"jobs":2576,"resul":2577,"механиз":2578,"efforts":2579,"aw":2580,"opinion":2581,"done":2582,"напълно":2583,"заето":2584,"различни":2585,"важна":2586,"data":2587,"диа":2588,"subject":2589,"против":2590,"света":2591,"government":2592,"50":2593,"tic":2594,"комисията":2595,"ъж":2596,"глоба":2597,"colle":2598,"дви":2599,"поръ":2600,"ситуа":2601,"протоко":2602,"голямо":2603,"standards":2604,"whole":2605,"three":2606,"ily":2607,"техно":2608,"околната":2609,"правят":2610,"финансова":2611,"ог":2612,"educ":2613,"често":2614,"растеж":2615,"ft":2616,"nat":2617,"изне":2618,"coord":2619,"правя":2620,"важен":2621,"ences":2622,"amb":2623,"две":2624,"край":2625,"thank":2626,"благодаря":2627,"affe":2628,"хте":2629,"minis":2630,"данни":2631,"напредък":2632,"образова":2633,"гре":2634,"лим":2635,"half":2636,"всяка":2637,"вния":2638,"really":2639,"забра":2640,"вени":2641,"regions":2642,"ven":2643,"хвър":2644,"транспорт":2645,"money":2646,"вклю":2647,"safety":2648,"hesion":2649,"гото":2650,"допълните":2651,"ists":2652,"few":2653,"своите":2654,").":2655,"тво":2656,"These":2657,"enter":2658,"изве":2659,"раме":2660,"assist":2661,"енергия":2662,"attention":2663,"top":2664,"председателство":2665,"блю":2666,"регу":2667,"фика":2668,"democratic":2669,"objectives":2670,"commun":2671,"second":2672,"pur":2673,"предложения":2674,"lim":2675,"бюджета":2676,"control":2677,"ech":2678,"обща":2679,"какви":2680,"sustainable":2681,"сп":2682,"prevent":2683,"пови":2684,"присъеди":2685,"именно":2686,"последните":2687,"ca":2688,"pose":2689,"услуги":2690,"var":2691,"сила":2692,"вижда":2693,"industry":2694,"ric":2695,"Бе":2696,"крайна":2697,"look":2698,"14":2699,"ivid":2700,"Tur":2701,"direct":2702,"ilit":2703,"selves":2704,"фун":2705,"down":2706,"националните":2707,"контрол":2708,"изменението":2709,"юза":2710,"представлява":2711,"children":2712,"принцип":2713,"vil":2714,"conclu":2715,"било":2716,"смет":2717,"wish":2718,"селскостопан":2719,"икономика":2720,"tun":2721,"innov":2722,"друже":2723,"agricultural":2724,"бързо":2725,"Съюза":2726,"нат":2727,"interests":2728,"възстановя":2729,"agreements":2730,"процес":2731,"правото":2732,"adv":2733,"society":2734,"companies":2735,"ought":2736,"promis":2737,"his":2738,"заедно":2739,"направим":2740,"съжаление":2741,"стри":2742,"членове":2743,"сло":2744,"приветства":2745,"ар":2746,"беле":2747,"expect":2748,"развитието":2749,"internal":2750,"recogn":2751,"life":2752,"икономическа":2753,"lab":2754,"рланд":2755,"An":2756,"mes":2757,"същото":2758,"според":2759,"земе":2760,"Ar":2761,"become":2762,"cult":2763,"необходимостта":2764,"har":2765,"pass":2766,"poin":2767,"encoura":2768,"off":2769,"последи":2770,"build":2771,"съдържа":2772,"increasing":2773,"nership":2774,"environmental":2775,"understand":2776,"конкретно":2777,"civil":2778,"добри":2779,"hold":2780,"промишле":2781,"Искам":2782,"House":2783,"did":2784,"ged":2785,"огро":2786,"ад":2787,"..":2788,"clearly":2789,"създаде":2790,"пома":2791,"times":2792,"вах":2793,"положението":2794,"mind":2795,"defin":2796,"pop":2797,"борбата":2798,"achiev":2799,"Is":2800,"пита":2801,"търговия":2802,"допри":2803,"mechan":2804,"gue":2805,"счита":2806,"явле":2807,"доку":2808,"изразя":2809,"speak":2810,"address":2811,"turn":2812,"side":2813,"fail":2814,"промени":2815,"cut":2816,"rece":2817,"sc":2818,"They":2819,"солида":2820,"Но":2821,"наблю":2822,"ffic":2823,"ging":2824,"изгот":2825,"орди":2826,"рните":2827,"ternal":2828,"сближаване":2829,"искала":2830,"ник":2831,"области":2832,"няване":2833,"30":2834,"principle":2835,"мър":2836,"ances":2837,"ples":2838,"помогне":2839,"proper":2840,"programme":2841,"least":2842,"focus":2843,"опит":2844,"обя":2845,"month":2846,"appropri":2847,"заседа":2848,"важни":2849,"съвет":2850,"comes":2851,"участи":2852,"нами":2853,"рамка":2854,"Therefore":2855,"ank":2856,"risk":2857,"технологи":2858,"елект":2859,"мла":2860,"опаз":2861,"ам":2862,"противо":2863,"demand":2864,"рява":2865,"inclu":2866,"erv":2867,"независимо":2868,"Fin":2869,"No":2870,"mber":2871,"дре":2872,"коорди":2873,"positive":2874,"iveness":2875,"където":2876,"ресурси":2877,"lack":2878,"трети":2879,"твърде":2880,"фонд":2881,"работата":2882,"extre":2883,"мах":2884,"treat":2885,"uclear":2886,"инова":2887,"общ":2888,"ck":2889,"стре":2890,"applic":2891,"усия":2892,"мятам":2893,"причина":2894,"ath":2895,"Гласувах":2896,"кси":2897,"винаги":2898,"among":2899,"les":2900,"извън":2901,"чното":2902,"политики":2903,"али":2904,"насе":2905,"period":2906,"consumers":2907,"techno":2908,"actions":2909,"create":2910,"Ме":2911,"вим":2912,"обсъжда":2913,"cohesion":2914,"relation":2915,"farm":2916,"целия":2917,"престъп":2918,"ified":2919,"something":2920,"групата":2921,"education":2922,"диск":2923,"функ":2924,"ливо":2925,"балан":2926,"стратегията":2927,"another":2928,"icip":2929,"bour":2930,"ung":2931,"СА":2932,"protect":2933,"Bar":2934,"always":2935,"подкрепи":2936,"усилия":2937,"мл":2938,"mee":2939,"cu":2940,"еко":2941,"vic":2942,"спаз":2943,"guarantee":2944,"sen":2945,"просто":2946,"ME":2947,"prof":2948,"general":2949,"отговор":2950,"regional":2951,"достатъчно":2952,"САЩ":2953,"жени":2954,"стандарти":2955,"ade":2956,"ages":2957,"мни":2958,"тай":2959,"рение":2960,"deed":2961,"close":2962,"жно":2963,"спекти":2964,"EC":2965,"разпоред":2966,"намаляване":2967,"Ще":2968,"прилагането":2969,"рак":2970,"ick":2971,"премах":2972,"разход":2973,"currently":2974,"Ки":2975,"ори":2976,"individ":2977,"systems":2978,"solution":2979,"разполага":2980,"центра":2981,"граф":2982,"initiative":2983,"solidarity":2984,"производите":2985,"assess":2986,"вани":2987,"съби":2988,"Community":2989,"нати":2990,"proposed":2991,"def":2992,"relations":2993,"жат":2994,"Русия":2995,"въпреки":2996,"лица":2997,"укре":2998,"happen":2999,"developing":3000,"законодателство":3001,"рма":3002,"management":3003,"таки":3004,"ently":3005,"aster":3006,"ever":3007,"шите":3008,"Поради":3009,"доведе":3010,"12":3011,"разши":3012,"ining":3013,"жерт":3014,"short":3015,"широ":3016,"aware":3017,"чната":3018,"пад":3019,"lines":3020,"ral":3021,"ear":3022,"големи":3023,"best":3024,"eld":3025,"писме":3026,"Russia":3027,"ify":3028,"nuclear":3029,"overn":3030,"Като":3031,"Gree":3032,"отв":3033,"дение":3034,"процеса":3035,"лип":3036,"once":3037,"itself":3038,"служ":3039,"голям":3040,"eas":3041,"правед":3042,"отда":3043,"тия":3044,"възможността":3045,"avail":3046,"itor":3047,"нос":3048,"помага":3049,"war":3050,"del":3051,"гори":3052,"ферен":3053,"ези":3054,"emphas":3055,"тък":3056,"европейска":3057,"стабилност":3058,"individual":3059,"things":3060,"vention":3061,"gest":3062,"справед":3063,"concerned":3064,"стратеги":3065,"включва":3066,"тоспособ":3067,"чението":3068,"резолюцията":3069,"extreme":3070,"wee":3071,"игра":3072,"ува":3073,"ensive":3074,"non":3075,"правила":3076,"засегна":3077,"fortun":3078,"изследва":3079,"draw":3080,"Govern":3081,"single":3082,"води":3083,"fl":3084,"full":3085,"aly":3086,"целите":3087,"ased":3088,"concerns":3089,"challeng":3090,"източни":3091,"правени":3092,"постигнем":3093,"various":3094,"meeting":3095,"improv":3096,"funding":3097,"inst":3098,"Minutes":3099,"дек":3100,"съответствие":3101,"правителство":3102,"let":3103,"раст":3104,"предприема":3105,"ann":3106,"Както":3107,"икономическо":3108,"Тур":3109,"fam":3110,"крити":3111,"pover":3112,"jective":3113,"споразумението":3114,"разгледа":3115,"новите":3116,"ings":3117,"experi":3118,"европейско":3119,"each":3120,"consequ":3121,"техните":3122,"mor":3123,"often":3124,"преговорите":3125,"ogue":3126,"финансовите":3127,"шното":3128,"лението":3129,"вед":3130,"нея":3131,"markets":3132,"strateg":3133,"наде":3134,"cies":3135,"oung":3136,"програма":3137,"конкурентоспособ":3138,"момент":3139,"седми":3140,"groups":3141,"мери":3142,"възможности":3143,"Se":3144,"тели":3145,"ствени":3146,"случаи":3147,"съгласи":3148,"US":3149,"опе":3150,"ряването":3151,"cru":3152,"зачита":3153,"supp":3154,"mer":3155,"production":3156,"investment":3157,"poverty":3158,"bod":3159,"икономическата":3160,"чевид":3161,"istic":3162,"Reg":3163,"labour":3164,"Пър":3165,"ror":3166,"оне":3167,"фри":3168,"states":3169,"шето":3170,"involved":3171,"пет":3172,"Предсе":3173,"15":3174,"2007":3175,"Government":3176,"Part":3177,"нито":3178,"споразумения":3179,"обър":3180,"свободата":3181,"използват":3182,"Сега":3183,"2013":3184,"съвмест":3185,"border":3186,"PL":3187,"групи":3188,"programmes":3189,"чност":3190,"такива":3191,"anim":3192,"commend":3193,"legislative":3194,"текст":3195,"започ":3196,"You":3197,"projects":3198,"ES":3199,"зада":3200,"общност":3201,"context":3202,"пуска":3203,"Pol":3204,"насили":3205,"финансовата":3206,"structure":3207,"young":3208,"Str":3209,"истин":3210,"cession":3211,"assistance":3212,"вж":3213,"inal":3214,"pack":3215,"бре":3216,"yet":3217,"райони":3218,"запла":3219,"състояние":3220,"бата":3221,"полза":3222,"емиси":3223,"преговори":3224,"цин":3225,"продължи":3226,"accord":3227,"мули":3228,"оценка":3229,"колеги":3230,"вза":3231,"избо":3232,"ians":3233,"позиция":3234,"жения":3235,"particip":3236,"развива":3237,"majority":3238,"costs":3239,"using":3240,"pot":3241,"разглежда":3242,"малките":3243,"objective":3244,"заси":3245,"предотв":3246,"'.":3247,"challenges":3248,"заклю":3249,"здраве":3250,"local":3251,"responsible":3252,"значите":3253,"мог":3254,"having":3255,"following":3256,"ministr":3257,"available":3258,"pat":3259,"писмена":3260,"den":3261,"пъ":3262,"циони":3263,"дългосро":3264,"To":3265,"found":3266,"чаването":3267,"диало":3268,"Hung":3269,"Че":3270,"дно":3271,"monitor":3272,"зиране":3273,"проект":3274,"ference":3275,"ivers":3276,"old":3277,"ister":3278,"Ми":3279,"victim":3280,"лността":3281,"зая":3282,"разходи":3283,"чават":3284,"СП":3285,"веро":3286,"гледна":3287,"интер":3288,"words":3289,"Турция":3290,"вното":3291,"her":3292,"aspect":3293,"rather":3294,"сигурността":3295,"complete":3296,"паке":3297,"Той":3298,"ead":3299,"препоръ":3300,"actually":3301,"нове":3302,"priority":3303,"results":3304,"tle":3305,"Европейски":3306,"Над":3307,"отговаря":3308,"беля":3309,"Вие":3310,"discrim":3311,"trad":3312,"гласуване":3313,"transparency":3314,"сметка":3315,"dial":3316,"нищо":3317,"извърш":3318,"Turkey":3319,"финансови":3320,"определени":3321,"violence":3322,"With":3323,"priv":3324,"редица":3325,"инструмент":3326,"отношения":3327,"ible":3328,"docu":3329,"ina":3330,"осигури":3331,"храните":3332,"ней":3333,"stress":3334,"проведе":3335,"joint":3336,"procedure":3337,"share":3338,"прилагане":3339,"FR":3340,"годиш":3341,"гласувах":3342,"Cour":3343,"equ":3344,"Ня":3345,"глежда":3346,"integration":3347,"appropriate":3348,"били":3349,"Court":3350,"Dire":3351,"enterpr":3352,"сля":3353,"реши":3354,"откри":3355,"яване":3356,"though":3357,"зае":3358,"commitment":3359,"principles":3360,"админи":3361,"27":3362,"риз":3363,"ago":3364,"beg":3365,"ably":3366,"instruments":3367,"интерес":3368,"atory":3369,"чения":3370,"fel":3371,"needed":3372,"cise":3373,"осъ":3374,"своята":3375,"надявам":3376,"ефективно":3377,"creation":3378,"довери":3379,"амби":3380,"различните":3381,"дискри":3382,"стопанство":3383,"изследвания":3384,"пов":3385,"clar":3386,"общо":3387,"правим":3388,"sid":3389,"осъщест":3390,"стите":3391,"constit":3392,"проекти":3393,"поле":3394,"behalf":3395,"гарантираме":3396,"governance":3397,"онези":3398,"peace":3399,"administr":3400,"думи":3401,"apply":3402,"dialogue":3403,"ници":3404,"довател":3405,"поставя":3406,"unt":3407,"зася":3408,"възстановяване":3409,"моби":3410,"извест":3411,"Ди":3412,"освобо":3413,"семе":3414,"фондове":3415,"fortunately":3416,"ника":3417,"keep":3418,"posed":3419,"въпросите":3420,"values":3421,"ators":3422,"пари":3423,"active":3424,"Кон":3425,"effect":3426,"защитата":3427,"Всич":3428,"мор":3429,"parliament":3430,"sever":3431,"benefit":3432,"stability":3433,"електро":3434,"ческите":3435,"чевидно":3436,"Също":3437,"подчертая":3438,"efficiency":3439,"independ":3440,"новя":3441,"intend":3442,"теро":3443,"extremely":3444,"общата":3445,"Следователно":3446,"kind":3447,"Мно":3448,"бера":3449,"cases":3450,"равно":3451,"sim":3452,"аген":3453,"обу":3454,"mean":3455,"чув":3456,"appe":3457,"стъпка":3458,"billion":3459,"dom":3460,"вер":3461,"conflic":3462,"тата":3463,"crucial":3464,"recommend":3465,"lies":3466,"инструменти":3467,"promote":3468,"точно":3469,"ал":3470,"oub":3471,"ляне":3472,"гава":3473,"фра":3474,"competition":3475,"рът":3476,"системи":3477,"администра":3478,"lan":3479,"list":3480,"rele":3481,"review":3482,"due":3483,"ification":3484,"points":3485,"членовете":3486,"името":3487,"мати":3488,"партньорство":3489,"package":3490,"reduce":3491,"Afric":3492,"Li":3493,"stat":3494,"decisions":3495,"name":3496,"семей":3497,"Дне":3498,"региони":3499,"позволи":3500,"liber":3501,"Тези":3502,"months":3503,"оглед":3504,"риба":3505,"десе":3506,"продължава":3507,"migration":3508,"тиране":3509,"ляват":3510,"institution":3511,"крат":3512,"щността":3513,"Как":3514,"Let":3515,"ling":3516,"изпра":3517,"членка":3518,"практика":3519,"живе":3520,"Го":3521,"всъщност":3522,"мре":3523,"ефективност":3524,"innovation":3525,"взаи":3526,"дът":3527,"пак":3528,"бива":3529,"medium":3530,"участ":3531,"реформи":3532,"ceed":3533,"едине":3534,"имигра":3535,"чния":3536,"maintain":3537,"called":3538,"farmers":3539,"место":3540,"ger":3541,"показа":3542,"amendments":3543,"функциони":3544,"мнение":3545,"равен":3546,"offic":3547,"che":3548,"Тя":3549,"получи":3550,"activities":3551,"дискримина":3552,"enterprises":3553,"ОО":3554,"head":3555,"мнози":3556,"field":3557,"provided":3558,"simply":3559,"солидарност":3560,"siz":3561,"всем":3562,"политическа":3563,"исто":3564,"нет":3565,"общество":3566,"ania":3567,"сата":3568,"enda":3569,"oblig":3570,"bur":3571,"ication":3572,"изменение":3573,"очаква":3574,"seen":3575,"докато":3576,"ighbour":3577,"причини":3578,"mentioned":3579,"ядре":3580,"чена":3581,"чено":3582,"amoun":3583,"конкретни":3584,"постоя":3585,"several":3586,"parties":3587,"foreign":3588,"постигане":3589,"лство":3590,"nor":3591,"rev":3592,"мани":3593,"terror":3594,"рландия":3595,"пус":3596,"ret":3597,"Bel":3598,"двете":3599,"запа":3600,"пара":3601,"пер":3602,"ove":3603,"меди":3604,"ностите":3605,"подобряване":3606,"конф":3607,"population":3608,"irst":3609,"правилно":3610,"протокола":3611,"свят":3612,"regarding":3613,"започна":3614,"инициатива":3615,"ron":3616,"ses":3617,"създаване":3618,"ООН":3619,"First":3620,"вла":3621,"Ха":3622,"special":3623,"feel":3624,"вземе":3625,"demon":3626,"ември":3627,"industri":3628,"земедел":3629,"догово":3630,"concerning":3631,"fairs":3632,"жава":3633,"председате":3634,"include":3635,"Ri":3636,"ел":3637,"Под":3638,"Са":3639,"emo":3640,"накрая":3641,"carri":3642,"лията":3643,"екологи":3644,"emis":3645,"знаем":3646,"ръко":3647,"void":3648,"шаване":3649,"victims":3650,"ton":3651,"ined":3652,"поддържа":3653,"competit":3654,"изпълнението":3655,"wers":3656,"changes":3657,"response":3658,"зиден":3659,"compromis":3660,"конфли":3661,"fisher":3662,"threat":3663,"интегра":3664,"избе":3665,"зоната":3666,"добра":3667,"Вто":3668,"consequences":3669,"пят":3670,"поч":3671,"questions":3672,"безопасност":3673,"оце":3674,"настояще":3675,"25":3676,"кро":3677,"quick":3678,"minor":3679,"бъдещето":3680,"eria":3681,"прием":3682,"публика":3683,"strict":3684,"пенси":3685,"сериозно":3686,"приоритет":3687,"RO":3688,"Sp":3689,"jud":3690,"страните":3691,"необходими":3692,"инвестиции":3693,"Много":3694,"Според":3695,"Този":3696,"ският":3697,"link":3698,"директива":3699,"През":3700,"дости":3701,"транс":3702,"Пра":3703,"загу":3704,"проу":3705,"вероят":3706,"avoid":3707,"прево":3708,"seem":3709,"вият":3710,"ave":3711,"reen":3712,"критери":3713,"businesses":3714,"ither":3715,"tes":3716,"наказа":3717,"мяна":3718,"Необходи":3719,"директивата":3720,"instrument":3721,"hist":3722,"мони":3723,"doing":3724,"каква":3725,"iter":3726,"governments":3727,"програми":3728,"constru":3729,"креди":3730,"работници":3731,"pleased":3732,"kes":3733,"Гър":3734,"страната":3735,"Ра":3736,"налага":3737,"решава":3738,"спи":3739,"unities":3740,"certainly":3741,"integr":3742,"положите":3743,"кото":3744,"регион":3745,"gas":3746,"ight":3747,"бъдем":3748,"действите":3749,"Все":3750,"face":3751,"сектора":3752,"Между":3753,"Гърция":3754,"нени":3755,"доба":3756,"съгласно":3757,"suring":3758,"Greece":3759,"Надявам":3760,"ета":3761,"полага":3762,"fle":3763,"ческа":3764,"нят":3765,"своя":3766,"труда":3767,"Finally":3768,"mult":3769,"харак":3770,"subst":3771,"рано":3772,"моята":3773,"действието":3774,"soon":3775,"firm":3776,"закон":3777,"достав":3778,"тенциа":3779,"убежи":3780,"plac":3781,"aged":3782,"демокрацията":3783,"енергийната":3784,"технологии":3785,"potential":3786,"вена":3787,"виде":3788,"значително":3789,"absol":3790,"участие":3791,"другите":3792,"Общността":3793,"begin":3794,"рана":3795,"гария":3796,"подпомага":3797,"мисля":3798,"икономиката":3799,"зва":3800,"request":3801,"зор":3802,"anced":3803,"прео":3804,"гнат":3805,"разходите":3806,"употре":3807,"ниците":3808,"enough":3809,"itarian":3810,"либера":3811,"разискването":3812,"increased":3813,"потенциа":3814,"grant":3815,"риск":3816,"съвсем":3817,"съществено":3818,"регули":3819,"жително":3820,"true":3821,"работят":3822,"свобода":3823,"средствата":3824,"настоящем":3825,"телни":3826,"quite":3827,"среща":3828,"връща":3829,"Така":3830,"организации":3831,"Директи":3832,"споде":3833,"правомо":3834,"очак":3835,"кции":3836,"проблема":3837,"казват":3838,"Artic":3839,"competitiveness":3840,"orig":3841,"ale":3842,"настоящата":3843,"absolute":3844,"мога":3845,"стане":3846,"above":3847,"хар":3848,"използването":3849,"минист":3850,"targe":3851,"entire":3852,"теж":3853,"ново":3854,"regulations":3855,"техни":3856,"усилията":3857,"organis":3858,"ners":3859,"unction":3860,"final":3861,"приети":3862,"няването":3863,"сътрудничеството":3864,"procedures":3865,"emer":3866,"изменения":3867,"еврозоната":3868,"милиона":3869,"Agree":3870,"achieved":3871,"never":3872,"факт":3873,"requirements":3874,"брой":3875,"приемането":3876,"existing":3877,"диалог":3878,"Rights":3879,"Rep":3880,"кия":3881,"условията":3882,"малцин":3883,"период":3884,"Directive":3885,"territ":3886,"Докла":3887,"longer":3888,"биха":3889,"успя":3890,"подкрепата":3891,"mom":3892,"respond":3893,"остана":3894,"президен":3895,"насърчаване":3896,"кажем":3897,"Republic":3898,"rate":3899,"Да":3900,"отколкото":3901,"принципа":3902,"reasons":3903,"idence":3904,"говорим":3905,"обез":3906,"ложени":3907,"ролята":3908,"pt":3909,"2006":3910,"подкрепям":3911,"priorities":3912,"He":3913,"previous":3914,"capital":3915,"mechanism":3916,"Председател":3917,"човеш":3918,"бия":3919,"стен":3920,"acceptable":3921,"приветствам":3922,"укреп":3923,"профе":3924,"кате":3925,"дото":3926,"основни":3927,"opportunities":3928,"средство":3929,"equal":3930,"financing":3931,"wast":3932,"уле":3933,"държавата":3934,"правилата":3935,"целта":3936,"techn":3937,"Demo":3938,"изявле":3939,"фраструкту":3940,"маща":3941,"themselves":3942,"све":3943,"imum":3944,"бедността":3945,"качеството":3946,"Secon":3947,"Афри":3948,"Social":3949,"discrimination":3950,"Second":3951,"ensuring":3952,"кова":3953,"amp":3954,"istan":3955,"others":3956,"value":3957,"application":3958,"external":3959,"регламент":3960,"лъ":3961,"ateral":3962,"петен":3963,"единстве":3964,"европейския":3965,"докладчика":3966,"living":3967,"matters":3968,"инфраструкту":3969,"tail":3970,"зу":3971,"зни":3972,"деца":3973,"uses":3974,"превър":3975,"приклю":3976,"сам":3977,"encies":3978,"Тази":3979,"fellow":3980,"broad":3981,"cal":3982,"tar":3983,"Де":3984,"нов":3985,"социални":3986,"Ger":3987,"поне":3988,"затова":3989,"accession":3990,"проблемите":3991,"Minister":3992,"elections":3993,"sul":3994,"liance":3995,"aimed":3996,"moment":3997,"консу":3998,"общи":3999,"approv":4000,"устойчиво":4001,"промишленост":4002,"рени":4003,"illegal":4004,"Inter":4005,"компетен":4006,"внесе":4007,"гъ":4008,"предложи":4009,"contain":4010,"чите":4011,"зако":4012,"рист":4013,"vere":4014,"опас":4015,"предизвикател":4016,"additional":4017,"такъв":4018,"социално":4019,"sitting":4020,"незакон":4021,"Ин":4022,"agreed":4023,"няват":4024,"боло":4025,"ключо":4026,"encourage":4027,"emissions":4028,"conne":4029,"работим":4030,"idea":4031,"Във":4032,"talk":4033,"Китай":4034,"интернет":4035,"11":4036,"hon":4037,"infra":4038,"ствия":4039,"consist":4040,"suffici":4041,"Пре":4042,"неща":4043,"partnership":4044,"представител":4045,"required":4046,"cure":4047,"нство":4048,"парламента":4049,"Article":4050,"опро":4051,"стои":4052,"across":4053,"contribution":4054,"изцяло":4055,"adopt":4056,"вари":4057,"adoption":4058,"haps":4059,"vital":4060,"wa":4061,"extend":4062,"neighbour":4063,"voting":4064,"criteria":4065,"Разбира":4066,"PT":4067,"pite":4068,"sci":4069,"enable":4070,"изглежда":4071,"пазари":4072,"жизне":4073,"чки":4074,"пъти":4075,"hard":4076,"смър":4077,"воен":4078,"социалните":4079,"сми":4080,"deter":4081,"гар":4082,"traffic":4083,"рията":4084,"заетостта":4085,"Днес":4086,"преодо":4087,"past":4088,"тогава":4089,"лиз":4090,"members":4091,"strategic":4092,"immedi":4093,"плани":4094,"talking":4095,"Sw":4096,"прав":4097,"социална":4098,"След":4099,"agriculture":4100,"stud":4101,"съл":4102,"rule":4103,"пло":4104,"риболо":4105,"силно":4106,"случи":4107,"continu":4108,"affected":4109,"Agreement":4110,"ond":4111,"18":4112,"Med":4113,"cross":4114,"dit":4115,"orders":4116,"China":4117,"technolog":4118,"indeed":4119,"contra":4120,"training":4121,"meth":4122,"ived":4123,"представите":4124,"supply":4125,"ари":4126,"lied":4127,"iving":4128,"дейността":4129,"balance":4130,"around":4131,"позицията":4132,"consumer":4133,"stop":4134,"влия":4135,"предизвикателства":4136,"bi":4137,"private":4138,"професи":4139,"разно":4140,"времен":4141,"началото":4142,"убежище":4143,"ЕП":4144,"тна":4145,"plain":4146,"въпросът":4147,"lum":4148,"rup":4149,"ситуация":4150,"нашето":4151,"relating":4152,"засяга":4153,"quickly":4154,"ned":4155,"новата":4156,"приро":4157,"prepare":4158,"along":4159,"сан":4160,"възду":4161,"ground":4162,"Всички":4163,"compromise":4164,"чети":4165,"приемем":4166,"вътрешния":4167,"advant":4168,"cultural":4169,"последици":4170,"flu":4171,"ван":4172,"agenda":4173,"мерките":4174,"използване":4175,"organisations":4176,"40":4177,"thus":4178,"оти":4179,"воде":4180,"live":4181,"supported":4182,"coordination":4183,"зависимо":4184,"искат":4185,"preh":4186,"One":4187,"тор":4188,"опера":4189,"Can":4190,"въздействие":4191,"everyone":4192,"monitoring":4193,"души":4194,"Uk":4195,"рд":4196,"капита":4197,"листи":4198,"решението":4199,"ean":4200,"ot":4201,"отво":4202,"интереси":4203,"текста":4204,"въведе":4205,"practice":4206,"Ukra":4207,"Our":4208,"ator":4209,"cir":4210,"itious":4211,"coordin":4212,"adequ":4213,"tack":4214,"huge":4215,"anu":4216,"разпреде":4217,"знае":4218,"Може":4219,"implemented":4220,"contribute":4221,"UN":4222,"cord":4223,"dest":4224,"влиза":4225,"рка":4226,"назна":4227,"ins":4228,"щият":4229,"amendment":4230,"rist":4231,"Ирландия":4232,"системата":4233,"doub":4234,"кът":4235,"възполз":4236,"regards":4237,"единствено":4238,"Баро":4239,"децата":4240,"char":4241,"постоян":4242,"logy":4243,"provisions":4244,"sized":4245,"urgent":4246,"нуж":4247,"levels":4248,"дружества":4249,"sha":4250,"показва":4251,"факто":4252,"discussion":4253,"carried":4254,"дин":4255,"lling":4256,"вява":4257,"постигането":4258,"вероятно":4259,"Co":4260,"мня":4261,"разпро":4262,"вяме":4263,"икономическото":4264,"abled":4265,"заетост":4266,"More":4267,"renew":4268,"части":4269,"draft":4270,"ата":4271,"erb":4272,"indic":4273,"ценности":4274,"Christ":4275,"fall":4276,"опа":4277,"очевидно":4278,"отбеля":4279,"тивни":4280,"стана":4281,"ters":4282,"гласуването":4283,"демокрация":4284,"Благо":4285,"източници":4286,"mess":4287,"следващите":4288,"providing":4289,"offer":4290,"образи":4291,"makes":4292,"Първо":4293,"зия":4294,"outs":4295,"обили":4296,"тяване":4297,"reduction":4298,"спря":4299,"жде":4300,"сра":4301,"iting":4302,"резултати":4303,"refle":4304,"aspects":4305,"Ру":4306,"гани":4307,"вянето":4308,"Нека":4309,"основава":4310,"сериозни":4311,"механизъм":4312,"ambitious":4313,"простран":4314,"meet":4315,"добър":4316,"199":4317,"ристия":4318,"Благода":4319,"средото":4320,"ционни":4321,"прозрачност":4322,"греш":4323,"Nor":4324,"dist":4325,"чия":4326,"кому":4327,"elect":4328,"единените":4329,"bar":4330,"закри":4331,"възраст":4332,"принципите":4333,"express":4334,"natural":4335,"загри":4336,"lives":4337,"simpli":4338,"амбицио":4339,"май":4340,"обновя":4341,"pective":4342,"Второ":4343,"смятам":4344,"нено":4345,"подпи":4346,"effects":4347,"ом":4348,"unemployment":4349,"безработи":4350,"throughout":4351,"законодателството":4352,"visa":4353,"съсредото":4354,"представи":4355,"дя":4356,"сия":4357,"застра":4358,"service":4359,"corre":4360,"кратко":4361,"съде":4362,"приложи":4363,"eval":4364,"отговори":4365,"търговията":4366,"безопасността":4367,"Докладът":4368,"международната":4369,"colleag":4370,"Преди":4371,"стимули":4372,"около":4373,"манита":4374,"почти":4375,"circ":4376,"пря":4377,"little":4378,"Следва":4379,"големите":4380,"съгласие":4381,"milit":4382,"декла":4383,"conv":4384,"creating":4385,"solutions":4386,"facilit":4387,"координа":4388,"partners":4389,"надзор":4390,"задълбо":4391,"участва":4392,"Irel":4393,"four":4394,"2012":4395,"Develop":4396,"relev":4397,"Ireland":4398,"Mar":4399,"vol":4400,"Це":4401,"lot":4402,"вниманието":4403,"призовава":4404,"ledge":4405,"вания":4406,"затво":4407,"срещата":4408,"търговски":4409,"образование":4410,"dam":4411,"зирането":4412,"партньори":4413,"професиона":4414,"powers":4415,"week":4416,"Мисля":4417,"интеграция":4418,"Wor":4419,"офи":4420,"asy":4421,"compreh":4422,"defend":4423,"Ex":4424,"ясни":4425,"theless":4426,"cell":4427,"decid":4428,"budgetary":4429,"освобожда":4430,"sus":4431,"постигнат":4432,"Barro":4433,"разпоредби":4434,"II":4435,"дума":4436,"подгот":4437,"method":4438,"рели":4439,"макар":4440,"tees":4441,"нуждаем":4442,"младите":4443,"отхвър":4444,"гъвка":4445,"Bal":4446,"ulate":4447,"flex":4448,"All":4449,"Съгла":4450,"technical":4451,"Обе":4452,"мобили":4453,"тните":4454,"продукт":4455,"Isra":4456,"repe":4457,"community":4458,"национални":4459,"работниците":4460,"charge":4461,"might":4462,"заседание":4463,"населението":4464,"relig":4465,"раел":4466,"предостави":4467,"aring":4468,"мащаб":4469,"пове":4470,"посла":4471,"роб":4472,"търсе":4473,"waste":4474,"Африка":4475,"borders":4476,"процедура":4477,"Roma":4478,"yes":4479,"лице":4480,"precise":4481,"земно":4482,"интегри":4483,"When":4484,"NL":4485,"ibility":4486,"вота":4487,"опазването":4488,"nothing":4489,"зен":4490,"хуманита":4491,"mater":4492,"вземат":4493,"amount":4494,"Cz":4495,"Iran":4496,"big":4497,"table":4498,"дине":4499,"consul":4500,"suffer":4501,"kill":4502,"shall":4503,"grants":4504,"obvious":4505,"управ":4506,"refer":4507,"outh":4508,"тин":4509,"recovery":4510,"Secondly":4511,"dut":4512,"нашия":4513,"селските":4514,"партия":4515,"efficient":4516,"насилие":4517,"управлението":4518,"harmon":4519,"развиващите":4520,"basic":4521,"мат":4522,"explo":4523,"спло":4524,"дели":4525,"sug":4526,"производство":4527,"crats":4528,"канди":4529,"infrastructure":4530,"Czech":4531,"uine":4532,"вой":4533,"принос":4534,"междунаро":4535,"посока":4536,"продължим":4537,"treatment":4538,"tation":4539,"завър":4540,"prices":4541,"reports":4542,"Ap":4543,"предвижда":4544,"tru":4545,"насърчава":4546,"Affairs":4547,"AT":4548,"море":4549,"дейности":4550,"производството":4551,"reforms":4552,"until":4553,"langu":4554,"demonstr":4555,"шава":4556,"успех":4557,"strengthening":4558,"тер":4559,"потвър":4560,"работе":4561,"Development":4562,"освен":4563,"рения":4564,"зависи":4565,"съди":4566,"abil":4567,"следователно":4568,"месеца":4569,"bl":4570,"члена":4571,"export":4572,"media":4573,"програмата":4574,"трудно":4575,"sense":4576,"five":4577,"чете":4578,"мята":4579,"function":4580,"изгражда":4581,"Intern":4582,"involve":4583,"fishing":4584,"absolutely":4585,"ционна":4586,"speech":4587,"carry":4588,"initiatives":4589,"хиля":4590,"падъ":4591,"Further":4592,"становище":4593,"...":4594,"pati":4595,"death":4596,"лянето":4597,"justice":4598,"финансирането":4599,"promoting":4600,"баланси":4601,"wide":4602,"humanitarian":4603,"industrial":4604,"нъж":4605,"млн":4606,"SME":4607,"ires":4608,"Споразуме":4609,"International":4610,"But":4611,"био":4612,"основата":4613,"ics":4614,"изправени":4615,"средните":4616,"стопани":4617,"незаба":4618,"sectors":4619,"My":4620,"справя":4621,"ison":4622,"политическите":4623,"everything":4624,"network":4625,"категори":4626,"17":4627,"сва":4628,"стойност":4629,"правителството":4630,"отношенията":4631,"improving":4632,"relevant":4633,"деле":4634,"model":4635,"ranean":4636,"емисиите":4637,"Mediter":4638,"80":4639,"съкра":4640,"икономическите":4641,"aims":4642,"effectively":4643,"reached":4644,"обучение":4645,"liberal":4646,"Mediterranean":4647,"%.":4648,"tool":4649,"въздействието":4650,"справедливо":4651,"ризма":4652,"outside":4653,"mp":4654,"held":4655,"itional":4656,"гети":4657,"anti":4658,"докладът":4659,"assessment":4660,"ule":4661,"нара":4662,"отпадъ":4663,"Кога":4664,"pressure":4665,"засил":4666,"предотвра":4667,"Подкре":4668,"дават":4669,"правна":4670,"body":4671,"document":4672,"мет":4673,"лекар":4674,"доказа":4675,"acy":4676,"гарантират":4677,"европейското":4678,"ръковод":4679,"Or":4680,"Всъщност":4681,"жна":4682,"режим":4683,"tomor":4684,"разби":4685,"действително":4686,"Ukraine":4687,"Обедине":4688,"tomorrow":4689,"Украйна":4690,"запаз":4691,"съд":4692,"post":4693,"takes":4694,"tary":4695,"аспекти":4696,"надеж":4697,"conflict":4698,"asylum":4699,"60":4700,"him":4701,"шната":4702,"grat":4703,"опита":4704,"fisheries":4705,"associ":4706,"склю":4707,"neg":4708,"ментите":4709,"близо":4710,"mark":4711,"селското":4712,"hind":4713,"ческо":4714,"действител":4715,"openha":4716,"мъже":4717,"combat":4718,"Copenha":4719,"motion":4720,"времето":4721,"практики":4722,"пространство":4723,"Copenhagen":4724,"sco":4725,"Си":4726,"detail":4727,"циен":4728,"closed":4729,"established":4730,"Africa":4731,"Барозу":4732,"Barroso":4733,"bly":4734,"аб":4735,"ческата":4736,"пенха":4737,"included":4738,"Приветства":4739,"influ":4740,"ender":4741,"highlight":4742,"увеличаване":4743,"Копенха":4744,"measure":4745,"министър":4746,"съдеб":4747,"Копенхаген":4748,"дву":4749,"доби":4750,"обществото":4751,"експло":4752,"движение":4753,"отбеле":4754,"параграф":4755,"анали":4756,"лъж":4757,"credit":4758,"perhaps":4759,"миналата":4760,"официа":4761,"установя":4762,"второ":4763,"',":4764,"sat":4765,"енергети":4766,"принципи":4767,"safegu":4768,"capac":4769,"избори":4770,"етап":4771,"разпростра":4772,"спрямо":4773,"EL":4774,"цялост":4775,"differen":4776,"довол":4777,"вас":4778,"подобни":4779,"предприятията":4780,"банка":4781,"млрд":4782,"origin":4783,"100":4784,"Of":4785,"изсле":4786,"product":4787,"graph":4788,"military":4789,"Ве":4790,"зло":4791,"терна":4792,"developed":4793,"goods":4794,"тяхното":4795,"осигуряване":4796,"Hungarian":4797,"хармони":4798,"изисквания":4799,"пакет":4800,"13":4801,"понастоящем":4802,"суа":4803,"answer":4804,"плат":4805,"crime":4806,"предоставяне":4807,"combating":4808,"communication":4809,"координи":4810,"рита":4811,"спект":4812,"Furthermore":4813,"analy":4814,"прекра":4815,"unch":4816,"определено":4817,"namely":4818,"утре":4819,"заслу":4820,"тим":4821,"оръ":4822,"although":4823,"attack":4824,"Strate":4825,"Международ":4826,"приключи":4827,"Internet":4828,"чността":4829,"ension":4830,"отли":4831,"енергийна":4832,"passeng":4833,"Румъ":4834,"денти":4835,"calls":4836,"ангажимент":4837,"зад":4838,"Europeans":4839,"supporting":4840,"близ":4841,"отделните":4842,"bit":4843,"съста":4844,"cting":4845,"пациен":4846,"специ":4847,"помощта":4848,"149":4849,"Rule":4850,"Tod":4851,"бси":4852,"достъ":4853,"цялата":4854,"saying":4855,"competitive":4856,"допринесе":4857,"веднъж":4858,"Today":4859,"ug":4860,"ниво":4861,"Съще":4862,"стандарт":4863,"Един":4864,"възобновя":4865,"зата":4866,"нещата":4867,"преразгле":4868,"Когато":4869,"ствието":4870,"регула":4871,"Директивата":4872,"comprehensive":4873,"subsid":4874,"benefits":4875,"обхва":4876,"Now":4877,"altern":4878,"ilar":4879,"социалното":4880,"administrative":4881,"scient":4882,"акт":4883,"заради":4884,"сек":4885,"days":4886,"provides":4887,"sufficient":4888,"Стра":4889,"повто":4890,"помня":4891,"ared":4892,"estic":4893,"въвеждането":4894,"външна":4895,"готов":4896,"equality":4897,"ourselves":4898,"информи":4899,"remains":4900,"institutional":4901,"adequate":4902,"деклара":4903,"ring":4904,"almost":4905,"разработ":4906,"ждат":4907,"direction":4908,"MEP":4909,"HU":4910,"dan":4911,"isms":4912,"промяна":4913,"reality":4914,"movement":4915,"astern":4916,"AC":4917,"Amer":4918,"ying":4919,"небре":4920,"moder":4921,"related":4922,"asked":4923,"производители":4924,"SMEs":4925,"Americ":4926,"LT":4927,"either":4928,"яваме":4929,"possibility":4930,"regime":4931,"clud":4932,"конкуренция":4933,"седмица":4934,"Cent":4935,"rural":4936,"шни":4937,"ващи":4938,"дале":4939,"прекъ":4940,"вяне":4941,"постави":4942,"натиск":4943,"перспекти":4944,"satis":4945,"одобре":4946,"stage":4947,"субси":4948,"граници":4949,"requires":4950,"международните":4951,"лизацията":4952,"допълнителни":4953,"received":4954,"Democrats":4955,"Румъния":4956,"Смятам":4957,"adap":4958,"живота":4959,"regret":4960,"случва":4961,"наруше":4962,"determin":4963,"six":4964,"commer":4965,"настоящия":4966,"организация":4967,"последиците":4968,"Tra":4969,"remind":4970,"пани":4971,"ake":4972,"Зна":4973,"въгле":4974,"разде":4975,"такава":4976,"случая":4977,"Romania":4978,"алтерна":4979,"alloc":4980,"изклю":4981,"кралство":4982,"Севе":4983,"Hu":4984,"ненията":4985,"лизира":4986,"сим":4987,"brought":4988,"опазване":4989,"ption":4990,"рството":4991,"rely":4992,"ствена":4993,"формата":4994,"debt":4995,"attemp":4996,"price":4997,"начина":4998,"резултатите":4999,"happ":5000,"Благодаря":5001,"Bank":5002,"run":5003,"send":5004,"себе":5005,"съобраз":5006,"weak":5007,"reducing":5008,"обик":5009,"represents":5010,"рната":5011,"мост":5012,"печа":5013,"прилагат":5014,"територи":5015,"ционните":5016,"nature":5017,"Swed":5018,"water":5019,"война":5020,"created":5021,"seems":5022,"поздра":5023,"цена":5024,"боле":5025,"implementing":5026,"emphasise":5027,"test":5028,"храни":5029,"друг":5030,"институциона":5031,"институциите":5032,"message":5033,"Ге":5034,"есте":5035,"return":5036,"Съюз":5037,"banks":5038,"подпомагане":5039,"смърт":5040,"CO":5041,"подроб":5042,"submit":5043,"summit":5044,"applied":5045,"effort":5046,"correct":5047,"кция":5048,"съсед":5049,"жението":5050,"бежа":5051,"стоки":5052,"позволява":5053,"Sch":5054,"Thank":5055,"completely":5056,"Няма":5057,"смисъл":5058,"Обединеното":5059,"uge":5060,"tock":5061,"deleg":5062,"призи":5063,"statements":5064,"Що":5065,"ети":5066,"матери":5067,"ема":5068,"цените":5069,"унгар":5070,"вместо":5071,"чието":5072,"думата":5073,"worth":5074,"ложението":5075,"упраж":5076,"забравяме":5077,"circum":5078,"специфи":5079,"вният":5080,"шните":5081,"съобще":5082,"съгласува":5083,"видове":5084,"заключение":5085,"green":5086,"мври":5087,"enh":5088,"шест":5089,"следващата":5090,"steps":5091,"conclusion":5092,"конкурентоспособността":5093,"достъпа":5094,"чка":5095,"finally":5096,"трево":5097,"дадем":5098,"penal":5099,"обеща":5100,"ials":5101,"committee":5102,"took":5103,"decided":5104,"зацията":5105,"лив":5106,"excell":5107,"структури":5108,"recently":5109,"building":5110,"стреми":5111,"family":5112,"изследовател":5113,"Human":5114,"Cha":5115,"теже":5116,"щати":5117,"конча":5118,"здравето":5119,"commitments":5120,"увеличи":5121,"date":5122,"rat":5123,"ора":5124,"committed":5125,"sources":5126,"рва":5127,"орган":5128,"нуждае":5129,"caused":5130,"colleagues":5131,"bre":5132,"enge":5133,"terrorism":5134,"Serv":5135,"away":5136,"такова":5137,"валу":5138,"ket":5139,"acts":5140,"конвен":5141,"председателя":5142,"Ad":5143,"yond":5144,"хода":5145,"exer":5146,"насочени":5147,"challenge":5148,"селскостопанска":5149,"играе":5150,"ming":5151,"шния":5152,"economies":5153,"press":5154,"научни":5155,"Необходимо":5156,"targets":5157,"ТО":5158,"рус":5159,"бюро":5160,"ефективни":5161,"изпълнение":5162,"налице":5163,"range":5164,"500":5165,"гене":5166,"whose":5167,"Въпро":5168,"ception":5169,"Strategy":5170,"телен":5171,"рено":5172,"прека":5173,"cember":5174,"необходимите":5175,"provision":5176,"компро":5177,"съществуващите":5178,"December":5179,"йн":5180,"лагане":5181,"events":5182,"действията":5183,"statement":5184,"according":5185,"san":5186,"направят":5187,"пренебре":5188,"имам":5189,"процедури":5190,"facing":5191,"practices":5192,"bilities":5193,"декември":5194,"Гру":5195,"arus":5196,"portion":5197,"gets":5198,"конститу":5199,"доверие":5200,"повди":5201,"десет":5202,"Ash":5203,"Action":5204,"Pe":5205,"ties":5206,"риско":5207,"прия":5208,"ulg":5209,"sibilities":5210,"произве":5211,"инициативи":5212,"Belarus":5213,"Приветствам":5214,"item":5215,"ource":5216,"counter":5217,"specif":5218,"experience":5219,"sis":5220,"anish":5221,"зани":5222,"congrat":5223,"obtain":5224,"Convention":5225,"cle":5226,"Аш":5227,"чване":5228,"deep":5229,"Unfortunately":5230,"profes":5231,"сфе":5232,"shown":5233,"Съединените":5234,"гледа":5235,"голямата":5236,"стъпки":5237,"подобри":5238,"благоприят":5239,"ones":5240,"ления":5241,"immigration":5242,"тяхната":5243,"genuine":5244,"съвместно":5245,"Ha":5246,"dri":5247,"тън":5248,"остава":5249,"жертвите":5250,"sent":5251,"she":5252,"длъж":5253,"женията":5254,"ствените":5255,"migrants":5256,"closely":5257,"suggest":5258,"mut":5259,"лете":5260,"behind":5261,"стове":5262,"ished":5263,"въглеро":5264,"Just":5265,"лети":5266,"cover":5267,"ourable":5268,"giving":5269,"нти":5270,"сък":5271,"superv":5272,"оните":5273,"вено":5274,"voc":5275,"Ни":5276,"проя":5277,"agencies":5278,"mot":5279,"някога":5280,"призовавам":5281,"бюрокра":5282,"High":5283,"aking":5284,"ier":5285,"процен":5286,"политиките":5287,"introduction":5288,"могли":5289,"beyond":5290,"hood":5291,"ток":5292,"Важно":5293,"засегнати":5294,"famil":5295,"Port":5296,"ору":5297,"република":5298,"стват":5299,"left":5300,"местните":5301,"leading":5302,"Firstly":5303,"загриже":5304,"Offic":5305,"entions":5306,"избор":5307,"настоящото":5308,"engen":5309,"Договорът":5310,"образованието":5311,"ler":5312,"omic":5313,"интересите":5314,"difficulties":5315,"Moreover":5316,"Econ":5317,"израз":5318,"heard":5319,"unacceptable":5320,"пит":5321,"ангажира":5322,"служба":5323,"independent":5324,"запази":5325,"Schengen":5326,"cers":5327,"arily":5328,"чили":5329,"цени":5330,"кризи":5331,"неговите":5332,"оконча":5333,"ands":5334,"Бал":5335,"logical":5336,"ening":5337,"неотда":5338,"отне":5339,"regular":5340,"guide":5341,"receive":5342,"липсата":5343,"lar":5344,"spend":5345,"dem":5346,"credi":5347,"forms":5348,"процедурата":5349,"Bulg":5350,"лицата":5351,"служите":5352,"задача":5353,"жизнено":5354,"Israel":5355,"home":5356,"os":5357,"мар":5358,"trust":5359,"personal":5360,"%,":5361,"дните":5362,"свиде":5363,"roat":5364,"значението":5365,"minimum":5366,"Израел":5367,"мрежа":5368,"capacity":5369,"modern":5370,"вали":5371,"total":5372,"чета":5373,"изма":5374,"шени":5375,"съответните":5376,"fil":5377,"ак":5378,"via":5379,"disaster":5380,"периода":5381,"technologies":5382,"pi":5383,"основно":5384,"мандат":5385,"successful":5386,"широко":5387,"Ита":5388,"org":5389,"нататъ":5390,"имаше":5391,"plans":5392,"prepar":5393,"предложенията":5394,"повишаване":5395,"reject":5396,"заинтере":5397,"дома":5398,"tell":5399,"гарантиране":5400,"investig":5401,"сексуа":5402,"circumst":5403,"уни":5404,"необходима":5405,"operate":5406,"повечето":5407,"приемат":5408,"експе":5409,"activity":5410,"Regulation":5411,"съществуват":5412,"pursu":5413,"население":5414,"prepared":5415,"действителност":5416,"May":5417,"South":5418,"por":5419,"туга":5420,"правомощия":5421,"консулта":5422,"Am":5423,"Croat":5424,"мът":5425,"разбе":5426,"structural":5427,"иновации":5428,"16":5429,"световната":5430,"critic":5431,"иновациите":5432,"transparent":5433,"mechanisms":5434,"commercial":5435,"компромис":5436,"Fr":5437,"tabled":5438,"уме":5439,"itation":5440,"crete":5441,"документи":5442,"similar":5443,"обхват":5444,"doubt":5445,"proportion":5446,"une":5447,"социален":5448,"discuss":5449,"идеята":5450,"precisely":5451,"Economic":5452,"camp":5453,"gender":5454,"ost":5455,"рното":5456,"нека":5457,"thern":5458,"criminal":5459,"looking":5460,"safeguard":5461,"Иран":5462,"inking":5463,"leave":5464,"ърват":5465,"дискриминация":5466,"territor":5467,"нството":5468,"icial":5469,"солю":5470,"социалната":5471,"данните":5472,"внимателно":5473,"противоре":5474,"instead":5475,"burden":5476,"Last":5477,"task":5478,"ЕО":5479,"Ун":5480,"парти":5481,"loss":5482,"calling":5483,"design":5484,"technology":5485,"accordance":5486,"трансграни":5487,"обикнове":5488,"чените":5489,"concrete":5490,"exper":5491,"свободи":5492,"еврото":5493,"pension":5494,"MEPs":5495,"свет":5496,"producers":5497,"ефективна":5498,"представляват":5499,"автомоби":5500,"считаме":5501,"заинтересо":5502,"circumstances":5503,"видим":5504,"сат":5505,"четири":5506,"леви":5507,"язви":5508,"ристи":5509,"същевременно":5510,"delay":5511,"мерикан":5512,"riend":5513,"Вас":5514,"взаимо":5515,"компетент":5516,"международни":5517,"Споразумението":5518,"danger":5519,"En":5520,"кръ":5521,"наре":5522,"poor":5523,"град":5524,"ръща":5525,"uel":5526,"discussions":5527,"refuge":5528,"Program":5529,"scientific":5530,"уязви":5531,"forget":5532,"правовата":5533,"sels":5534,"despite":5535,"profession":5536,"forced":5537,"достой":5538,"exchange":5539,"presented":5540,"Италия":5541,"estern":5542,"rop":5543,"ars":5544,"ческия":5545,"предоставят":5546,"divers":5547,"representatives":5548,"разполагаме":5549,"Ashton":5550,"Аштън":5551,"мия":5552,"сят":5553,"remember":5554,"отчита":5555,"Party":5556,"започне":5557,"срав":5558,"Brit":5559,"dict":5560,"Ind":5561,"създава":5562,"критерии":5563,"alternative":5564,"Office":5565,"остро":5566,"установи":5567,"World":5568,"scope":5569,"квали":5570,"език":5571,"експлоата":5572,"rein":5573,"restrict":5574,"ons":5575,"лиде":5576,"промен":5577,"forces":5578,"event":5579,"отговорността":5580,"medic":5581,"независи":5582,"And":5583,"Do":5584,"ureau":5585,"външните":5586,"Spanish":5587,"lat":5588,"избира":5589,"газ":5590,"weeks":5591,"friend":5592,"бил":5593,"страда":5594,"discharge":5595,"основание":5596,"knowledge":5597,"получат":5598,"седмици":5599,"specifically":5600,"Ac":5601,"Pr":5602,"paid":5603,"inary":5604,"обстоя":5605,"ulner":5606,"енергийни":5607,"милиар":5608,"culture":5609,"construction":5610,"американ":5611,"univers":5612,"възнаме":5613,"конферен":5614,"establishing":5615,"доброто":5616,"спан":5617,"Ла":5618,"Пи":5619,"conside":5620,"condem":5621,"първонача":5622,"Бела":5623,"далеч":5624,"considered":5625,"flo":5626,"gency":5627,"vulner":5628,"МСП":5629,"одоб":5630,"seek":5631,"рмания":5632,"recommendations":5633,"Германия":5634,"съмнение":5635,"сектори":5636,"реаги":5637,"собствените":5638,"early":5639,"participation":5640,"пор":5641,"дире":5642,"пада":5643,"пътя":5644,"ограничения":5645,"приоритети":5646,"бележ":5647,"Partnership":5648,"абсолю":5649,"Фран":5650,"аспект":5651,"мна":5652,"моде":5653,"separ":5654,"Italy":5655,"prim":5656,"confidence":5657,"beginning":5658,"patients":5659,"Беларус":5660,"wise":5661,"зиск":5662,"стату":5663,"met":5664,"forest":5665,"legit":5666,"грижи":5667,"intended":5668,"мнозинство":5669,"negative":5670,"supervision":5671,"uations":5672,"itable":5673,"зер":5674,"улес":5675,"CA":5676,"East":5677,"Европей":5678,"лош":5679,"finance":5680,"Накрая":5681,"standard":5682,"annual":5683,"тради":5684,"мисле":5685,"cide":5686,"aper":5687,"Най":5688,"свободна":5689,"политическо":5690,"необходимост":5691,"Въз":5692,"последно":5693,"брита":5694,"thous":5695,"обрат":5696,"prison":5697,"съгласен":5698,"насят":5699,"discussed":5700,"strongly":5701,"присъединяване":5702,"achieving":5703,"parliamentary":5704,"Ор":5705,"нар":5706,"направе":5707,"никога":5708,"коп":5709,"анти":5710,"национално":5711,"терито":5712,"investments":5713,"докладчик":5714,"доверието":5715,"отри":5716,"моите":5717,"sex":5718,"hear":5719,"Парламент":5720,"serve":5721,"използваме":5722,"central":5723,"includes":5724,"properly":5725,"excellent":5726,"лният":5727,"капа":5728,"своето":5729,"extent":5730,"Be":5731,"Дър":5732,"обеди":5733,"Represent":5734,"Liby":5735,"дълг":5736,"разнообрази":5737,"eth":5738,"nam":5739,"atic":5740,"неприем":5741,"ченията":5742,"трябваше":5743,"distribut":5744,"органите":5745,"launch":5746,"bilateral":5747,"increasingly":5748,"presid":5749,"юк":5750,"обвър":5751,"extra":5752,"посочва":5753,"научно":5754,"обсъждаме":5755,"improved":5756,"status":5757,"мъжете":5758,"Ge":5759,"Ал":5760,"Среди":5761,"март":5762,"гнем":5763,"демон":5764,"изпълни":5765,"Средиземно":5766,"March":5767,"itors":5768,"вода":5769,"mobility":5770,"късно":5771,"scale":5772,"устано":5773,"declar":5774,"travel":5775,"matic":5776,"подчертава":5777,"Although":5778,"двустран":5779,"21":5780,"came":5781,"mass":5782,"oil":5783,"поиска":5784,"какъв":5785,"регламента":5786,"relationship":5787,"defence":5788,"minorities":5789,"лесно":5790,"overall":5791,"обяс":5792,"опрост":5793,"argu":5794,"чер":5795,"досега":5796,"transfer":5797,"произход":5798,"balanced":5799,"участието":5800,"Дру":5801,"модел":5802,"организира":5803,"минима":5804,"кажат":5805,"introduce":5806,"shows":5807,"администрати":5808,"Прави":5809,"People":5810,"приспособ":5811,"const":5812,"определя":5813,"higher":5814,"recognise":5815,"уважа":5816,"тероризма":5817,"ys":5818,"party":5819,"правителства":5820,"предприемат":5821,"оправ":5822,"преглед":5823,"raised":5824,"пътниците":5825,"Programme":5826,"Хърват":5827,"смята":5828,"thanks":5829,"контроли":5830,"bodies":5831,"decl":5832,"зирани":5833,"потреб":5834,"else":5835,"trafficking":5836,"координация":5837,"прекалено":5838,"Egy":5839,"Nations":5840,"dim":5841,"уби":5842,"уско":5843,"opposition":5844,"upon":5845,"Настоя":5846,"видя":5847,"history":5848,"средством":5849,"North":5850,"ium":5851,"тясно":5852,"animal":5853,"влияние":5854,"Market":5855,"юни":5856,"ash":5857,"mobil":5858,"usive":5859,"обсъждане":5860,"баланс":5861,"земеделските":5862,"Christian":5863,"гъвкаво":5864,"Croatia":5865,"EP":5866,"rise":5867,"Со":5868,"отразя":5869,"премина":5870,"работните":5871,"данък":5872,"малки":5873,"allowed":5874,"approved":5875,"June":5876,"dle":5877,"expressed":5878,"поеме":5879,"Тъ":5880,"рена":5881,"heart":5882,"кистан":5883,"exact":5884,"следствие":5885,"председателството":5886,"основен":5887,"added":5888,"миналото":5889,"risks":5890,"gain":5891,"посе":5892,"condu":5893,"върхо":5894,"дълбо":5895,"known":5896,"reduced":5897,"световен":5898,"гражданското":5899,"directly":5900,"conclusions":5901,"domestic":5902,"живеят":5903,"пряко":5904,"duty":5905,"кандидат":5906,"Тъй":5907,"sens":5908,"жни":5909,"заб":5910,"aria":5911,"високи":5912,"срок":5913,"speaker":5914,"емисии":5915,"взаимно":5916,"споделя":5917,"connection":5918,"Some":5919,"az":5920,"яването":5921,"наред":5922,"торите":5923,"инфраструктура":5924,"Франция":5925,"тали":5926,"кам":5927,"воля":5928,"проте":5929,"едва":5930,"spec":5931,"trying":5932,"laws":5933,"discussing":5934,"всяко":5935,"chool":5936,"ристиян":5937,"Държа":5938,"Хърватия":5939,"treaty":5940,"зите":5941,"посредством":5942,"лек":5943,"сигна":5944,"employed":5945,"колегите":5946,"experien":5947,"renewable":5948,"Representative":5949,"Aud":5950,"eg":5951,"ъка":5952,"ланти":5953,"подкрепим":5954,"Унгария":5955,"reli":5956,"замър":5957,"види":5958,"2004":5959,"правосъди":5960,"growing":5961,"вземане":5962,"istics":5963,"language":5964,"How":5965,"Serb":5966,"Шен":5967,"обмен":5968,"изказ":5969,"ляване":5970,"2005":5971,"единния":5972,"ОСП":5973,"Indeed":5974,"подкрепят":5975,"perman":5976,"последовател":5977,"насилието":5978,"integrated":5979,"ruption":5980,"санкции":5981,"управлява":5982,"Шенген":5983,"CS":5984,"cks":5985,"ефика":5986,"unfortunately":5987,"нараства":5988,"cat":5989,"wr":5990,"недостатъ":5991,"размер":5992,"antic":5993,"labe":5994,"families":5995,"Оба":5996,"Свето":5997,"ческото":5998,"прину":5999,"мислим":6000,"лизация":6001,"подкрепяме":6002,"spir":6003,"complex":6004,"общности":6005,"поко":6006,"забо":6007,"мярка":6008,"възможностите":6009,"предприеме":6010,"сово":6011,"спеку":6012,"заседанието":6013,"рибарството":6014,"damage":6015,"послание":6016,"Central":6017,"Trade":6018,"Sa":6019,"обра":6020,"illions":6021,"geo":6022,"ously":6023,"пазарите":6024,"казано":6025,"пъту":6026,"намали":6027,"limit":6028,"Germany":6029,"представители":6030,"безработицата":6031,"справяне":6032,"Egypt":6033,"зация":6034,"secure":6035,"гипет":6036,"върха":6037,"plause":6038,"super":6039,"perspective":6040,"активно":6041,"включени":6042,"vereign":6043,"guidelines":6044,"rus":6045,"school":6046,"следване":6047,"wrong":6048,"cand":6049,"поя":6050,"неот":6051,"ori":6052,"entry":6053,"stri":6054,"гор":6055,"defic":6056,"note":6057,"saving":6058,"продължение":6059,"wanted":6060,"данъко":6061,"подходящи":6062,"производителите":6063,"constitution":6064,"Ob":6065,"aut":6066,"Тре":6067,"силна":6068,"телните":6069,"France":6070,"Jap":6071,"испан":6072,"задово":6073,"макси":6074,"sovereign":6075,"тирането":6076,"надяваме":6077,"продължават":6078,"религи":6079,"незабавно":6080,"Japan":6081,"Eastern":6082,"cri":6083,"мир":6084,"ляска":6085,"fered":6086,"manner":6087,"искане":6088,"Mrs":6089,"nergy":6090,"Регламен":6091,"документ":6092,"наблюдение":6093,"рей":6094,"правни":6095,"кува":6096,"mandate":6097,"гео":6098,"linked":6099,"Gener":6100,"mic":6101,"ov":6102,"spo":6103,"Бъл":6104,"alone":6105,"възник":6106,"inding":6107,"пусти":6108,"строги":6109,"vulnerable":6110,"23":6111,"ially":6112,"ЕФ":6113,"ави":6114,"сх":6115,"задължения":6116,"seriously":6117,"равенството":6118,"histor":6119,"target":6120,"пациентите":6121,"поздравя":6122,"пти":6123,"referen":6124,"кору":6125,"изрази":6126,"проекта":6127,"taxpay":6128,"Разиск":6129,"ляскания":6130,"засили":6131,"газо":6132,"produce":6133,"popul":6134,"passengers":6135,"раните":6136,"важните":6137,"правителствата":6138,"въвеждане":6139,"establishment":6140,"осъществя":6141,"placed":6142,"advantage":6143,"bureau":6144,"ени":6145,"ened":6146,"заба":6147,"arter":6148,"телна":6149,"цяла":6150,"raph":6151,"setting":6152,"leader":6153,"декват":6154,"истори":6155,"хиляди":6156,"24":6157,"нада":6158,"orm":6159,"tour":6160,"deli":6161,"iddle":6162,"goes":6163,"важност":6164,"rapid":6165,"consideration":6166,"решаващо":6167,"convin":6168,"cast":6169,"Отно":6170,"ванията":6171,"тема":6172,"залата":6173,"дефици":6174,"горе":6175,"company":6176,"елементи":6177,"стабилността":6178,"guarantees":6179,"Какво":6180,"знаете":6181,"SK":6182,"hic":6183,"agraph":6184,"инвестициите":6185,"услугите":6186,"limited":6187,"комуника":6188,"България":6189,"Ръ":6190,"вки":6191,"ствите":6192,"лизиране":6193,"decide":6194,"prevention":6195,"делега":6196,"капаците":6197,"Ir":6198,"регионите":6199,"осигурява":6200,"равнището":6201,"corpor":6202,"Подкрепя":6203,"influence":6204,"Georg":6205,"моя":6206,"гради":6207,"еднак":6208,"конкуренцията":6209,"качество":6210,"rates":6211,"адекват":6212,"желе":6213,"healthcare":6214,"conclude":6215,"announ":6216,"укрепване":6217,"religious":6218,"lantic":6219,"ясна":6220,"палата":6221,"consolid":6222,"goal":6223,"участват":6224,"Janu":6225,"Western":6226,"enforce":6227,"мисли":6228,"местно":6229,"изискванията":6230,"механизми":6231,"January":6232,"DP":6233,"Европейските":6234,"disput":6235,"шат":6236,"learn":6237,"elements":6238,"closer":6239,"решаване":6240,"броя":6241,"occur":6242,"характер":6243,"Organ":6244,"differences":6245,"нена":6246,"vehic":6247,"дена":6248,"бихме":6249,"developments":6250,"practical":6251,"documents":6252,"Auditors":6253,"Ne":6254,"jour":6255,"ze":6256,"яну":6257,"зират":6258,"предим":6259,"animals":6260,"Целта":6261,"Bulgaria":6262,"Since":6263,"кло":6264,"пълна":6265,"critical":6266,"introduced":6267,"protecting":6268,"Hungary":6269,"Северна":6270,"януари":6271,"gives":6272,"poses":6273,"faced":6274,"външната":6275,"expression":6276,"purpose":6277,"разпоредбите":6278,"дългосрочен":6279,"independence":6280,"сравнение":6281,"бизне":6282,"дис":6283,"poll":6284,"situations":6285,"нямат":6286,"насърчи":6287,"инициативата":6288,"окаже":6289,"решите":6290,"iture":6291,"обръща":6292,"предназна":6293,"expend":6294,"elim":6295,"животните":6296,"останалите":6297,"отпадъци":6298,"Service":6299,"candid":6300,"Vice":6301,"ai":6302,"отра":6303,"sets":6304,"намери":6305,"публичните":6306,"разгледаме":6307,"tackle":6308,"Pal":6309,"Tun":6310,"vest":6311,"stake":6312,"type":6313,"Sea":6314,"заяви":6315,"фактът":6316,"Испа":6317,"замест":6318,"ultim":6319,"инду":6320,"слабо":6321,"конфликт":6322,"CO2":6323,"sanctions":6324,"congratulate":6325,"Испания":6326,"Pak":6327,"UK":6328,"binding":6329,"lay":6330,"ufact":6331,"Пор":6332,"референ":6333,"същия":6334,"дипло":6335,"dep":6336,"manufact":6337,"ствен":6338,"Пол":6339,"структурните":6340,"succeed":6341,"Pakistan":6342,"Lat":6343,"ждение":6344,"иденти":6345,"надле":6346,"ефективността":6347,"pointed":6348,"facilitate":6349,"общите":6350,"adver":6351,"констру":6352,"ктове":6353,"ландия":6354,"Security":6355,"известно":6356,"immediate":6357,"категорично":6358,"рг":6359,"чест":6360,"клау":6361,"първата":6362,"международното":6363,"session":6364,"functioning":6365,"териториа":6366,"отрица":6367,"bloc":6368,"house":6369,"кани":6370,"тисти":6371,"proceed":6372,"гласуваме":6373,"обхвата":6374,"присъединяването":6375,"CAP":6376,"ds":6377,"ЕИ":6378,"учили":6379,"напредъка":6380,"persons":6381,"Agency":6382,"Applause":6383,"енергетиката":6384,"копляскания":6385,"Ръкопляскания":6386,"вените":6387,"мостта":6388,"plom":6389,"постигнато":6390,"използвани":6391,"ратифици":6392,"sche":6393,"inclusion":6394,"ориен":6395,"жертви":6396,"obligations":6397,"земеделски":6398,"fis":6399,"Вре":6400,"зала":6401,"същите":6402,"тича":6403,"excess":6404,"компани":6405,"leaders":6406,"степенно":6407,"събития":6408,"involvement":6409,"занима":6410,"Mon":6411,"Tr":6412,"gl":6413,"vision":6414,"лести":6415,"propose":6416,"conclud":6417,"бив":6418,"managed":6419,"intel":6420,"fied":6421,"fraud":6422,"нуждаят":6423,"dealing":6424,"разбере":6425,"conference":6426,"ides":6427,"венцията":6428,"бяг":6429,"paragraph":6430,"payments":6431,"failure":6432,"регулиране":6433,"влизането":6434,"кни":6435,"нците":6436,"удо":6437,"шна":6438,"citizen":6439,"осигурим":6440,"прозрачността":6441,"заплаха":6442,"Само":6443,"Spain":6444,"suffering":6445,"алтернати":6446,"70":6447,"бло":6448,"goals":6449,"дневния":6450,"включват":6451,"бедствия":6452,"Тук":6453,"предоставянето":6454,"Госпо":6455,"обстоятелства":6456,"EG":6457,"Sing":6458,"негово":6459,"допусти":6460,"rail":6461,"вяр":6462,"diplom":6463,"процедурите":6464,"Irish":6465,"na":6466,"ромите":6467,"леги":6468,"explain":6469,"задължите":6470,"promotion":6471,"обществени":6472,"премахване":6473,"Slo":6474,"чество":6475,"join":6476,"organised":6477,"consistent":6478,"expenditure":6479,"rating":6480,"норма":6481,"коми":6482,"raise":6483,"контекста":6484,"друго":6485,"свобод":6486,"regulatory":6487,"thousands":6488,"данъкоплат":6489,"ked":6490,"пцията":6491,"спре":6492,"кове":6493,"aries":6494,"stim":6495,"изле":6496,"бъдещите":6497,"съмнено":6498,"фал":6499,"бедните":6500,"ангажименти":6501,"регионално":6502,"значителни":6503,"опасе":6504,"Въпросът":6505,"Justice":6506,"Brus":6507,"wants":6508,"income":6509,"редо":6510,"positions":6511,"acknow":6512,"useful":6513,"посочи":6514,"definite":6515,"помогнем":6516,"електрон":6517,"mutual":6518,"Palest":6519,"Brussels":6520,"):":6521,"G20":6522,"nic":6523,"ream":6524,"копа":6525,"asking":6526,"приложе":6527,"била":6528,"accep":6529,"множе":6530,"формули":6531,"content":6532,"изключите":6533,"structures":6534,"improvement":6535,"електроцентра":6536,"truly":6537,"Tunis":6538,"bad":6539,"Зеле":6540,"рюк":6541,"увре":6542,"коли":6543,"доха":6544,"aging":6545,"highly":6546,"получават":6547,"opening":6548,"вътрешен":6549,"растежа":6550,"rapporteurs":6551,"ситуацията":6552,"communities":6553,"универ":6554,"Португа":6555,"zone":6556,"емите":6557,"consen":6558,"остане":6559,"продължат":6560,"повиши":6561,"престъпления":6562,"Chamber":6563,"Pact":6564,"новия":6565,"enjo":6566,"чаваме":6567,"appoint":6568,"трудо":6569,"ефективен":6570,"решенията":6571,"допълнително":6572,"happened":6573,"Balk":6574,"fiscal":6575,"рюксел":6576,"ужа":6577,"erve":6578,"изо":6579,"телите":6580,"acqu":6581,"смени":6582,"човек":6583,"equip":6584,"Canad":6585,"permanent":6586,"ahead":6587,"hol":6588,"oso":6589,"path":6590,"inc":6591,"позна":6592,"кови":6593,"prob":6594,"concent":6595,"Либия":6596,"dio":6597,"научните":6598,"кредити":6599,"фалши":6600,"90":6601,"реформа":6602,"отпуска":6603,"дължи":6604,"вентуа":6605,"приет":6606,"ubl":6607,"views":6608,"Призова":6609,"Програ":6610,"предизвикателство":6611,"coordinated":6612,"постоянно":6613,"акцен":6614,"PE":6615,"erous":6616,"icy":6617,"жаването":6618,"urs":6619,"Без":6620,"demands":6621,"immediately":6622,"абсолютно":6623,"General":6624,"Single":6625,"mac":6626,"Брюксел":6627,"гли":6628,"лива":6629,"листите":6630,"vember":6631,"предвари":6632,"провежда":6633,"November":6634,"exactly":6635,"рените":6636,"визо":6637,"шаването":6638,"speed":6639,"parts":6640,"сенсу":6641,"freedoms":6642,"failed":6643,"потенциал":6644,"Египет":6645,"осе":6646,"uni":6647,"partner":6648,"bank":6649,"SV":6650,"TA":6651,"aign":6652,"Именно":6653,"ато":6654,"thinking":6655,"ноември":6656,"жили":6657,"acter":6658,"legally":6659,"икономическия":6660,"средни":6661,"защитава":6662,"употреба":6663,"refugees":6664,"максима":6665,"ped":6666,"зно":6667,"оку":6668,"ливи":6669,"willing":6670,"stric":6671,"Stability":6672,"comply":6673,"compliance":6674,"aff":6675,"неговата":6676,"извършва":6677,"minority":6678,"Swedish":6679,"експлоатация":6680,"Световната":6681,"Trans":6682,"EI":6683,"понякога":6684,"дем":6685,"микро":6686,"прите":6687,"лова":6688,"urge":6689,"Libya":6690,"евентуа":6691,"нав":6692,"съсе":6693,"chance":6694,"целе":6695,"икономики":6696,"reading":6697,"ктуа":6698,"потребители":6699,"допълнение":6700,"наблюдава":6701,"evaluation":6702,"телство":6703,"pread":6704,"представя":6705,"plants":6706,"вземем":6707,"German":6708,"нарушения":6709,"Сър":6710,"тени":6711,"сии":6712,"lost":6713,"Комисия":6714,"ствената":6715,"Полша":6716,"Many":6717,"Sy":6718,"ер":6719,"падна":6720,"консенсу":6721,"добрите":6722,"струва":6723,"responsibilities":6724,"ресурсите":6725,"протоколи":6726,"създадем":6727,"easy":6728,"характери":6729,"character":6730,"прекъсна":6731,"Португалия":6732,"блъ":6733,"ясен":6734,"никакви":6735,"дио":6736,"спомо":6737,"фик":6738,"voice":6739,"тирани":6740,"внася":6741,"elected":6742,"recognition":6743,"iversity":6744,"campaign":6745,"territorial":6746,"Fore":6747,"изтък":6748,"exception":6749,"outcome":6750,"asters":6751,"начини":6752,"провер":6753,"authority":6754,"истински":6755,"пенсион":6756,"constructive":6757,"External":6758,"предотвратяване":6759,"sexual":6760,"Подкрепям":6761,"Writ":6762,"ease":6763,"лм":6764,"becoming":6765,"значи":6766,"лника":6767,"насоки":6768,"After":6769,"животни":6770,"положително":6771,"Prime":6772,"железо":6773,"consensus":6774,"mal":6775,"задържа":6776,"риб":6777,"превръща":6778,"dead":6779,"границите":6780,"бюджетни":6781,"законодате":6782,"continues":6783,"Afgh":6784,"начало":6785,"намаляването":6786,"lands":6787,"неговото":6788,"Written":6789,"flow":6790,"Шве":6791,"remo":6792,"бюджети":6793,"helping":6794,"corruption":6795,"промишлеността":6796,"спазват":6797,"изявления":6798,"партии":6799,"Сърбия":6800,"Ladies":6801,"ражда":6802,"transactions":6803,"factor":6804,"custo":6805,"intervention":6806,"стратегически":6807,"Policy":6808,"изборите":6809,"предотврати":6810,"продуктите":6811,"дия":6812,"нг":6813,"severe":6814,"politic":6815,"resolve":6816,"разширяване":6817,"Poland":6818,"sensitive":6819,"комента":6820,"лично":6821,"disasters":6822,"стъпи":6823,"budgets":6824,"surance":6825,"crimes":6826,"успешно":6827,"Belg":6828,"granted":6829,"flexibility":6830,"пренебрег":6831,"Foreign":6832,"hous":6833,"вло":6834,"тю":6835,"наясно":6836,"режи":6837,"stated":6838,"контекст":6839,"средно":6840,"народна":6841,"законодателни":6842,"carbon":6843,"външни":6844,"десети":6845,"фактор":6846,"засилване":6847,"Съюзът":6848,"Haiti":6849,"научноизследовател":6850,"фгани":6851,"нал":6852,"onia":6853,"near":6854,"plant":6855,"continuing":6856,"ръководите":6857,"ugal":6858,"later":6859,"sto":6860,"pression":6861,"елемент":6862,"глобализацията":6863,"causes":6864,"innovative":6865,"Portugal":6866,"Mal":6867,"внаш":6868,"риска":6869,"cohe":6870,"vig":6871,"основна":6872,"putting":6873,"месец":6874,"barri":6875,"Amend":6876,"оправда":6877,"Organisation":6878,"Госпожи":6879,"показват":6880,"зат":6881,"tocol":6882,"чеството":6883,"трябвало":6884,"пис":6885,"expected":6886,"Някои":6887,"administration":6888,"Energy":6889,"incent":6890,"enary":6891,"изпит":6892,"ряват":6893,"trary":6894,"знаят":6895,"lled":6896,"влетво":6897,"намеса":6898,"търговска":6899,"международно":6900,"methods":6901,"заслужава":6902,"spirit":6903,"гръ":6904,"яс":6905,"кори":6906,"карта":6907,"curren":6908,"строите":6909,"organisation":6910,"choice":6911,"recognised":6912,"липса":6913,"shared":6914,"Accord":6915,"convinced":6916,"skill":6917,"статисти":6918,"thereby":6919,"информацията":6920,"interpre":6921,"половете":6922,"holders":6923,"загриженост":6924,"фганистан":6925,"тски":6926,"ush":6927,"exclu":6928,"ired":6929,"изискват":6930,"stronger":6931,"агенция":6932,"функционирането":6933,"Писмени":6934,"Afghan":6935,"fare":6936,"тари":6937,"Пакистан":6938,"планове":6939,"определи":6940,"твърдо":6941,"бедност":6942,"конкурентоспособност":6943,"етике":6944,"constant":6945,"Разискването":6946,"Lith":6947,"ВП":6948,"жават":6949,"приета":6950,"former":6951,"приемане":6952,"signed":6953,"bringing":6954,"Alliance":6955,"Serbia":6956,"probably":6957,"Lithu":6958,"ude":6959,"затру":6960,"рие":6961,"While":6962,"tests":6963,"Съгласен":6964,"liberalisation":6965,"analysis":6966,"конструкти":6967,"rid":6968,"source":6969,"помни":6970,"обви":6971,"скъ":6972,"телното":6973,"spect":6974,"numerous":6975,"22":6976,"bri":6977,"тията":6978,"чеш":6979,"четвър":6980,"преце":6981,"привле":6982,"ordinary":6983,"overcome":6984,"политическата":6985,"международна":6986,"надежда":6987,"зачитане":6988,"FI":6989,"hit":6990,"наложи":6991,"направени":6992,"прехвър":6993,"whom":6994,"предстоя":6995,"obst":6996,"signal":6997,"ситуации":6998,"очакваме":6999,"рейтин":7000,"затрудне":7001,"sw":7002,"ада":7003,"дадат":7004,"enorm":7005,"union":7006,"terday":7007,"фиска":7008,"sometimes":7009,"помогнат":7010,"payment":7011,"spent":7012,"идея":7013,"никакъв":7014,"obviously":7015,"Органи":7016,"излезе":7017,"Oc":7018,"ити":7019,"плена":7020,"ментът":7021,"доклади":7022,"compens":7023,"Ста":7024,"рад":7025,"несо":7026,"кара":7027,"concept":7028,"правно":7029,"feed":7030,"African":7031,"закрила":7032,"освобождаване":7033,"биологи":7034,"преразглеждане":7035,"Грузия":7036,"spending":7037,"противоречи":7038,"възнамерява":7039,"еже":7040,"осве":7041,"век":7042,"изказва":7043,"разкри":7044,"lower":7045,"fulfil":7046,"гаранции":7047,"влезе":7048,"свързан":7049,"насърчаването":7050,"изготвянето":7051,"наказание":7052,"отбеляза":7053,"simplif":7054,"happy":7055,"Georgia":7056,"дра":7057,"оказва":7058,"унищо":7059,"проме":7060,"продовол":7061,"comments":7062,"plenary":7063,"preci":7064,"определят":7065,"element":7066,"сериозен":7067,"открито":7068,"effectiveness":7069,"тежест":7070,"лошо":7071,"obstac":7072,"актове":7073,"пите":7074,"got":7075,"max":7076,"votes":7077,"условие":7078,"membership":7079,"sustainability":7080,"готови":7081,"възстановяването":7082,"happening":7083,"Хаити":7084,"свидетели":7085,"разнообразие":7086,"Държавите":7087,"fuel":7088,"НА":7089,"веще":7090,"допуска":7091,"гата":7092,"държавните":7093,"проблемът":7094,"Република":7095,"дружествата":7096,"Дей":7097,"обхваща":7098,"professional":7099,"Цен":7100,"react":7101,"защите":7102,"ours":7103,"конта":7104,"трудности":7105,"Turk":7106,"извънред":7107,"substant":7108,"неотло":7109,"заместник":7110,"осведо":7111,"26":7112,"OL":7113,"sound":7114,"вти":7115,"staff":7116,"rench":7117,"mainly":7118,"informed":7119,"starting":7120,"религио":7121,"AS":7122,"By":7123,"Га":7124,"Фи":7125,"Япо":7126,"етни":7127,"чването":7128,"advoc":7129,"определяне":7130,"rightly":7131,"желае":7132,"огромни":7133,"обърна":7134,"British":7135,"НАТО":7136,"Never":7137,"pun":7138,"Бо":7139,"Осно":7140,"мнението":7141,"тния":7142,"швед":7143,"темата":7144,"носа":7145,"чера":7146,"договори":7147,"tex":7148,"marks":7149,"accounts":7150,"territory":7151,"възползват":7152,"замърся":7153,"won":7154,"справим":7155,"inf":7156,"тон":7157,"носи":7158,"препят":7159,"bear":7160,"преду":7161,"ложат":7162,"чака":7163,"Third":7164,"dow":7165,"speaking":7166,"protected":7167,"връзки":7168,"точки":7169,"присъства":7170,"гер":7171,"excessive":7172,"удовлетво":7173,"нации":7174,"последва":7175,"избра":7176,"разчита":7177,"preced":7178,"ходите":7179,"standing":7180,"измененията":7181,"Предвид":7182,"култура":7183,"буд":7184,"fighting":7185,"равенство":7186,"улесни":7187,"спекула":7188,"Kore":7189,"ping":7190,"uct":7191,"лина":7192,"слуша":7193,"плащания":7194,"understanding":7195,"conflicts":7196,"становището":7197,"taxpayers":7198,"According":7199,"ood":7200,"round":7201,"дения":7202,"ilateral":7203,"imports":7204,"2014":7205,"безпо":7206,"споразуменията":7207,"resolutions":7208,"намерим":7209,"Charter":7210,"значителен":7211,"мрежи":7212,"сигнал":7213,"консенсус":7214,"адап":7215,"Япония":7216,"направя":7217,"даване":7218,"попу":7219,"предстои":7220,"гласувам":7221,"тенден":7222,"демократите":7223,"съгласни":7224,"settle":7225,"considerable":7226,"ядрената":7227,"ethnic":7228,"вин":7229,"предприети":7230,"ideas":7231,"greatest":7232,"firstly":7233,"доброво":7234,"устойчив":7235,"включи":7236,"изпраща":7237,"президента":7238,"AL":7239,"положи":7240,"мое":7241,"ports":7242,"въздържа":7243,"казах":7244,"програмите":7245,"welfare":7246,"бург":7247,"dimension":7248,"PPE":7249,"inian":7250,"record":7251,"itude":7252,"преко":7253,"contrary":7254,"ury":7255,"изток":7256,"плащане":7257,"селскостопански":7258,"sides":7259,"Green":7260,"ken":7261,"outhern":7262,"парите":7263,"police":7264,"финансов":7265,"ефект":7266,"consumption":7267,"обществените":7268,"strategies":7269,"NAT":7270,"Sum":7271,"temp":7272,"Смет":7273,"мните":7274,"окто":7275,"оказа":7276,"сблъ":7277,"никой":7278,"отбра":7279,"Why":7280,"способността":7281,"planning":7282,"дискриминацията":7283,"exploitation":7284,"субсиди":7285,"enjoy":7286,"NATO":7287,"Bud":7288,"ER":7289,"Ар":7290,"напомня":7291,"резер":7292,"коре":7293,"лявам":7294,"ждава":7295,"directives":7296,"buildings":7297,"власт":7298,"elimin":7299,"октомври":7300,"поу":7301,"tober":7302,"тици":7303,"свободно":7304,"свързана":7305,"Макар":7306,"действаме":7307,"подходящо":7308,"significantly":7309,"Canada":7310,"October":7311,"eco":7312,"йте":7313,"itime":7314,"abol":7315,"сигурни":7316,"anything":7317,"Канада":7318,"радио":7319,"собствени":7320,"активи":7321,"contains":7322,"закона":7323,"краткосро":7324,"credibility":7325,"Европейска":7326,"гъвкавост":7327,"Програмата":7328,"bed":7329,"ур":7330,"eder":7331,"макро":7332,"мину":7333,"deg":7334,"катастро":7335,"certainty":7336,"occas":7337,"addressed":7338,"технически":7339,"study":7340,"операции":7341,"железопът":7342,"Сметната":7343,"Des":7344,"entially":7345,"ilst":7346,"unable":7347,"option":7348,"supports":7349,"различия":7350,"resolved":7351,"причините":7352,"желание":7353,"приоритетите":7354,"Туни":7355,"simple":7356,"изграждането":7357,"отнема":7358,"ls":7359,"тинен":7360,"forth":7361,"самите":7362,"шена":7363,"tection":7364,"питам":7365,"известна":7366,"превърне":7367,"чиято":7368,"Nevertheless":7369,"Fra":7370,"French":7371,"rich":7372,"апри":7373,"ирланд":7374,"thought":7375,"oud":7376,"тие":7377,"суве":7378,"основната":7379,"шават":7380,"Защо":7381,"здравни":7382,"свързано":7383,"capable":7384,"културата":7385,"подходящ":7386,"нейните":7387,"критериите":7388,"анализ":7389,"barriers":7390,"Организацията":7391,"28":7392,"31":7393,"Global":7394,"печат":7395,"единен":7396,"потребле":7397,"collective":7398,"твор":7399,"електри":7400,"обърне":7401,"конфликти":7402,"Even":7403,"Ду":7404,"мира":7405,"избяг":7406,"станат":7407,"купу":7408,"rug":7409,"премахването":7410,"заявя":7411,"appeal":7412,"функционира":7413,"четене":7414,"submitted":7415,"deliver":7416,"ultimately":7417,"Тунис":7418,"tions":7419,"даваме":7420,"рието":7421,"commission":7422,"вярно":7423,"континен":7424,"членът":7425,"ръка":7426,"changed":7427,"engage":7428,"drawn":7429,"identify":7430,"Russian":7431,"поръчки":7432,"affect":7433,"зачитането":7434,"tourism":7435,"Summit":7436,"вследствие":7437,"трите":7438,"stead":7439,"обору":7440,"зона":7441,"typ":7442,"election":7443,"дадена":7444,"храна":7445,"Следващата":7446,"КТ":7447,"съвър":7448,"pros":7449,"следи":7450,"борим":7451,"Гласуването":7452,"подписа":7453,"Правилника":7454,"GDP":7455,"cup":7456,"обли":7457,"предполага":7458,"complain":7459,"estim":7460,"фикация":7461,"easier":7462,"honourable":7463,"fill":7464,"rs":7465,"съобра":7466,"observ":7467,"Запад":7468,"продължите":7469,"измерение":7470,"Имам":7471,"Имаме":7472,"месеци":7473,"ризъм":7474,"definitely":7475,"currency":7476,"Apr":7477,"reference":7478,"ancing":7479,"таря":7480,"реш":7481,"отправя":7482,"stable":7483,"lob":7484,"чак":7485,"urally":7486,"суро":7487,"odiversity":7488,"adopting":7489,"negotiating":7490,"данъци":7491,"revision":7492,"condemn":7493,"британ":7494,"macro":7495,"април":7496,"April":7497,"oration":7498,"vered":7499,"облек":7500,"worked":7501,"Поли":7502,"взети":7503,"дателят":7504,"съвме":7505,"Given":7506,"div":7507,"ib":7508,"nual":7509,"лиген":7510,"облагане":7511,"предпаз":7512,"търпе":7513,"produced":7514,"boost":7515,"бях":7516,"surve":7517,"истинска":7518,"отговарят":7519,"exercise":7520,"сдел":7521,"напра":7522,"rep":7523,"abstain":7524,"getting":7525,"buds":7526,"институция":7527,"official":7528,"networks":7529,"attacks":7530,"милиарда":7531,"отразява":7532,"будс":7533,"prosper":7534,"75":7535,"Ти":7536,"пръ":7537,"щията":7538,"тора":7539,"isive":7540,"undred":7541,"Invest":7542,"едино":7543,"disease":7544,"ползи":7545,"самото":7546,"transition":7547,"bru":7548,"увеличава":7549,"структура":7550,"requirement":7551,"банките":7552,"участници":7553,"ront":7554,"enormous":7555,"ira":7556,"ПГ":7557,"току":7558,"интелиген":7559,"помощи":7560,"Предложението":7561,"енергийните":7562,"Greek":7563,"Вече":7564,"Koso":7565,"Ну":7566,"enabl":7567,"силен":7568,"допус":7569,"лоя":7570,"чии":7571,"Косово":7572,"ending":7573,"Позво":7574,"complic":7575,"контрола":7576,"encouraging":7577,"obligation":7578,"медиите":7579,"Същевременно":7580,"referendu":7581,"pill":7582,"phas":7583,"sal":7584,"оке":7585,"lect":7586,"ляването":7587,"Например":7588,"първи":7589,"остават":7590,"идеи":7591,"insist":7592,"associated":7593,"печал":7594,"vehicles":7595,"Middle":7596,"хва":7597,"immigrants":7598,"oples":7599,"que":7600,"спече":7601,"Независимо":7602,"разлика":7603,"board":7604,"talks":7605,"Общата":7606,"courage":7607,"намира":7608,"пакета":7609,"appear":7610,"ЕФПГ":7611,"Fe":7612,"вред":7613,"enlarge":7614,"лича":7615,"quo":7616,"работно":7617,"отговорни":7618,"финансовия":7619,"демократични":7620,"violations":7621,"огромно":7622,"председателят":7623,"президент":7624,"restrictions":7625,"publ":7626,"Близ":7627,"йски":7628,"несъмнено":7629,"ift":7630,"2000":7631,"разумно":7632,"тексти":7633,"сериозна":7634,"търговските":7635,"bourg":7636,"instance":7637,"firmly":7638,"предизвикателствата":7639,"географ":7640,"manufacture":7641,"иск":7642,"procure":7643,"циф":7644,"щения":7645,"unfair":7646,"необходим":7647,"източник":7648,"операти":7649,"Председателят":7650,"electric":7651,"materials":7652,"geograph":7653,"gap":7654,"late":7655,"Християн":7656,"дване":7657,"сцена":7658,"ouble":7659,"местни":7660,"осигурят":7661,"draf":7662,"живее":7663,"малцинства":7664,"Bo":7665,"Mold":7666,"millions":7667,"сложи":7668,"peoples":7669,"ria":7670,"инди":7671,"търа":7672,"crises":7673,"controls":7674,"младе":7675,"participate":7676,"здравеопазването":7677,"чувствите":7678,"office":7679,"доставки":7680,"перспектива":7681,"Moldov":7682,"Bra":7683,"Os":7684,"БВП":7685,"йни":7686,"чват":7687,"ъг":7688,"теле":7689,"ster":7690,"мнозинството":7691,"mil":7692,"Вя":7693,"Южна":7694,"class":7695,"gures":7696,"поставят":7697,"благодарение":7698,"Fundamental":7699,"occup":7700,"зависимост":7701,"repeat":7702,"установяване":7703,"Страте":7704,"нда":7705,"сията":7706,"oness":7707,"рекла":7708,"непрекъсна":7709,"пата":7710,"палести":7711,"живя":7712,"социалистите":7713,"системите":7714,"основана":7715,"figures":7716,"involving":7717,"Baroness":7718,"започнем":7719,"Международния":7720,"стандартите":7721,"уврежда":7722,"Danu":7723,"NG":7724,"преход":7725,"приобща":7726,"стигна":7727,"debates":7728,"justment":7729,"respected":7730,"регионалните":7731,"reaching":7732,"спазването":7733,"parliaments":7734,"единственият":7735,"enforcement":7736,"EIB":7737,"Kosovo":7738,"Позволете":7739,"Danube":7740,"Слу":7741,"дъ":7742,"отваря":7743,"крачка":7744,"igno":7745,"банко":7746,"communic":7747,"земедели":7748,"екологични":7749,"reflect":7750,"evalu":7751,"attempt":7752,"orient":7753,"Every":7754,"earli":7755,"стрия":7756,"ici":7757,"strengthened":7758,"поемат":7759,"положителен":7760,"satisfact":7761,"Tunisia":7762,"budsman":7763,"restric":7764,"стъл":7765,"пребива":7766,"sec":7767,"конце":7768,"Нещо":7769,"финансово":7770,"европейците":7771,"колекти":7772,"насочена":7773,"крайно":7774,"emphasis":7775,"засегнатите":7776,"keeping":7777,"judicial":7778,"доставчи":7779,"Индия":7780,"urgently":7781,"dign":7782,"ctic":7783,"принадле":7784,"няваме":7785,"твърди":7786,"individuals":7787,"имигранти":7788,"procurement":7789,"Cy":7790,"gg":7791,"наслед":7792,"непо":7793,"merely":7794,"писа":7795,"феде":7796,"affor":7797,"подобно":7798,"случаите":7799,"публични":7800,"allows":7801,"allowing":7802,"обекти":7803,"biodiversity":7804,"омбудс":7805,"отбележа":7806,"dangerous":7807,"savings":7808,"испанското":7809,"Amendment":7810,"brief":7811,"чиито":7812,"Християндемократи":7813,"Aust":7814,"gence":7815,"hundred":7816,"zil":7817,"Ан":7818,"Афганистан":7819,"ум":7820,"тация":7821,"новото":7822,"серва":7823,"covered":7824,"factors":7825,"банки":7826,"състоянието":7827,"граждански":7828,"Чеш":7829,"риболов":7830,"delegation":7831,"повдигна":7832,"жизненоважно":7833,"статут":7834,"bruary":7835,"February":7836,"wat":7837,"въд":7838,"evidence":7839,"Наистина":7840,"decisive":7841,"gradu":7842,"Мол":7843,"плащат":7844,"consultation":7845,"законодателен":7846,"maximum":7847,"Полити":7848,"iation":7849,"вру":7850,"дят":7851,"нер":7852,"февру":7853,"разисквания":7854,"improvements":7855,"отделни":7856,"harm":7857,"солидарността":7858,"trading":7859,"emergency":7860,"America":7861,"съседство":7862,"консултации":7863,"заболява":7864,"Framework":7865,"Om":7866,"ИС":7867,"същата":7868,"мора":7869,"forman":7870,"aced":7871,"самостоя":7872,"seeking":7873,"методи":7874,"оценката":7875,"забрана":7876,"независимост":7877,"укрепи":7878,"awareness":7879,"преодоле":7880,"Slov":7881,"Despite":7882,"Brazil":7883,"Col":7884,"push":7885,"repre":7886,"ству":7887,"пото":7888,"мото":7889,"secre":7890,"urban":7891,"къс":7892,"intention":7893,"2015":7894,"европейци":7895,"чуж":7896,"висока":7897,"shadow":7898,"фактори":7899,"Baltic":7900,"reprene":7901,"don":7902,"жните":7903,"квот":7904,"награ":7905,"ниски":7906,"ствията":7907,"confir":7908,"lights":7909,"verage":7910,"appreci":7911,"2002":7912,"Protection":7913,"meetings":7914,"Region":7915,"могло":7916,"имиграция":7917,"break":7918,"правосъдие":7919,"leadership":7920,"февруари":7921,"Факт":7922,"auto":7923,"криване":7924,"анс":7925,"highest":7926,"banking":7927,"Only":7928,"допринася":7929,"капацитет":7930,"Balkans":7931,"Gaz":7932,"bol":7933,"tro":7934,"съчета":7935,"някой":7936,"cooperate":7937,"работна":7938,"важността":7939,"мерика":7940,"правомощията":7941,"diversity":7942,"американски":7943,"модерни":7944,"distribution":7945,"Дунав":7946,"неблагоприят":7947,"сет":7948,"общия":7949,"ival":7950,"глас":7951,"myself":7952,"транспони":7953,"space":7954,"загуби":7955,"approval":7956,"конвенция":7957,"India":7958,"неприемливо":7959,"океан":7960,"увреждания":7961,"Молдова":7962,"Икономи":7963,"Очевидно":7964,"аре":7965,"erves":7966,"неравно":7967,"stabil":7968,"прова":7969,"сами":7970,"самата":7971,"жал":7972,"тират":7973,"operating":7974,"started":7975,"вътрешни":7976,"широк":7977,"Конвенцията":7978,"ronic":7979,"largest":7980,"обвързва":7981,"опростяване":7982,"ваните":7983,"asks":7984,"ched":7985,"loye":7986,"подкопа":7987,"казваме":7988,"decent":7989,"сегашната":7990,"applies":7991,"interesting":7992,"компроми":7993,"общественото":7994,"препоръки":7995,"служители":7996,"ALDE":7997,"degree":7998,"win":7999,"двата":8000,"нка":8001,"stay":8002,"прието":8003,"стига":8004,"цената":8005,"fear":8006,"worse":8007,"знам":8008,"дневен":8009,"redund":8010,"решен":8011,"трафика":8012,"увеличение":8013,"демократична":8014,"изготви":8015,"алианс":8016,"разширяването":8017,"yesterday":8018,"equipment":8019,"politicians":8020,"Близкия":8021,"Yet":8022,"Една":8023,"френ":8024,"ality":8025,"дой":8026,"гий":8027,"спест":8028,"водят":8029,"включването":8030,"followed":8031,"Мога":8032,"preventing":8033,"изразяване":8034,"извършват":8035,"закони":8036,"безработица":8037,"заинтересовани":8038,"flood":8039,"enlargement":8040,"afford":8041,"Ombudsman":8042,"formance":8043,"вди":8044,"ang":8045,"ващо":8046,"пока":8047,"olution":8048,"последната":8049,"reasonable":8050,"призоваваме":8051,"годишни":8052,"опасност":8053,"Средиземномо":8054,"множество":8055,"електроцентрали":8056,"skills":8057,"Slovak":8058,"ancial":8059,"тий":8060,"излиза":8061,"rab":8062,"changing":8063,"employe":8064,"realise":8065,"задължение":8066,"Изто":8067,"милиони":8068,"регулато":8069,"supervis":8070,"ЕИБ":8071,"диокси":8072,"вещества":8073,"Америка":8074,"мера":8075,"entreprene":8076,"ste":8077,"пропор":8078,"feat":8079,"ivity":8080,"доведат":8081,"изпълнява":8082,"цялото":8083,"sequently":8084,"опитва":8085,"harmonisation":8086,"tools":8087,"неотдавнаш":8088,"medicines":8089,"Време":8090,"университе":8091,"Вместо":8092,"гно":8093,"одобри":8094,"фу":8095,"reven":8096,"изразход":8097,"предпо":8098,"united":8099,"ложен":8100,"viation":8101,"series":8102,"обича":8103,"собственост":8104,"Бар":8105,"introducing":8106,"култури":8107,"противопоставя":8108,"здравеопазване":8109,"семейства":8110,"Съществу":8111,"exclusion":8112,"безпокой":8113,"катастрофа":8114,"Mone":8115,"покаже":8116,"циви":8117,"lose":8118,"opposed":8119,"interested":8120,"valu":8121,"обект":8122,"Liber":8123,"places":8124,"allocated":8125,"deficit":8126,"Such":8127,"sort":8128,"ongoing":8129,"рира":8130,"пания":8131,"ades":8132,"следните":8133,"ктно":8134,"равнища":8135,"позволим":8136,"огромна":8137,"централна":8138,"Харта":8139,"flexible":8140,"дипломати":8141,"Още":8142,"неу":8143,"orary":8144,"обре":8145,"биват":8146,"exe":8147,"Коре":8148,"continent":8149,"доволен":8150,"Искаме":8151,"offers":8152,"abilities":8153,"blue":8154,"bor":8155,"даж":8156,"рението":8157,"сту":8158,"teed":8159,"можете":8160,"maritime":8161,"competence":8162,"желанието":8163,"поема":8164,"персо":8165,"превозни":8166,"освобождаването":8167,"29":8168,"IS":8169,"nes":8170,"Ку":8171,"тъл":8172,"повод":8173,"дете":8174,"belong":8175,"conver":8176,"rain":8177,"moving":8178,"кратно":8179,"искали":8180,"правилното":8181,"спешно":8182,"желаят":8183,"dependent":8184,"решаването":8185,"нарушение":8186,"Arctic":8187,"значителна":8188,"договор":8189,"проучване":8190,"subsidi":8191,"ACP":8192,"естествено":8193,"legitimate":8194,"Относно":8195,"EGF":8196,"фалшифици":8197,"referendum":8198,"Moldova":8199,"изте":8200,"respective":8201,"suitable":8202,"предприемем":8203,"sole":8204,"abuse":8205,"подкрепе":8206,"finances":8207,"justified":8208,"присъедини":8209,"огромен":8210,"престъпност":8211,"recommendation":8212,"industries":8213,"списъ":8214,"човешки":8215,"лизъм":8216,"determination":8217,"Afghanistan":8218,"съвършен":8219,"очерта":8220,"христия":8221,"неф":8222,"деба":8223,"dev":8224,"delight":8225,"imposed":8226,"heav":8227,"Ital":8228,"служи":8229,"operations":8230,"подобряването":8231,"says":8232,"realistic":8233,"surpr":8234,"каквито":8235,"агенциите":8236,"substantial":8237,"Investment":8238,"Ano":8239,"Her":8240,"frequ":8241,"реце":8242,"permit":8243,"задължително":8244,"задълженията":8245,"изключване":8246,"descri":8247,"guaranteed":8248,"военни":8249,"бежанци":8250,"penalty":8251,"направено":8252,"приспособяване":8253,"изказване":8254,"Another":8255,"Are":8256,"hop":8257,"ат":8258,"бру":8259,"топ":8260,"чето":8261,"преми":8262,"пречки":8263,"обро":8264,"предвиде":8265,"abs":8266,"fect":8267,"performance":8268,"създадат":8269,"мул":8270,"настоява":8271,"solve":8272,"purposes":8273,"заеме":8274,"агенции":8275,"meaning":8276,"проучва":8277,"repeated":8278,"авио":8279,"Monetary":8280,"Yes":8281,"dig":8282,"hy":8283,"взи":8284,"напа":8285,"дам":8286,"arri":8287,"beha":8288,"дикта":8289,"sem":8290,"mod":8291,"спорт":8292,"плана":8293,"strugg":8294,"народа":8295,"laid":8296,"compar":8297,"очаро":8298,"Funds":8299,"Financial":8300,"destro":8301,"Корея":8302,"From":8303,"OS":8304,"ots":8305,"вакси":8306,"told":8307,"предви":8308,"следващия":8309,"тяването":8310,"Дори":8311,"свърши":8312,"Struct":8313,"осъществи":8314,"история":8315,"положителни":8316,"advert":8317,"книга":8318,"housing":8319,"мле":8320,"anian":8321,"забележ":8322,"разру":8323,"sibly":8324,"енергията":8325,"stitution":8326,"решени":8327,"малка":8328,"defined":8329,"property":8330,"събитията":8331,"стратегии":8332,"играят":8333,"повтаря":8334,"accepted":8335,"облига":8336,"Бя":8337,"тва":8338,"ниско":8339,"lea":8340,"общото":8341,"обслуж":8342,"изобщо":8343,"tele":8344,"exemp":8345,"правителствени":8346,"преодоляване":8347,"унгарското":8348,"оратора":8349,"experts":8350,"променя":8351,"територията":8352,"labelling":8353,"характеристи":8354,"gment":8355,"вката":8356,"спра":8357,"шия":8358,"реци":8359,"posing":8360,"Under":8361,"thorough":8362,"кедо":8363,"written":8364,"благодарност":8365,"докладчиците":8366,"разполагат":8367,"Трето":8368,"micro":8369,"корупцията":8370,"Korea":8371,"Grow":8372,"hom":8373,"sla":8374,"Брази":8375,"Гн":8376,"пте":8377,"tot":8378,"assure":8379,"изяс":8380,"разочаро":8381,"градове":8382,"Those":8383,"coal":8384,"създават":8385,"planned":8386,"Proced":8387,"equally":8388,"засягат":8389,"statistics":8390,"Обаче":8391,"Газа":8392,"io":8393,"АКТ":8394,"справи":8395,"уре":8396,"продаж":8397,"idents":8398,"говоря":8399,"сянка":8400,"contact":8401,"вноса":8402,"affairs":8403,"собствена":8404,"бюджетните":8405,"греси":8406,"Мер":8407,"декларация":8408,"кориги":8409,"earlier":8410,"dignity":8411,"Structural":8412,"АКТБ":8413,"правната":8414,"членство":8415,"правилната":8416,"fication":8417,"реалисти":8418,"намерят":8419,"contributions":8420,"resulting":8421,"приветстваме":8422,"passed":8423,"хуманитарна":8424,"изграждане":8425,"разработването":8426,"Thirdly":8427,"прекомер":8428,"Arab":8429,"gor":8430,"impose":8431,"тур":8432,"субе":8433,"важното":8434,"likely":8435,"мяната":8436,"anyone":8437,"centre":8438,"condition":8439,"осигуряването":8440,"противен":8441,"committees":8442,"initial":8443,"броят":8444,"третиране":8445,"targeted":8446,"въглероден":8447,"неотдавна":8448,"данъкоплатците":8449,"Gaza":8450,"пропорциона":8451,"300":8452,"Rules":8453,"комите":8454,"imper":8455,"среди":8456,"годишно":8457,"днешното":8458,"dealt":8459,"Центра":8460,".)":8461,"King":8462,"dy":8463,"vacc":8464,"впечат":8465,"еки":8466,"сните":8467,"бен":8468,"viour":8469,"възможни":8470,"бяхме":8471,"processes":8472,"доставките":8473,"гръц":8474,"оборудване":8475,"delighted":8476,"ДС":8477,"пция":8478,"вест":8479,"приключ":8480,"придоби":8481,"телния":8482,"works":8483,"formation":8484,"пътува":8485,"позиции":8486,"устойчивото":8487,"finding":8488,"focused":8489,"обяви":8490,"стреме":8491,"медицин":8492,"злоупотре":8493,"възобновяеми":8494,"нарко":8495,"forthcoming":8496,"Italian":8497,"Growth":8498,"Бразилия":8499,"Су":8500,"concil":8501,"chain":8502,"нататък":8503,"първите":8504,"позволят":8505,"инвестиционна":8506,"carefully":8507,"подходяща":8508,"guaranteeing":8509,"субсидиа":8510,"announced":8511,"прецеден":8512,"Хартата":8513,"Ice":8514,"MF":8515,"TO":8516,"нала":8517,"asp":8518,"баро":8519,"икономии":8520,"казаха":8521,"monetary":8522,"спазване":8523,"Можем":8524,"precedent":8525,"nal":8526,"жност":8527,"рон":8528,"вената":8529,"патен":8530,"impossible":8531,"clusive":8532,"срещи":8533,"конкретен":8534,"намерения":8535,"playing":8536,"признава":8537,"Commun":8538,"нейната":8539,"actively":8540,"историята":8541,"убий":8542,"FT":8543,"VAT":8544,"силите":8545,"ilt":8546,"изгра":8547,"нявам":8548,"productive":8549,"настоящите":8550,"loyment":8551,"ограничаване":8552,"автомобили":8553,"списък":8554,"очакват":8555,"малцинствата":8556,"truth":8557,"бежанците":8558,"reliable":8559,"Регламент":8560,"Globalisation":8561,"съвмести":8562,"Plan":8563,"Ti":8564,"smo":8565,"СС":8566,"справят":8567,"поколе":8568,"лизирането":8569,"ilities":8570,"изчер":8571,"unanim":8572,"iff":8573,"Понастоящем":8574,"същество":8575,"водите":8576,"останат":8577,"desire":8578,"документа":8579,"Всичко":8580,"обучението":8581,"монитори":8582,"успяхме":8583,"primarily":8584,"бизнес":8585,"предварително":8586,"Turkish":8587,"Финан":8588,"prosperity":8589,"spread":8590,"attra":8591,"отче":8592,"arrange":8593,"вения":8594,"whilst":8595,"comment":8596,"ama":8597,"дух":8598,"clause":8599,"произтича":8600,"обсъдим":8601,"played":8602,"предлагат":8603,"earth":8604,"peaceful":8605,"изпрати":8606,"neighbouring":8607,"грешки":8608,"прекратяване":8609,"speculation":8610,"concluded":8611,"subsidiarity":8612,"behaviour":8613,"ДДС":8614,"сли":8615,"физи":8616,"трин":8617,"substances":8618,"honest":8619,"technological":8620,"expert":8621,"experiencing":8622,"Iceland":8623,"35":8624,"WTO":8625,"rul":8626,"оди":8627,"кор":8628,"iction":8629,"горите":8630,"главно":8631,"Пакта":8632,"intentions":8633,"всеобхват":8634,"времена":8635,"Литва":8636,"Македо":8637,"cuts":8638,"дреб":8639,"липсва":8640,"могъл":8641,"untary":8642,"терористи":8643,"Директива":8644,"Призовавам":8645,"wonder":8646,"Tibet":8647,"kers":8648,"wit":8649,"вчера":8650,"йца":8651,"праз":8652,"насам":8653,"теку":8654,"визи":8655,"wealth":8656,"споро":8657,"надзо":8658,"намалява":8659,"демократичните":8660,"изразява":8661,"discrimin":8662,"emerging":8663,"поведение":8664,"demonstrated":8665,"експерт":8666,"ним":8667,"септе":8668,"вери":8669,"ляваме":8670,"tedly":8671,"реално":8672,"законодателна":8673,"каквото":8674,"entirely":8675,"укрепването":8676,"природни":8677,"рискове":8678,"Lithuania":8679,"непрекъснато":8680,"Чешката":8681,"totally":8682,"Kingdom":8683,"Македония":8684,"септември":8685,"Ira":8686,"nations":8687,"сгра":8688,"усъвършен":8689,"преразгледа":8690,"съзна":8691,"mental":8692,"хуман":8693,"minutes":8694,"обществено":8695,"representative":8696,"устойчива":8697,"признаем":8698,"existence":8699,"гражданска":8700,"expectations":8701,"млади":8702,"носят":8703,"симво":8704,"candidate":8705,"индустри":8706,"предупре":8707,"Iraq":8708,"Maced":8709,"Other":8710,"нтите":8711,"онова":8712,"incorpor":8713,"ats":8714,"нор":8715,"arma":8716,"entit":8717,"sea":8718,"register":8719,"trial":8720,"Instead":8721,"добрата":8722,"шан":8723,"proposing":8724,"техния":8725,"qualities":8726,"definition":8727,"тежко":8728,"средносро":8729,"obstacles":8730,"infring":8731,"диоксид":8732,"Asi":8733,"uly":8734,"тност":8735,"родите":8736,"личните":8737,"seven":8738,"припомня":8739,"ряваме":8740,"verse":8741,"explan":8742,"бъдещата":8743,"diseas":8744,"operational":8745,"iannual":8746,"century":8747,"успеем":8748,"accident":8749,"спазва":8750,"extended":8751,"състав":8752,"острови":8753,"демонстри":8754,"declaration":8755,"изтъкна":8756,"lam":8757,"lap":8758,"nation":8759,"име":8760,"ests":8761,"ofin":8762,"лет":8763,"assu":8764,"Thus":8765,"presence":8766,"sym":8767,"politics":8768,"compared":8769,"decades":8770,"medical":8771,"реакция":8772,"получава":8773,"първото":8774,"вътрешните":8775,"purch":8776,"призив":8777,"criticism":8778,"stakeholders":8779,"компании":8780,"Palestinian":8781,"радвам":8782,"diseases":8783,"асо":8784,"зните":8785,"хране":8786,"reci":8787,"несат":8788,"силни":8789,"телната":8790,"дум":8791,"слуш":8792,"operators":8793,"Lastly":8794,"diplomatic":8795,"шведското":8796,"CE":8797,"Sep":8798,"tember":8799,"удъл":8800,"даден":8801,"водне":8802,"състои":8803,"протек":8804,"illance":8805,"actual":8806,"worry":8807,"prus":8808,"свободен":8809,"необходимото":8810,"examples":8811,"всякъде":8812,"отдале":8813,"neighbours":8814,"continued":8815,"biggest":8816,"ръководители":8817,"Cyprus":8818,"DA":8819,"Ав":8820,"Едно":8821,"джа":8822,"летия":8823,"вината":8824,"съществени":8825,"парламенти":8826,"съгласна":8827,"personally":8828,"governmental":8829,"аргу":8830,"нейното":8831,"applying":8832,"demonstrate":8833,"simplification":8834,"умения":8835,"types":8836,"average":8837,"заявле":8838,"волю":8839,"гане":8840,"бет":8841,"гледне":8842,"намалят":8843,"обществеността":8844,"hands":8845,"topic":8846,"селскостопанските":8847,"отдавна":8848,"Health":8849,"September":8850,"West":8851,"city":8852,"front":8853,"pan":8854,"вз":8855,"зале":8856,"непри":8857,"ром":8858,"секре":8859,"lying":8860,"бъда":8861,"save":8862,"разискваме":8863,"инструментите":8864,"извърши":8865,"намират":8866,"treated":8867,"religion":8868,"реагира":8869,"surveillance":8870,"наследство":8871,"employees":8872,"Gu":8873,"Per":8874,"cate":8875,"drug":8876,"zer":8877,"Хо":8878,"online":8879,"гати":8880,"предприе":8881,"raw":8882,"exclusive":8883,"Commissioners":8884,"знак":8885,"Съда":8886,"трафик":8887,"taxation":8888,"виждаме":8889,"Islam":8890,"заключенията":8891,"разбирам":8892,"отбележи":8893,"American":8894,"конференция":8895,"акцент":8896,"решително":8897,"Средиземноморието":8898,"Procedure":8899,"Аген":8900,"гната":8901,"наши":8902,"даването":8903,"попитам":8904,"изби":8905,"haz":8906,"ulated":8907,"другото":8908,"perfect":8909,"сяка":8910,"seeing":8911,"democrat":8912,"дейностите":8913,"решим":8914,"обезще":8915,"referred":8916,"лекарства":8917,"adapt":8918,"sovereignty":8919,"scheme":8920,"популя":8921,"сурови":8922,"symbol":8923,"During":8924,"Qu":8925,"Очак":8926,"Счита":8927,"orse":8928,"дението":8929,"сил":8930,"договаря":8931,"withdraw":8932,"страдат":8933,"действат":8934,"защити":8935,"бюджетът":8936,"случаят":8937,"pensions":8938,"увеличаването":8939,"globalisation":8940,"involves":8941,"suffered":8942,"traditional":8943,"clarify":8944,"rupt":8945,"clean":8946,"сферата":8947,"асоции":8948,"IC":8949,"gone":8950,"orest":8951,"дръ":8952,"rem":8953,"room":8954,"resto":8955,"rad":8956,"граница":8957,"ifications":8958,"изигра":8959,"поставени":8960,"extension":8961,"Лисабонската":8962,"taxes":8963,"Solid":8964,"съдържанието":8965,"годишна":8966,"Cooperation":8967,"rejected":8968,"заболявания":8969,"Agr":8970,"Stock":8971,"реформата":8972,"лените":8973,"grate":8974,"198":8975,"phen":8976,"затворни":8977,"съобщение":8978,"friendly":8979,"Safe":8980,"sembly":8981,"Agricult":8982,"EE":8983,"тла":8984,"тят":8985,"onom":8986,"toler":8987,"месо":8988,"изб":8989,"tered":8990,"подобрения":8991,"включване":8992,"реалност":8993,"facilities":8994,"Пробле":8995,"contracts":8996,"electronic":8997,"material":8998,"декларации":8999,"изключение":9000,"валута":9001,"separate":9002,"проверки":9003,"десетилетия":9004,"привлека":9005,"контакт":9006,"Cub":9007,"inese":9008,"почи":9009,"дет":9010,"sures":9011,"meant":9012,"къвто":9013,"консерва":9014,"balances":9015,"резолюции":9016,"устойчивост":9017,"waiting":9018,"contract":9019,"нуждите":9020,"търсенето":9021,"Adjustment":9022,"texts":9023,"Macedonia":9024,"Free":9025,"tend":9026,"ВД":9027,"вра":9028,"гобро":9029,"мля":9030,"заеми":9031,"седем":9032,"Chinese":9033,"ангажимента":9034,"applications":9035,"потвърди":9036,"detailed":9037,"determined":9038,"болестта":9039,"компетентност":9040,"Solidarity":9041,"Head":9042,"Women":9043,"cities":9044,"replace":9045,"поро":9046,"какъвто":9047,"comed":9048,"ктика":9049,"coast":9050,"убеден":9051,"уважение":9052,"препоръките":9053,"felt":9054,"осъзна":9055,"normal":9056,"duties":9057,"enhanced":9058,"Балкани":9059,"уязвимите":9060,"holm":9061,"compensation":9062,"герман":9063,"Stockholm":9064,"phenomen":9065,"sk":9066,"recession":9067,"ene":9068,"arrest":9069,"съвремен":9070,"обедине":9071,"придържа":9072,"логия":9073,"pol":9074,"хопла":9075,"разискванията":9076,"позволете":9077,"welcomed":9078,"гласувахме":9079,"данъчните":9080,"министрите":9081,"опасения":9082,"aviation":9083,"наводне":9084,"retain":9085,"weap":9086,"предмет":9087,"acking":9088,"ishing":9089,"смело":9090,"развитите":9091,"believ":9092,"високите":9093,"колега":9094,"negotiated":9095,"метод":9096,"световна":9097,"airlines":9098,"стремим":9099,"запазим":9100,"помним":9101,"единоду":9102,"Нужда":9103,"milk":9104,"федера":9105,"Централна":9106,"July":9107,"mid":9108,"идва":9109,"напре":9110,"alle":9111,"дено":9112,"лов":9113,"ulating":9114,"claim":9115,"ЕСВД":9116,"нямаме":9117,"здраво":9118,"посоча":9119,"постигнахме":9120,"built":9121,"studies":9122,"languages":9123,"блоки":9124,"coherent":9125,"чешкото":9126,"урнали":9127,"Западните":9128,"цифро":9129,"usu":9130,"итали":9131,"опти":9132,"itage":9133,"многобро":9134,"Със":9135,"усво":9136,"смек":9137,"процесът":9138,"причината":9139,"изпълните":9140,"проекто":9141,"surv":9142,"generation":9143,"служби":9144,"енергетика":9145,"рейтинг":9146,"temporary":9147,"сделки":9148,"none":9149,"slow":9150,"Ро":9151,"Сток":9152,"юли":9153,"insurance":9154,"постепенно":9155,"нео":9156,"отпус":9157,"ведна":9158,"холм":9159,"uster":9160,"please":9161,"казаното":9162,"ctors":9163,"изпълняват":9164,"собствената":9165,"airy":9166,"maintaining":9167,"requested":9168,"Знаем":9169,"enhance":9170,"designed":9171,"latest":9172,"предназначени":9173,"Стокхолм":9174,"веднага":9175,"Im":9176,"New":9177,"ded":9178,"gic":9179,"jan":9180,"Ниде":9181,"йто":9182,"погледне":9183,"confirm":9184,"loans":9185,"posal":9186,"core":9187,"центъра":9188,"факти":9189,"намалим":9190,"bonds":9191,"наличието":9192,"транспорта":9193,"голямото":9194,"Stras":9195,"диалога":9196,"известни":9197,"въздухопла":9198,"официално":9199,"одобрение":9200,"witness":9201,"сбург":9202,"сесия":9203,"предимно":9204,"ценностите":9205,"околна":9206,"директиви":9207,"collection":9208,"Without":9209,"добавя":9210,"добавена":9211,"Christians":9212,"търсене":9213,"subsidies":9214,"лидери":9215,"settlement":9216,"търпение":9217,"Au":9218,"drop":9219,"СТО":9220,"йно":9221,"нската":9222,"пси":9223,"уда":9224,"чията":9225,"вайки":9226,"стване":9227,"stor":9228,"дош":9229,"neither":9230,"ries":9231,"държавни":9232,"възстанови":9233,"quot":9234,"ционен":9235,"otherwise":9236,"съществена":9237,"представени":9238,"насърчават":9239,"Progress":9240,"successfully":9241,"потребностите":9242,"ежедне":9243,"complicated":9244,"dynam":9245,"италиан":9246,"Strasbourg":9247,"breach":9248,"fast":9249,"mine":9250,"нало":9251,"навсякъде":9252,"сие":9253,"стават":9254,"стоят":9255,"дълъг":9256,"Подоб":9257,"различен":9258,"дадени":9259,"textile":9260,"represented":9261,"демократично":9262,"morning":9263,"територия":9264,"geographical":9265,"дебат":9266,"рния":9267,"convention":9268,"agency":9269,"бори":9270,"искането":9271,"вечер":9272,"formal":9273,"съществен":9274,"частност":9275,"attitude":9276,"paying":9277,"Вашата":9278,"affecting":9279,"ECR":9280,"ключови":9281,"комуни":9282,"запазване":9283,"dispute":9284,"вярвам":9285,"stocks":9286,"phase":9287,"Нуждаем":9288,"ather":9289,"мият":9290,"утвър":9291,"чният":9292,"нива":9293,"ering":9294,"stra":9295,"дохме":9296,"изче":9297,"изку":9298,"ches":9299,"radio":9300,"стигне":9301,"сното":9302,"следното":9303,"answers":9304,"многостран":9305,"нямаше":9306,"examine":9307,"докладчикът":9308,"нарушаване":9309,"holding":9310,"Кипър":9311,"Черно":9312,"grounds":9313,"dictator":9314,"bureaucracy":9315,"Safety":9316,"Paper":9317,"scr":9318,"уе":9319,"нараст":9320,"кора":9321,"rob":9322,"лечение":9323,"terri":9324,"2001":9325,"малък":9326,"задължението":9327,"постигнати":9328,"мандата":9329,"limits":9330,"обсъждания":9331,"проектите":9332,"изявление":9333,"планиране":9334,"association":9335,"highlighted":9336,"legitim":9337,"дефицит":9338,"свободното":9339,"изказвания":9340,"simplify":9341,"Author":9342,"dairy":9343,"Же":9344,"журнали":9345,"йните":9346,"reiter":9347,"неса":9348,"тието":9349,"сиите":9350,"изли":9351,"habit":9352,"admit":9353,"последното":9354,"регионални":9355,"brings":9356,"Alban":9357,"choose":9358,"tariff":9359,"справедливост":9360,"опитаме":9361,"Страсбург":9362,"ACTA":9363,"сатланти":9364,"обратното":9365,"constitutional":9366,"асоцииране":9367,"зната":9368,"stream":9369,"силата":9370,"изложени":9371,"sold":9372,"compe":9373,"възра":9374,"sight":9375,"youth":9376,"marg":9377,"миналия":9378,"изпълнени":9379,"чужде":9380,"increases":9381,"rising":9382,"advance":9383,"multilateral":9384,"подробно":9385,"pie":9386,"спомогне":9387,"Sub":9388,"hours":9389,"ko":9390,"ЕЦ":9391,"Ис":9392,"лини":9393,"дела":9394,"динами":9395,"изоста":9396,"щение":9397,"chap":9398,"редите":9399,"ственото":9400,"кур":9401,"единна":9402,"частни":9403,"националното":9404,"lessons":9405,"специални":9406,"species":9407,"numbers":9408,"регламенти":9409,"действащ":9410,"Atlantic":9411,"speakers":9412,"обърнем":9413,"полезно":9414,"ядрена":9415,"грешка":9416,"бюрократи":9417,"Соли":9418,"autonom":9419,"Belgian":9420,"quotas":9421,"lined":9422,"ена":9423,"уми":9424,"mother":9425,"инци":9426,"някакъв":9427,"сума":9428,"всичките":9429,"защитни":9430,"подобрим":9431,"траг":9432,"уверя":9433,"competences":9434,"район":9435,"подкрепих":9436,"морски":9437,"функциониране":9438,"майчи":9439,"отпадъците":9440,"специфични":9441,"reinforce":9442,"latter":9443,"осем":9444,"защитени":9445,"advertising":9446,"Финансо":9447,"Sud":9448,"покажем":9449,"преструктури":9450,"прослед":9451,"китай":9452,"traged":9453,"court":9454,"considering":9455,"Тай":9456,"демократичен":9457,"споменава":9458,"независимостта":9459,"мобилност":9460,"tackling":9461,"смъртното":9462,"appointment":9463,"uniform":9464,"abstained":9465,"Исландия":9466,"Солида":9467,"Гу":9468,"оси":9469,"обработ":9470,"iling":9471,"думите":9472,"Напълно":9473,"необходимата":9474,"learning":9475,"центри":9476,"първа":9477,"worldwide":9478,"поставим":9479,"продължаваме":9480,"солиди":9481,"resulted":9482,"считат":9483,"multi":9484,"original":9485,"marked":9486,"готовката":9487,"материал":9488,"incentives":9489,"Ta":9490,"Слова":9491,"Убе":9492,"емата":9493,"жното":9494,"фору":9495,"тото":9496,"atlantic":9497,"преработ":9498,"вино":9499,"ждаме":9500,"rence":9501,"ръце":9502,"работната":9503,"предложени":9504,"compat":9505,"народите":9506,"проверка":9507,"точното":9508,"способност":9509,"фонда":9510,"Once":9511,"Всеки":9512,"капитал":9513,"отбеляз":9514,"voluntary":9515,"съкращения":9516,"ratification":9517,"уважаеми":9518,"journal":9519,"референдум":9520,"взето":9521,"Bos":9522,"card":9523,"tren":9524,"мната":9525,"рство":9526,"ява":9527,"набор":9528,"моето":9529,"извле":9530,"парни":9531,"exists":9532,"бания":9533,"proud":9534,"Докато":9535,"collab":9536,"strength":9537,"Реше":9538,"Not":9539,"хранителни":9540,"хранителните":9541,"осъществява":9542,"terrorist":9543,"избегне":9544,"bio":9545,"details":9546,"difference":9547,"preparing":9548,"losses":9549,"обикновено":9550,"mobilisation":9551,"acknowledge":9552,"Зелените":9553,"customs":9554,"безпокойство":9555,"средиземно":9556,"double":9557,"mur":9558,"непре":9559,"веност":9560,"зиран":9561,"бъдещи":9562,"бана":9563,"искания":9564,"disposal":9565,"определен":9566,"втори":9567,"interven":9568,"публично":9569,"практически":9570,"define":9571,"demanding":9572,"farming":9573,"разглеждаме":9574,"officials":9575,"очаквам":9576,"обезпоко":9577,"застрахо":9578,"happens":9579,"primary":9580,"газове":9581,"Bosn":9582,"Йе":9583,"Ясно":9584,"разположение":9585,"подготовката":9586,"optim":9587,"сове":9588,"възпрепят":9589,"worst":9590,"свое":9591,"вреди":9592,"2003":9593,"бюджетен":9594,"настоятелно":9595,"negotiation":9596,"healthy":9597,"малкото":9598,"beneficial":9599,"убежде":9600,"size":9601,"започнат":9602,"wait":9603,"speeches":9604,"investigation":9605,"punish":9606,"confirmed":9607,"digital":9608,"предвидени":9609,"спорове":9610,"grateful":9611,"Food":9612,"cou":9613,"Одоб":9614,"ид":9615,"тната":9616,"косно":9617,"консолиди":9618,"хаза":9619,"сутрин":9620,"undermin":9621,"различна":9622,"жертва":9623,"foundations":9624,"заема":9625,"чувства":9626,"contained":9627,"advantages":9628,"длъжност":9629,"declarations":9630,"Швеция":9631,"промените":9632,"чуждестран":9633,"Sudan":9634,"map":9635,"Втори":9636,"наха":9637,"заста":9638,"отсла":9639,"спор":9640,"половина":9641,"opinions":9642,"wishes":9643,"морския":9644,"съсредоточим":9645,"приложим":9646,"квалифици":9647,"experienced":9648,"сблъск":9649,"valuable":9650,"entitled":9651,"Нидерландия":9652,"bro":9653,"hib":9654,"tasks":9655,"Фон":9656,"вност":9657,"емо":9658,"зъм":9659,"нзи":9660,"никва":9661,"револю":9662,"покри":9663,"alar":9664,"отте":9665,"изчи":9666,"жесто":9667,"стар":9668,"бел":9669,"sharing":9670,"quant":9671,"Точно":9672,"център":9673,"relative":9674,"защитим":9675,"пасите":9676,"societ":9677,"violation":9678,"областите":9679,"amounts":9680,"Международната":9681,"служителите":9682,"конференцията":9683,"двустранни":9684,"Over":9685,"исля":9686,"сват":9687,"наскоро":9688,"ana":9689,"тем":9690,"зави":9691,"bel":9692,"изри":9693,"приблиз":9694,"atever":9695,"users":9696,"едни":9697,"perform":9698,"news":9699,"интеле":9700,"inequalities":9701,"debating":9702,"Азия":9703,"световно":9704,"признаване":9705,"ефективното":9706,"drawing":9707,"семействата":9708,"инфраструктурата":9709,"вариан":9710,"риболова":9711,"амбициозни":9712,"proceedings":9713,"acquis":9714,"неприкосно":9715,"War":9716,"Южен":9717,"ьо":9718,"atta":9719,"лината":9720,"пречи":9721,"митни":9722,"изго":9723,"цип":9724,"conserv":9725,"unemployed":9726,"appointed":9727,"urely":9728,"губ":9729,"формите":9730,"последствие":9731,"generally":9732,"подчертае":9733,"устойчиви":9734,"внесени":9735,"водеща":9736,"Целите":9737,"consult":9738,"graphic":9739,"floor":9740,"суверените":9741,"Агенцията":9742,"Az":9743,"base":9744,"fru":9745,"реност":9746,"offered":9747,"отказ":9748,"същи":9749,"госла":9750,"пети":9751,"барие":9752,"търсят":9753,"казахте":9754,"предоставени":9755,"реална":9756,"Изразя":9757,"мястото":9758,"dependence":9759,"identified":9760,"ministers":9761,"постоянен":9762,"представителите":9763,"разбиране":9764,"Сигу":9765,"launched":9766,"дисцип":9767,"southern":9768,"влича":9769,"плу":9770,"пола":9771,"виду":9772,"resist":9773,"poorest":9774,"връх":9775,"първия":9776,"greatly":9777,"nationals":9778,"elector":9779,"позволяват":9780,"plays":9781,"identity":9782,"Бел":9783,"constitute":9784,"ключов":9785,"pursue":9786,"Environment":9787,"осведоме":9788,"supervisory":9789,"мониторинг":9790,"auster":9791,"uk":9792,"пче":9793,"наша":9794,"личния":9795,"contrad":9796,"щети":9797,"modif":9798,"бина":9799,"богат":9800,"aud":9801,"различно":9802,"определянето":9803,"конкретна":9804,"contributed":9805,"contributing":9806,"Conference":9807,"amending":9808,"phys":9809,"ambition":9810,"profit":9811,"constitu":9812,"запаси":9813,"екологичните":9814,"каквато":9815,"Балтий":9816,"експерти":9817,"austerity":9818,"Бю":9819,"нари":9820,"ващ":9821,"подложени":9822,"cipl":9823,"tried":9824,"лагането":9825,"определена":9826,"едновременно":9827,"зираме":9828,"players":9829,"справедлив":9830,"валутен":9831,"credible":9832,"conduct":9833,"продоволствената":9834,"Regional":9835,"фура":9836,"Ирак":9837,"eries":9838,"нетърпение":9839,"полице":9840,"венция":9841,"proposes":9842,"centres":9843,"Резолю":9844,"expand":9845,"събиране":9846,"intends":9847,"domin":9848,"ангажираност":9849,"Стратегията":9850,"комитет":9851,"conciliation":9852,"здравосло":9853,"gamb":9854,"oting":9855,"закъс":9856,"неле":9857,"becomes":9858,"моля":9859,"въоръ":9860,"resource":9861,"imag":9862,"regis":9863,"someone":9864,"saw":9865,"отговорно":9866,"рамката":9867,"ulture":9868,"национален":9869,"последствия":9870,"свързаните":9871,"стопанства":9872,"ционната":9873,"регионалната":9874,"качествени":9875,"turning":9876,"допълнителна":9877,"addressing":9878,"морските":9879,"опасни":9880,"дял":9881,"балансиран":9882,"алтернативни":9883,"клауза":9884,"биологичното":9885,"характеристики":9886,"дръж":9887,"Словакия":9888,"Mex":9889,"nity":9890,"iny":9891,"protocol":9892,"noted":9893,"options":9894,"2050":9895,"жив":9896,"count":9897,"undoub":9898,"интензи":9899,"minute":9900,"получим":9901,"автор":9902,"автоно":9903,"Any":9904,"treaties":9905,"фондовете":9906,"показатели":9907,"check":9908,"конфликта":9909,"употребата":9910,"незаконната":9911,"destru":9912,"кандида":9913,"exports":9914,"Sweden":9915,"жилищ":9916,"System":9917,"hundreds":9918,"Mexic":9919,"Act":9920,"Mor":9921,"ior":9922,"Кри":9923,"Хер":9924,"двой":9925,"нди":9926,"щя":9927,"износ":9928,"unders":9929,"зон":9930,"тресе":9931,"центро":9932,"помогна":9933,"създадени":9934,"belief":9935,"разглеждане":9936,"започва":9937,"строго":9938,"mandatory":9939,"спад":9940,"naturally":9941,"encouraged":9942,"amongst":9943,"neighbourhood":9944,"mployment":9945,"доказателства":9946,"greenhouse":9947,"процент":9948,"марки":9949,"дълбоко":9950,"pollution":9951,"легитим":9952,"Босна":9953,"estimated":9954,"enabling":9955,"индивиду":9956,"Вярно":9957,"Bosnia":9958,"feder":9959,"gies":9960,"сви":9961,"убед":9962,"reens":9963,"вели":9964,"лон":9965,"оръж":9966,"възниква":9967,"трета":9968,"регистри":9969,"работо":9970,"ships":9971,"helped":9972,"насърчаваме":9973,"структурни":9974,"ангажиментите":9975,"visit":9976,"parents":9977,"threats":9978,"загуба":9979,"substance":9980,"coordinate":9981,"massive":9982,"потреблението":9983,"infringe":9984,"Вторият":9985,"AF":9986,"ered":9987,"eight":9988,"ff":9989,"став":9990,"aband":9991,"шено":9992,"ложено":9993,"supposed":9994,"сигурен":9995,"годината":9996,"въпросните":9997,"politically":9998,"нашият":9999,"fig":10000,"гражданин":10001,"текстове":10002,"generations":10003,"достатъчна":10004,"significance":10005,"Agenda":10006,"мобилността":10007,"сфера":10008,"constantly":10009,"затруднения":10010,"eliminate":10011,"Slovakia":10012,"destroy":10013,"ET":10014,"Res":10015,"pain":10016,"актуа":10017,"жта":10018,"кредите":10019,"тръ":10020,"пожа":10021,"err":10022,"ali":10023,"stone":10024,"приходи":10025,"oppose":10026,"spects":10027,"процеси":10028,"демограф":10029,"настояваме":10030,"ables":10031,"visas":10032,"structuring":10033,"успеха":10034,"канския":10035,"previously":10036,"Cohesion":10037,"running":10038,"призива":10039,"упражнява":10040,"обратно":10041,"spoken":10042,"разберем":10043,"Authority":10044,"кредитен":10045,"ume":10046,"поми":10047,"понен":10048,"лих":10049,"raising":10050,"жие":10051,"economically":10052,"свой":10053,"trave":10054,"ползват":10055,"подобна":10056,"защитават":10057,"requests":10058,"провеждат":10059,"favourable":10060,"achievement":10061,"малцинство":10062,"responding":10063,"устойчивостта":10064,"планира":10065,"prisoners":10066,"gambling":10067,"индивидуа":10068,"Cor":10069,"Fish":10070,"Rese":10071,"ik":10072,"моти":10073,"важи":10074,"недости":10075,"гора":10076,"доход":10077,"kept":10078,"exclud":10079,"важната":10080,"предложените":10081,"създаден":10082,"подобрят":10083,"провеждане":10084,"реалната":10085,"closure":10086,"accessible":10087,"отговорности":10088,"benefici":10089,"efficiently":10090,"appropriations":10091,"администрация":10092,"Гово":10093,"links":10094,"достигна":10095,"разпределение":10096,"забране":10097,"работното":10098,"Служ":10099,"Източна":10100,"Судан":10101,"Research":10102,"stock":10103,"Член":10104,"набле":10105,"stip":10106,"предприя":10107,"Thurs":10108,"развиват":10109,"гаранция":10110,"различията":10111,"regulated":10112,"публику":10113,"насочено":10114,"всякакви":10115,"aily":10116,"Polish":10117,"дългосрочни":10118,"nevertheless":10119,"близко":10120,"penalties":10121,"променят":10122,"spoke":10123,"предимство":10124,"Latin":10125,"intellect":10126,"режима":10127,"electricity":10128,"интелектуа":10129,"undoubtedly":10130,"Go":10131,"Greens":10132,"IMF":10133,"daily":10134,"ito":10135,"ration":10136,"went":10137,"wider":10138,"тият":10139,"entail":10140,"assets":10141,"преживя":10142,"прогно":10143,"правен":10144,"version":10145,"commod":10146,"меня":10147,"acting":10148,"pled":10149,"циониз":10150,"следващото":10151,"пътни":10152,"публикува":10153,"depends":10154,"съдържание":10155,"годишната":10156,"имиграцията":10157,"granting":10158,"нужди":10159,"distort":10160,"съдебната":10161,"passenger":10162,"готовност":10163,"визовия":10164,"съображения":10165,"convergence":10166,"Jo":10167,"paper":10168,"кциите":10169,"нските":10170,"restructuring":10171,"стър":10172,"мощ":10173,"правните":10174,"рявам":10175,"except":10176,"claims":10177,"discipl":10178,"undertaking":10179,"demographic":10180,"правителствените":10181,"tight":10182,"въведат":10183,"careful":10184,"chosen":10185,"warning":10186,"единствената":10187,"хилядо":10188,"regrettable":10189,"съобщението":10190,"universal":10191,"historical":10192,"Monten":10193,"acknowled":10194,"published":10195,"самостоятелно":10196,"heavy":10197,"Thursday":10198,"National":10199,"gave":10200,"Мек":10201,"невъзможно":10202,"detri":10203,"подпомогне":10204,"ended":10205,"endorse":10206,"Тогава":10207,"тирам":10208,"issued":10209,"обсъждането":10210,"opened":10211,"profits":10212,"езици":10213,"разглеждат":10214,"пълен":10215,"Черна":10216,"тежки":10217,"honour":10218,"въведем":10219,"материа":10220,"материали":10221,"Obama":10222,"Nether":10223,"exceptional":10224,"EF":10225,"Its":10226,"xed":10227,"нед":10228,"преговаря":10229,"гове":10230,"utmost":10231,"host":10232,"consent":10233,"attle":10234,"заповед":10235,"висок":10236,"environmentally":10237,"стабилна":10238,"Constitution":10239,"степента":10240,"follows":10241,"признае":10242,"отделно":10243,"civilian":10244,"listen":10245,"Саха":10246,"интеграцията":10247,"пътища":10248,"Друг":10249,"Обама":10250,"съседи":10251,"Asia":10252,"legitimacy":10253,"Мекси":10254,"Netherlands":10255,"bul":10256,"Рад":10257,"isol":10258,"chair":10259,"ulations":10260,"urgency":10261,"meat":10262,"бъдещото":10263,"Then":10264,"бал":10265,"дълга":10266,"основният":10267,"faith":10268,"предишното":10269,"рамко":10270,"здравните":10271,"ционния":10272,"съответства":10273,"lasting":10274,"големият":10275,"ограничава":10276,"извършени":10277,"транспортни":10278,"верси":10279,"властта":10280,"science":10281,"възрастните":10282,"correctly":10283,"driving":10284,"заинтересованите":10285,"manufacturers":10286,"Куба":10287,"субекти":10288,"обезщете":10289,"белгий":10290,"араб":10291,"афри":10292,"оказват":10293,"телеви":10294,"forcing":10295,"изслуш":10296,"пече":10297,"придви":10298,"ложена":10299,"guid":10300,"proved":10301,"основано":10302,"competent":10303,"срокове":10304,"leads":10305,"sphere":10306,"решат":10307,"vari":10308,"appears":10309,"Групата":10310,"historic":10311,"изключителна":10312,"swift":10313,"secution":10314,"Фактът":10315,"revenue":10316,"приблизително":10317,"intellectual":10318,"EM":10319,"Follow":10320,"нски":10321,"усе":10322,"неизбе":10323,"лация":10324,"моно":10325,"проспе":10326,"доколкото":10327,"разследване":10328,"Създа":10329,"timely":10330,"fulfill":10331,"transitional":10332,"помоля":10333,"гарантирането":10334,"consci":10335,"бедствие":10336,"снаб":10337,"novation":10338,"механизма":10339,"допринасят":10340,"1990":10341,"разпространението":10342,"преразглеждането":10343,"съобразно":10344,"генера":10345,"universities":10346,"земеделие":10347,"Считаме":10348,"Agriculture":10349,"Солидарност":10350,"divid":10351,"Дали":10352,"мнения":10353,"юри":10354,"река":10355,"веността":10356,"бер":10357,"глава":10358,"imported":10359,"пълната":10360,"channe":10361,"политическия":10362,"mono":10363,"necessity":10364,"negotiate":10365,"активни":10366,"виждам":10367,"Втората":10368,"multiannual":10369,"лизма":10370,"стимулиране":10371,"arguments":10372,"потребности":10373,"egro":10374,"NGOs":10375,"communications":10376,"satisfactory":10377,"тълку":10378,"restore":10379,"комунисти":10380,"terrible":10381,"Mexico":10382,"Moroc":10383,"Montenegro":10384,"Red":10385,"SP":10386,"наче":10387,"обо":10388,"celer":10389,"върне":10390,"върнем":10391,"възстано":10392,"говорят":10393,"codecision":10394,"имате":10395,"годишен":10396,"внос":10397,"приемаме":10398,"местното":10399,"реални":10400,"изискване":10401,"енергиен":10402,"насоките":10403,"бърза":10404,"controver":10405,"sensible":10406,"patent":10407,"privacy":10408,"убежището":10409,"върховен":10410,"пътуват":10411,"отбрана":10412,"сградите":10413,"worrying":10414,"weapons":10415,"figure":10416,"Fisheries":10417,"IP":10418,"Yu":10419,"fem":10420,"fers":10421,"rout":10422,"йския":10423,"никаква":10424,"tood":10425,"отказа":10426,"тип":10427,"годе":10428,"dered":10429,"жена":10430,"развойна":10431,"предпоста":10432,"базата":10433,"viable":10434,"itig":10435,"intens":10436,"Нашата":10437,"financed":10438,"гласуват":10439,"насърчим":10440,"насока":10441,"Consum":10442,"достатъчни":10443,"spite":10444,"доволна":10445,"powerful":10446,"глобално":10447,"превоз":10448,"Socialists":10449,"природните":10450,"Лат":10451,"Before":10452,"populations":10453,"количе":10454,"societies":10455,"вариант":10456,"understood":10457,"Ma":10458,"crop":10459,"eli":10460,"сгради":10461,"inspe":10462,"позова":10463,"запад":10464,"род":10465,"чем":10466,"преферен":10467,"изкажа":10468,"whatever":10469,"разграни":10470,"разговори":10471,"чие":10472,"emen":10473,"acceler":10474,"possibilities":10475,"endors":10476,"останали":10477,"approx":10478,"финансира":10479,"съответно":10480,"известен":10481,"turned":10482,"обясни":10483,"release":10484,"Here":10485,"човешкото":10486,"consistency":10487,"летието":10488,"улесняване":10489,"Албания":10490,"schools":10491,"Colle":10492,"животно":10493,"вус":10494,"вдъ":10495,"reconstruction":10496,"ваща":10497,"репре":10498,"error":10499,"roots":10500,"линия":10501,"събра":10502,"обединените":10503,"imes":10504,"лязат":10505,"политици":10506,"foremost":10507,"пълното":10508,"intensive":10509,"symp":10510,"провеждането":10511,"investors":10512,"неговия":10513,"ционно":10514,"насочен":10515,"valid":10516,"авторите":10517,"автомати":10518,"affects":10519,"Беше":10520,"помагат":10521,"applicable":10522,"превозва":10523,"sufficiently":10524,"extending":10525,"възползва":10526,"доказателство":10527,"заслужават":10528,"обикновените":10529,"независими":10530,"исторически":10531,"concentrate":10532,"flows":10533,"четвъртък":10534,"Heads":10535,"scrut":10536,"Lef":10537,"кър":10538,"измер":10539,"износа":10540,"imbalances":10541,"ностран":10542,"complement":10543,"зове":10544,"Положението":10545,"relates":10546,"комп":10547,"оценки":10548,"прозрачни":10549,"secondly":10550,"дългосрочна":10551,"Какви":10552,"checks":10553,"незаконно":10554,"международен":10555,"организираната":10556,"административните":10557,"succeeded":10558,"glad":10559,"облигации":10560,"кораби":10561,"Albania":10562,"Following":10563,"Латвия":10564,"Left":10565,"36":10566,"МО":10567,"Чрез":10568,"реформите":10569,"отнасят":10570,"въгли":10571,"изпита":10572,"wered":10573,"суми":10574,"Well":10575,"облагоде":10576,"търси":10577,"казвам":10578,"подобен":10579,"собено":10580,"authorisation":10581,"largely":10582,"миграцията":10583,"събирането":10584,"ifying":10585,"heritage":10586,"приемливо":10587,"връщане":10588,"установяването":10589,"прояви":10590,"поколение":10591,"пътуване":10592,"nearly":10593,"изчерпа":10594,"Австрия":10595,"трагед":10596,"Балтийско":10597,"Vi":10598,"VIT":10599,"Will":10600,"иран":10601,"чките":10602,"шият":10603,"вана":10604,"enn":10605,"роят":10606,"prohib":10607,"разследва":10608,"праг":10609,"licit":10610,"фини":10611,"fine":10612,"supplement":10613,"prefer":10614,"нужно":10615,"основани":10616,"extensive":10617,"чуде":10618,"completed":10619,"намиране":10620,"разшири":10621,"moral":10622,"supplies":10623,"положителна":10624,"Ministers":10625,"парламентарен":10626,"временното":10627,"satisfied":10628,"proportionate":10629,"светлината":10630,"кръг":10631,"bureaucratic":10632,"еднакво":10633,"interpretation":10634,"Става":10635,"континент":10636,"субсидиарност":10637,"протекциониз":10638,"tragedy":10639,"WI":10640,"Where":10641,"eye":10642,"sad":10643,"такси":10644,"теми":10645,"носите":10646,"ery":10647,"несигурност":10648,"рират":10649,"отсъ":10650,"масо":10651,"вис":10652,"bearing":10653,"compon":10654,"борят":10655,"plural":10656,"track":10657,"somewhat":10658,"социалния":10659,"трансатланти":10660,"последния":10661,"намираме":10662,"съгласието":10663,"зачитат":10664,"беляза":10665,"indicators":10666,"завърш":10667,"предотвратяването":10668,"Latvia":10669,"резерви":10670,"потоци":10671,"корпо":10672,"затворници":10673,"fruit":10674,"abandon":10675,"хилядолетието":10676,"pu":10677,"Особено":10678,"reaction":10679,"новете":10680,"диверси":10681,"пери":10682,"hearing":10683,"ague":10684,"подле":10685,"следването":10686,"тура":10687,"кратък":10688,"икономиките":10689,"cycl":10690,"иму":10691,"debated":10692,"highlights":10693,"evening":10694,"protectionism":10695,"принципът":10696,"collap":10697,"потребител":10698,"accidents":10699,"showing":10700,"promised":10701,"добрият":10702,"Мина":10703,"незаконни":10704,"ключово":10705,"информира":10706,"върховния":10707,"субсидии":10708,"occasions":10709,"lobby":10710,"арест":10711,"обслужване":10712,"Perhaps":10713,"тласък":10714,"оръжия":10715,"Ky":10716,"Public":10717,"bound":10718,"cofin":10719,"sil":10720,"ВФ":10721,"ИП":10722,"удовол":10723,"шният":10724,"тов":10725,"ature":10726,"tou":10727,"лични":10728,"преследване":10729,"фир":10730,"многообрази":10731,"Дово":10732,"енерго":10733,"Consequently":10734,"вземането":10735,"крайбре":10736,"easily":10737,"annivers":10738,"административни":10739,"либералите":10740,"консул":10741,"partnerships":10742,"амбициозна":10743,"надеждни":10744,"рисковете":10745,"preparation":10746,"pillar":10747,"квоти":10748,"парникови":10749,"плура":10750,"49":10751,"Est":10752,"Freedom":10753,"SWI":10754,"cop":10755,"mitig":10756,"Али":10757,"Тран":10758,"кцията":10759,"мъл":10760,"окажат":10761,"никакво":10762,"oral":10763,"sele":10764,"изви":10765,"ligent":10766,"ждаване":10767,"някаква":10768,"дателите":10769,"undertaken":10770,"seeks":10771,"частния":10772,"стабилизиране":10773,"хими":10774,"гражданските":10775,"maintained":10776,"самия":10777,"потвърждава":10778,"allocation":10779,"harmful":10780,"absence":10781,"tough":10782,"SWIFT":10783,"Гжо":10784,"ьом":10785,"remove":10786,"вът":10787,"дост":10788,"изход":10789,"orture":10790,"стотици":10791,"мислят":10792,"възлиза":10793,"gosla":10794,"ктът":10795,"stands":10796,"approve":10797,"строй":10798,"representation":10799,"Вашето":10800,"Protocol":10801,"плащането":10802,"механизмите":10803,"създадена":10804,"fields":10805,"fishermen":10806,"войната":10807,"запазването":10808,"бюрокрацията":10809,"проучвания":10810,"arrangements":10811,"шанс":10812,"phenomenon":10813,"Yugosla":10814,"eastern":10815,"remarks":10816,"ващите":10817,"стр":10818,"погре":10819,"роко":10820,"петро":10821,"примери":10822,"подходи":10823,"подхода":10824,"бене":10825,"болни":10826,"door":10827,"имало":10828,"iculty":10829,"transaction":10830,"transatlantic":10831,"съмнения":10832,"producing":10833,"национална":10834,"изискването":10835,"difficulty":10836,"бюджетна":10837,"ambitions":10838,"включат":10839,"включим":10840,"престъпление":10841,"charges":10842,"suspend":10843,"Israeli":10844,"тинска":10845,"разпространение":10846,"attempts":10847,"counterfe":10848,"измами":10849,"anniversary":10850,"SOL":10851,"mical":10852,"МВФ":10853,"юс":10854,"мана":10855,"визия":10856,"дола":10857,"израел":10858,"aren":10859,"стани":10860,"Съв":10861,"представят":10862,"inclusive":10863,"governing":10864,"qualifications":10865,"благоден":10866,"ктуали":10867,"яснота":10868,"cars":10869,"посочени":10870,"данъчното":10871,"движението":10872,"Regard":10873,"мнозина":10874,"Подкрепи":10875,"сключването":10876,"прекъс":10877,"болез":10878,"Латинска":10879,"задоволите":10880,"Austria":10881,"assume":10882,"SOLVIT":10883,"евти":10884,"опозицията":10885,"кого":10886,"кат":10887,"водни":10888,"below":10889,"разбра":10890,"споме":10891,"creates":10892,"transl":10893,"пуск":10894,"facts":10895,"радика":10896,"conditional":10897,"qualified":10898,"investing":10899,"инвестира":10900,"обсъди":10901,"фикацията":10902,"съдържат":10903,"стрес":10904,"съвместни":10905,"Director":10906,"reflected":10907,"catch":10908,"deficits":10909,"Швейца":10910,"предпочита":10911,"Yemen":10912,"astr":10913,"поток":10914,"нелоя":10915,"ros":10916,"лайн":10917,"lease":10918,"могла":10919,"падат":10920,"приве":10921,"щеше":10922,"iders":10923,"illenn":10924,"dos":10925,"зони":10926,"едностран":10927,"постижения":10928,"защитят":10929,"казване":10930,"boo":10931,"processing":10932,"новатор":10933,"deserve":10934,"Contro":10935,"желал":10936,"cutting":10937,"изготвяне":10938,"constitutes":10939,"offering":10940,"Съгласно":10941,"цялостна":10942,"правосъдието":10943,"приобщаване":10944,"непосред":10945,"appreciate":10946,"redundant":10947,"Проблемът":10948,"physical":10949,"центрове":10950,"вусмисле":10951,"стрьом":10952,"150":10953,"45":10954,"rust":10955,"актуали":10956,"зам":10957,"забеле":10958,"карти":10959,"пристра":10960,"actors":10961,"preserve":10962,"труден":10963,"Парт":10964,"бързи":10965,"безопасни":10966,"мигранти":10967,"дружество":10968,"опитват":10969,"connected":10970,"Iranian":10971,"carrying":10972,"конституция":10973,"obtained":10974,"elsewhere":10975,"авиа":10976,"затваря":10977,"reply":10978,"Cuba":10979,"Швейцария":10980,"NR":10981,"rum":10982,"ugu":10983,"öm":10984,"Кан":10985,"Ле":10986,"указа":10987,"хите":10988,"ange":10989,"посрещ":10990,"мол":10991,"телност":10992,"opard":10993,"възнагра":10994,"туристи":10995,"ström":10996,"Повече":10997,"плате":10998,"ageing":10999,"surely":11000,"regardless":11001,"necessarily":11002,"pense":11003,"Изме":11004,"smart":11005,"pharma":11006,"freely":11007,"background":11008,"Първият":11009,"годишните":11010,"равнове":11011,"очакванията":11012,"потенциала":11013,"задълбочено":11014,"подробности":11015,"genuinely":11016,"Portugu":11017,"измамите":11018,"домаки":11019,"левица":11020,"независима":11021,"argument":11022,"conducted":11023,"кампания":11024,"задоволство":11025,"осъществяване":11026,"Neighbour":11027,"schemes":11028,"компаниите":11029,"дойде":11030,"struggle":11031,"earthqu":11032,"Изразявам":11033,"нарича":11034,"sor":11035,"юл":11036,"накратко":11037,"отстра":11038,"визите":11039,"говина":11040,"цеговина":11041,"инг":11042,"база":11043,"Internal":11044,"jeopard":11045,"ползва":11046,"първият":11047,"уведо":11048,"последствията":11049,"достъпни":11050,"достъпът":11051,"доволни":11052,"културно":11053,"expensive":11054,"опитваме":11055,"flag":11056,"отговарящ":11057,"obliged":11058,"избегнем":11059,"президентът":11060,"Знам":11061,"окончателното":11062,"Both":11063,"поколения":11064,"Херцеговина":11065,"Portuguese":11066,"Black":11067,"DC":11068,"rare":11069,"тар":11070,"мас":11071,"seas":11072,"prospects":11073,"impression":11074,"exceed":11075,"концентри":11076,"туризъм":11077,"знания":11078,"губи":11079,"свои":11080,"Налице":11081,"considers":11082,"puts":11083,"осигуряват":11084,"изпълнят":11085,"causing":11086,"горива":11087,"заплахи":11088,"tradition":11089,"годишния":11090,"медии":11091,"съседните":11092,"демонстра":11093,"specul":11094,"pollut":11095,"leaving":11096,"Хората":11097,"hazard":11098,"dynamic":11099,"осиновя":11100,"Le":11101,"dens":11102,"sl":11103,"гър":11104,"inj":11105,"заве":11106,"чената":11107,"чисто":11108,"accus":11109,"духа":11110,"essentially":11111,"mistake":11112,"regimes":11113,"многократно":11114,"отговора":11115,"подобрение":11116,"location":11117,"Източното":11118,"ограничени":11119,"културни":11120,"допринесат":11121,"истинско":11122,"заключения":11123,"revised":11124,"поддържат":11125,"търсещи":11126,"перспективи":11127,"печата":11128,"pipe":11129,"достойнство":11130,"forests":11131,"заблу":11132,"идентифици":11133,"училище":11134,"willingness":11135,"drafting":11136,"piece":11137,"Йемен":11138,"illennium":11139,"55":11140,"hn":11141,"pa":11142,"Стру":11143,"дността":11144,"ъде":11145,"вателни":11146,"touch":11147,"arising":11148,"asing":11149,"профи":11150,"secut":11151,"ceut":11152,"стимул":11153,"teach":11154,"вяват":11155,"timber":11156,"основите":11157,"фарма":11158,"доведоха":11159,"regulate":11160,"намаление":11161,"etc":11162,"пазарна":11163,"запозна":11164,"imately":11165,"въвежда":11166,"Моля":11167,"района":11168,"общественост":11169,"бюджетната":11170,"ECB":11171,"livestock":11172,"стимулира":11173,"оръжие":11174,"worthy":11175,"EPA":11176,"замърсяване":11177,"пръв":11178,"вдигане":11179,"ваксини":11180,"надзора":11181,"залегна":11182,"robust":11183,"Белгия":11184,"вдъх":11185,"dossi":11186,"ceutical":11187,"Civ":11188,"envis":11189,"erad":11190,"коло":11191,"лаге":11192,"тивните":11193,"доходи":11194,"пристани":11195,"вяване":11196,"posite":11197,"obser":11198,"народи":11199,"рамкова":11200,"пътници":11201,"причинени":11202,"employers":11203,"Приема":11204,"amended":11205,"първостепенно":11206,"промишлени":11207,"активна":11208,"протокол":11209,"забраната":11210,"останалата":11211,"harmonised":11212,"лекарствени":11213,"declared":11214,"Шенгенското":11215,"block":11216,"максимално":11217,"occasion":11218,"restricted":11219,"списъка":11220,"обединена":11221,"journalists":11222,"female":11223,"Подкрепих":11224,"Control":11225,"Neighbourhood":11226,"65":11227,"GA":11228,"Please":11229,"jur":11230,"лд":11231,"forum":11232,"дифици":11233,"noon":11234,"сар":11235,"ops":11236,"opposite":11237,"possibly":11238,"foster":11239,"добрия":11240,"dispar":11241,"importantly":11242,"европейският":11243,"underline":11244,"начинът":11245,"предоставим":11246,"траги":11247,"knows":11248,"стойно":11249,"regarded":11250,"чуя":11251,"нарушава":11252,"глобалната":11253,"влиянието":11254,"referring":11255,"Вели":11256,"разработване":11257,"нарушенията":11258,"deeply":11259,"контролира":11260,"спрем":11261,"стълб":11262,"secret":11263,"angible":11264,"популяри":11265,"relatively":11266,"destruction":11267,"CF":11268,"Employment":11269,"PNR":11270,"bing":11271,"rou":11272,"vina":11273,"ено":11274,"inhabit":11275,"нивото":11276,"вашата":11277,"armed":11278,"изправе":11279,"unless":11280,"abroad":11281,"team":11282,"govina":11283,"cert":11284,"анта":11285,"границата":11286,"положени":11287,"постигнали":11288,"eurozone":11289,"USD":11290,"координацията":11291,"seekers":11292,"смятаме":11293,"видяхме":11294,"zegovina":11295,"complaints":11296,"Herzegovina":11297,"Радвам":11298,"бенефици":11299,"Civil":11300,"Car":11301,"Sh":11302,"bra":11303,"eyes":11304,"Гражда":11305,"жната":11306,"thly":11307,"напус":11308,"reve":11309,"отчети":11310,"преследва":11311,"преобла":11312,"прегледа":11313,"тично":11314,"web":11315,"румъ":11316,"държи":11317,"хомо":11318,"acerb":11319,"exacerb":11320,"някъде":11321,"бай":11322,"дейра":11323,"tragic":11324,"средата":11325,"политическото":11326,"проведени":11327,"virt":11328,"компенси":11329,"socio":11330,"remaining":11331,"глобалното":11332,"готовка":11333,"receiving":11334,"опросте":11335,"doubts":11336,"shame":11337,"отбелязва":11338,"friends":11339,"директо":11340,"протести":11341,"Политиката":11342,"забележки":11343,"дисциплина":11344,"Joint":11345,"Cl":11346,"Mus":11347,"wan":11348,"впоследствие":11349,"дво":11350,"ете":11351,"игри":11352,"кса":11353,"важа":11354,"пони":11355,"побе":11356,"entered":11357,"decre":11358,"cel":11359,"expense":11360,"следват":11361,"туризма":11362,"managing":11363,"audit":11364,"трето":11365,"transposition":11366,"онлайн":11367,"сегашното":11368,"специален":11369,"дадено":11370,"Договорите":11371,"информационна":11372,"посочено":11373,"публичния":11374,"грижа":11375,"rank":11376,"големия":11377,"fairly":11378,"controlled":11379,"awa":11380,"tuna":11381,"assessments":11382,"нейния":11383,"семейството":11384,"revolution":11385,"самият":11386,"тежестта":11387,"ignore":11388,"омбудсман":11389,"чужбина":11390,"взима":11391,"погледнем":11392,"compatible":11393,"просперите":11394,"pharmaceutical":11395,"hence":11396,"iz":11397,"torture":11398,"uff":11399,"Сред":11400,"Твър":11401,"накара":11402,"lebr":11403,"виза":11404,"пести":11405,"proof":11406,"разработи":11407,"celebr":11408,"Колко":11409,"басе":11410,"tape":11411,"percent":11412,"ползотво":11413,"представяне":11414,"докладите":11415,"ensured":11416,"способни":11417,"interinstitutional":11418,"Conserv":11419,"трудностите":11420,"повишаването":11421,"Centre":11422,"Services":11423,"presidency":11424,"radical":11425,"нелега":11426,"IL":11427,"band":11428,"hor":11429,"Уважа":11430,"християн":11431,"inev":11432,"rees":11433,"пожела":11434,"дефини":11435,"мага":11436,"приходите":11437,"щето":11438,"предвиди":11439,"util":11440,"unnecessary":11441,"rific":11442,"dump":11443,"плановете":11444,"reporting":11445,"proven":11446,"отговоря":11447,"courts":11448,"чухме":11449,"generate":11450,"Мароко":11451,"споменато":11452,"глобален":11453,"стратегическо":11454,"поддържаме":11455,"подпис":11456,"colleague":11457,"мобилизиране":11458,"delays":11459,"недостатъци":11460,"depth":11461,"ориентация":11462,"режими":11463,"evaluate":11464,"waters":11465,"Барние":11466,"мляко":11467,"оптими":11468,"reiterate":11469,"ръцете":11470,"африкан":11471,"юсюл":11472,"Dut":11473,"Mer":11474,"Ат":11475,"Ром":11476,"лоби":11477,"хе":11478,"толе":11479,"дамента":11480,"откло":11481,"ителни":11482,"изясни":11483,"пакт":11484,"imposing":11485,"losing":11486,"стие":11487,"цевти":11488,"стовете":11489,"irregular":11490,"върви":11491,"missions":11492,"jection":11493,"търсим":11494,"resolving":11495,"основават":11496,"групите":11497,"helps":11498,"ength":11499,"конкретните":11500,"всякога":11501,"стабилни":11502,"въведени":11503,"choices":11504,"споменах":11505,"земетресе":11506,"emphasised":11507,"задачи":11508,"полети":11509,"feeling":11510,"placing":11511,"students":11512,"motions":11513,"Възмож":11514,"забавяне":11515,"announce":11516,"intelligent":11517,"Budget":11518,"спечели":11519,"intervene":11520,"400":11521,"Ham":11522,"Tai":11523,"ава":11524,"счето":11525,"засел":11526,"отблизо":11527,"stuff":11528,"aside":11529,"съхра":11530,"дело":11531,"измина":11532,"unprecedent":11533,"чийто":11534,"usal":11535,"accur":11536,"shr":11537,"гласи":11538,"trace":11539,"втората":11540,"island":11541,"специална":11542,"ограничи":11543,"световния":11544,"датели":11545,"explicit":11546,"minister":11547,"премахне":11548,"справедлива":11549,"letter":11550,"Secre":11551,"заявява":11552,"kinds":11553,"внесено":11554,"съкраща":11555,"weakness":11556,"Chair":11557,"бюрокрация":11558,"Britain":11559,"Belgium":11560,"надеждата":11561,"Арктика":11562,"Съществува":11563,"баронеса":11564,"collaboration":11565,"Службата":11566,"juris":11567,"unprecedented":11568,"Leg":11569,"Millennium":11570,"diction":11571,"mits":11572,"pact":11573,"sport":11574,"vast":11575,"насил":11576,"заме":11577,"отчете":11578,"изтича":11579,"телствата":11580,"върши":11581,"бога":11582,"следвало":11583,"зелена":11584,"evident":11585,"хуба":11586,"безпрецеден":11587,"мум":11588,"compul":11589,"Assembly":11590,"опити":11591,"несени":11592,"енергийния":11593,"viously":11594,"фундамента":11595,"справедливи":11596,"consequence":11597,"ядрени":11598,"превърна":11599,"calc":11600,"ускори":11601,"catast":11602,"OSCE":11603,"предупреждение":11604,"straight":11605,"Решението":11606,"errors":11607,"Muslim":11608,"Taiwan":11609,"Bur":11610,"наста":11611,"stree":11612,"съоръ":11613,"доно":11614,"det":11615,"ган":11616,"lif":11617,"emor":11618,"pring":11619,"отговорен":11620,"apparen":11621,"signing":11622,"interim":11623,"Изглежда":11624,"Предложе":11625,"Also":11626,"Romanian":11627,"партньорства":11628,"еколо":11629,"повлия":11630,"integrity":11631,"регулирането":11632,"изявлението":11633,"окончателно":11634,"medicinal":11635,"адекватно":11636,"териториално":11637,"ЕЦБ":11638,"Кризата":11639,"federal":11640,"предприятие":11641,"discipline":11642,"controversi":11643,"inhabitants":11644,"Атланти":11645,"apparent":11646,"Day":11647,"ОСС":11648,"ав":11649,"алко":11650,"назад":11651,"petr":11652,"донесе":11653,"raid":11654,"adjust":11655,"поддръж":11656,"държавния":11657,"ifies":11658,"cancer":11659,"Information":11660,"perpetr":11661,"eva":11662,"свободни":11663,"съглася":11664,"farms":11665,"respects":11666,"наличните":11667,"половината":11668,"услуга":11669,"съществуващата":11670,"buy":11671,"отделя":11672,"забравя":11673,"looked":11674,"holds":11675,"shortcoming":11676,"burdens":11677,"отхвърли":11678,"делеги":11679,"процента":11680,"нататъшно":11681,"бизнеса":11682,"Transport":11683,"characteristics":11684,"чакаме":11685,"entrepreneurs":11686,"персонал":11687,"solely":11688,"хазарт":11689,"зависят":11690,"routes":11691,"Dutch":11692,"controversial":11693,"ОССЕ":11694,"34":11695,"PS":11696,"Su":11697,"bir":11698,"length":11699,"purely":11700,"rant":11701,"slight":11702,"tangible":11703,"usion":11704,"ОП":11705,"свете":11706,"уче":11707,"помислим":11708,"erly":11709,"недопусти":11710,"роди":11711,"вобо":11712,"conce":11713,"правното":11714,"irect":11715,"ключова":11716,"contam":11717,"безспо":11718,"minim":11719,"beings":11720,"направиха":11721,"връзката":11722,"respecting":11723,"deserves":11724,"световните":11725,"ferences":11726,"хвърля":11727,"бързото":11728,"явление":11729,"извършване":11730,"отхвърля":11731,"delegations":11732,"установим":11733,"принудени":11734,"disputes":11735,"тариф":11736,"irable":11737,"beneficiaries":11738,"Made":11739,"She":11740,"arms":11741,"държавна":11742,"fewer":11743,"Коми":11744,"приехме":11745,"proval":11746,"undermine":11747,"създаваме":11748,"sites":11749,"Договор":11750,"Отгово":11751,"openness":11752,"promoted":11753,"решават":11754,"признаването":11755,"отношението":11756,"сближаването":11757,"focusing":11758,"заплатите":11759,"законно":11760,"Approval":11761,"modernisation":11762,"еднакви":11763,"евентуално":11764,"коментари":11765,"извънредни":11766,"религиозни":11767,"storage":11768,"Резолюцията":11769,"маркиро":11770,"Morocco":11771,"approximately":11772,"birth":11773,"Nab":11774,"black":11775,"hung":11776,"wage":11777,"wine":11778,"нския":11779,"recall":11780,"поглед":11781,"затоп":11782,"отраз":11783,"отвъд":11784,"prom":11785,"разрешение":11786,"ряз":11787,"междуинституциона":11788,"гледи":11789,"сигурно":11790,"Набу":11791,"тираме":11792,"пенса":11793,"истината":11794,"безопа":11795,"докладчици":11796,"ucco":11797,"променим":11798,"founded":11799,"човешките":11800,"влизане":11801,"завърша":11802,"завърши":11803,"Obviously":11804,"комисии":11805,"stimulate":11806,"опасенията":11807,"unique":11808,"линии":11809,"фармацевти":11810,"Hamas":11811,"Nabucco":11812,"Набуко":11813,"95":11814,"Van":11815,"bile":11816,"дж":11817,"йските":11818,"свръх":11819,"insufficient":11820,"inadequate":11821,"вати":11822,"данието":11823,"поред":11824,"отчасти":11825,"съхране":11826,"моментът":11827,"приложат":11828,"augh":11829,"indirect":11830,"firms":11831,"основан":11832,"направили":11833,"summer":11834,"уверим":11835,"опитите":11836,"кажете":11837,"organise":11838,"instability":11839,"парични":11840,"chemical":11841,"Хамас":11842,"оценява":11843,"техническа":11844,"интегриране":11845,"killed":11846,"установени":11847,"делегация":11848,"consolidation":11849,"противоречие":11850,"abolition":11851,"described":11852,"демонстрира":11853,"Subject":11854,"route":11855,"battle":11856,"fire":11857,"gers":11858,"sac":11859,"sory":11860,"vens":11861,"Всяка":11862,"Свобо":11863,"вска":11864,"фона":11865,"заплащане":11866,"лизират":11867,"образу":11868,"син":11869,"моз":11870,"подготовка":11871,"mobile":11872,"хай":11873,"manag":11874,"string":11875,"Засе":11876,"sake":11877,"използвам":11878,"implic":11879,"съответната":11880,"търговската":11881,"ictory":11882,"Rompu":11883,"плащанията":11884,"promises":11885,"retire":11886,"пенсиите":11887,"integrate":11888,"ключовите":11889,"indicate":11890,"conventions":11891,"професионално":11892,"defending":11893,"територии":11894,"ratified":11895,"първоначално":11896,"волята":11897,"осъществяването":11898,"adverse":11899,"научноизследователска":11900,"orientation":11901,"couple":11902,"усеща":11903,"monopo":11904,"hunger":11905,"Rompuy":11906,"ding":11907,"Три":11908,"зву":11909,"inno":11910,"ancy":11911,"era":11912,"кое":11913,"ческият":11914,"домо":11915,"пел":11916,"havens":11917,"accompan":11918,"apart":11919,"foot":11920,"глад":11921,"гласо":11922,"disabled":11923,"служат":11924,"сигурна":11925,"leged":11926,"представим":11927,"petition":11928,"Sovi":11929,"организациите":11930,"заседания":11931,"warm":11932,"взаим":11933,"проведем":11934,"judge":11935,"предложим":11936,"maternity":11937,"deaths":11938,"items":11939,"бивша":11940,"редовно":11941,"Malm":11942,"execut":11943,"Islamic":11944,"единодушно":11945,"уеб":11946,"преференции":11947,"облагодетелства":11948,"67":11949,"Function":11950,"Nat":11951,"None":11952,"dr":11953,"elig":11954,"Сре":11955,"мят":11956,"неред":11957,"stance":11958,"преван":11959,"провали":11960,"доходите":11961,"излага":11962,"determ":11963,"partly":11964,"pleas":11965,"председателства":11966,"creative":11967,"представен":11968,"казал":11969,"afraid":11970,"човече":11971,"определим":11972,"разисква":11973,"реализира":11974,"описа":11975,"persist":11976,"желаем":11977,"197":11978,"собствения":11979,"Малм":11980,"данъчно":11981,"съжалявам":11982,"combined":11983,"езика":11984,"jointly":11985,"опрости":11986,"военните":11987,"reflects":11988,"facilitating":11989,"patient":11990,"естество":11991,"exerc":11992,"минимални":11993,"popular":11994,"candidates":11995,"задължителни":11996,"пребиваване":11997,"нефт":11998,"градовете":11999,"злоупотреби":12000,"aspir":12001,"explanations":12002,"recipro":12003,"Тайван":12004,"alarming":12005,"Regarding":12006,"Malmström":12007,"determine":12008,"Ro":12009,"gross":12010,"кс":12011,"пру":12012,"упо":12013,"нация":12014,"поти":12015,"stations":12016,"съве":12017,"деля":12018,"обед":12019,"became":12020,"скри":12021,"шената":12022,"дървен":12023,"Западна":12024,"търпи":12025,"site":12026,"dramatic":12027,"компенса":12028,"увеличат":12029,"ангажирани":12030,"joined":12031,"Проце":12032,"данъчни":12033,"прозрачен":12034,"expan":12035,"educational":12036,"142":12037,"натиска":12038,"potentially":12039,"older":12040,"equival":12041,"полезни":12042,"договора":12043,"хуманитарната":12044,"journe":12045,"coherence":12046,"атмо":12047,"believes":12048,"идват":12049,"недвусмисле":12050,"белгийското":12051,"compulsory":12052,"accompanied":12053,"Малмстрьом":12054,"wo":12055,"zon":12056,"Спе":12057,"throw":12058,"тестове":12059,"непълно":12060,"oring":12061,"ченото":12062,"arer":12063,"embar":12064,"kets":12065,"ходни":12066,"имах":12067,"членството":12068,"исканията":12069,"reported":12070,"вления":12071,"произхода":12072,"welcomes":12073,"providers":12074,"procedural":12075,"сериозните":12076,"използван":12077,"Протоко":12078,"милион":12079,"обществения":12080,"поети":12081,"promise":12082,"fortunate":12083,"връщането":12084,"оператори":12085,"съсредоточи":12086,"volat":12087,"sending":12088,"territories":12089,"Does":12090,"extraordinary":12091,"rapidly":12092,"occurred":12093,"данъкоплатци":12094,"провал":12095,"изрично":12096,"Мексико":12097,"преобладава":12098,"shortcomings":12099,"Functioning":12100,"Lab":12101,"Lond":12102,"Treat":12103,"bill":12104,"mun":12105,"Вър":12106,"торът":12107,"вашите":12108,"ращи":12109,"itzer":12110,"entities":12111,"договорите":12112,"предход":12113,"abuses":12114,"имахме":12115,"Innovation":12116,"куп":12117,"ключително":12118,"transit":12119,"работен":12120,"fragment":12121,"интересу":12122,"намерение":12123,"Прое":12124,"Рез":12125,"предлагаме":12126,"scen":12127,"широка":12128,"осъжда":12129,"изправен":12130,"heading":12131,"1999":12132,"distin":12133,"хармонизиране":12134,"специфичните":12135,"решителни":12136,"тютю":12137,"научноизследователската":12138,"етикетиране":12139,"gradually":12140,"EEAS":12141,"Убеден":12142,"conservation":12143,"Goals":12144,"Велико":12145,"London":12146,"Most":12147,"wind":12148,"Есте":12149,"Чу":12150,"помежду":12151,"посвете":12152,"зали":12153,"town":12154,"arians":12155,"вида":12156,"iles":12157,"доз":12158,"призове":12159,"размера":12160,"ряд":12161,"uncertainty":12162,"neo":12163,"mistakes":12164,"възможе":12165,"plat":12166,"clarity":12167,"пун":12168,"ограничен":12169,"отговорностите":12170,"бърз":12171,"идеа":12172,"нарушават":12173,"advice":12174,"намирането":12175,"стратегическа":12176,"Надяваме":12177,"равнопоста":12178,"показаха":12179,"Необходима":12180,"Switzer":12181,"indicated":12182,"подготвени":12183,"повторя":12184,"смъртта":12185,"задачата":12186,"мрежата":12187,"занимава":12188,"предотвратим":12189,"пренебрегва":12190,"exec":12191,"наркотици":12192,"психи":12193,"банани":12194,"Създаването":12195,"долара":12196,"earthquake":12197,"възможен":12198,"Switzerland":12199,"aqu":12200,"mers":12201,"рациона":12202,"новият":12203,"стки":12204,"подава":12205,"каса":12206,"отправи":12207,"rog":12208,"съдействие":12209,"ряда":12210,"искате":12211,"hosp":12212,"Нашите":12213,"funded":12214,"анса":12215,"whereby":12216,"surround":12217,"успее":12218,"ограниченията":12219,"accountability":12220,"failing":12221,"технологиите":12222,"warming":12223,"cheap":12224,"broader":12225,"капитало":12226,"оратори":12227,"гледаме":12228,"британия":12229,"двустранните":12230,"направите":12231,"неблагоприятно":12232,"гресивния":12233,"ruling":12234,"usual":12235,"бариери":12236,"недостиг":12237,"удоволствие":12238,"stuffs":12239,"Soviet":12240,"expansion":12241,"Резулта":12242,"Великобритания":12243,"Ber":12244,"CC":12245,"Pre":12246,"Southern":12247,"Wed":12248,"bes":12249,"fre":12250,"ield":12251,"night":12252,"og":12253,"rational":12254,"ленията":12255,"пречка":12256,"began":12257,"източ":12258,"protest":12259,"старите":12260,"cific":12261,"политиците":12262,"predict":12263,"националната":12264,"министри":12265,"компонен":12266,"closing":12267,"увеличим":12268,"храната":12269,"периоди":12270,"сложни":12271,"изразявам":12272,"Първата":12273,"трансфе":12274,"правки":12275,"работещи":12276,"safeguarding":12277,"португа":12278,"Настоящият":12279,"споделям":12280,"рецесия":12281,"изградим":12282,"произтичащи":12283,"excluded":12284,"Сахара":12285,"Миналата":12286,"Labour":12287,"Wednes":12288,"Pri":12289,"pict":12290,"Тър":12291,"врата":12292,"ест":12293,"намо":12294,"asion":12295,"oman":12296,"готова":12297,"дон":12298,"reserv":12299,"lie":12300,"часа":12301,"бит":12302,"финансите":12303,"сяването":12304,"Каза":12305,"ideo":12306,"continuation":12307,"резултата":12308,"ционното":12309,"последователно":12310,"инициативите":12311,"advanced":12312,"periods":12313,"обсъжданията":12314,"изследванията":12315,"задам":12316,"амбициозен":12317,"сключване":12318,"adapted":12319,"Having":12320,"уязвими":12321,"кампани":12322,"несоха":12323,"frequently":12324,"уебса":12325,"Wednesday":12326,"48":12327,"Cur":12328,"bia":12329,"Енер":12330,"устрой":12331,"хези":12332,"recycl":12333,"похва":12334,"outer":12335,"девет":12336,"сама":12337,"ulf":12338,"cope":12339,"Европол":12340,"persecution":12341,"upd":12342,"финансират":12343,"структурата":12344,"инвестираме":12345,"facility":12346,"prevail":12347,"Прогресивния":12348,"културното":12349,"споменахте":12350,"надесет":12351,"текстът":12352,"заемат":12353,"налагат":12354,"alongside":12355,"advantaged":12356,"зависимостта":12357,"зербай":12358,"краткосрочен":12359,"минути":12360,"потребление":12361,"университетите":12362,"джан":12363,"Guant":12364,"chapter":12365,"Алианса":12366,"250":12367,"CIT":12368,"Open":12369,"SIS":12370,"nar":12371,"sought":12372,"south":12373,"ána":12374,"Исти":12375,"ологи":12376,"очевид":12377,"настро":12378,"тео":12379,"реден":12380,"лей":12381,"ases":12382,"assum":12383,"тивна":12384,"обмена":12385,"синя":12386,"число":12387,"върна":12388,"tric":12389,"Through":12390,"Състав":12391,"частните":12392,"сърце":12393,"законодателната":12394,"съществуването":12395,"регионална":12396,"вътрешно":12397,"prag":12398,"deals":12399,"Мадейра":12400,"athy":12401,"Четвър":12402,"stressed":12403,"заети":12404,"одобрението":12405,"разделение":12406,"загрижеността":12407,"decline":12408,"идентичност":12409,"removed":12410,"Budgets":12411,"християни":12412,"рецикли":12413,"преструктуриране":12414,"Гуанта":12415,"Одобряване":12416,"sorry":12417,"ILO":12418,"dumping":12419,"detention":12420,"човечеството":12421,"Guantána":12422,"Гуантанамо":12423,"Guantánamo":12424,"38":12425,"Lank":12426,"Sri":12427,"Добре":12428,"Лан":12429,"Лон":12430,"ШИС":12431,"ели":12432,"епи":12433,"пък":12434,"явно":12435,"нави":12436,"atically":12437,"заги":12438,"нестабилност":12439,"корабо":12440,"отре":12441,"отрази":12442,"изслуша":12443,"приноса":12444,"abort":12445,"подчи":12446,"гласа":12447,"разумни":12448,"финансовото":12449,"presentation":12450,"интересно":12451,"проведат":12452,"финансирани":12453,"намерението":12454,"hopefully":12455,"насоча":12456,"допълнителен":12457,"критику":12458,"suppli":12459,"чувство":12460,"проучи":12461,"Необходими":12462,"consistently":12463,"парламентарна":12464,"falls":12465,"сравните":12466,"произвеждат":12467,"vocational":12468,"разнообразието":12469,"последователна":12470,"засилим":12471,"incident":12472,"нападения":12473,"отдалечените":12474,"журналисти":12475,"осведомеността":12476,"scrutiny":12477,"корпорати":12478,"пестици":12479,"Madeira":12480,"Sup":12481,"ah":12482,"bab":12483,"cú":12484,"fun":12485,"iver":12486,"igu":12487,"nier":12488,"мюсюл":12489,"югосла":12490,"точни":12491,"пострада":12492,"леното":12493,"прости":12494,"пропус":12495,"secur":12496,"предло":12497,"Europol":12498,"върнат":12499,"Съжа":12500,"answered":12501,"можеше":12502,"кун":12503,"grass":12504,"ценно":12505,"представа":12506,"undertake":12507,"стойността":12508,"реален":12509,"резултатът":12510,"инвестират":12511,"confident":12512,"гражданската":12513,"Barnier":12514,"profound":12515,"elderly":12516,"зададен":12517,"очаквания":12518,"tonnes":12519,"поддържане":12520,"Cancú":12521,"капитала":12522,"възползваме":12523,"застрашава":12524,"изключения":12525,"нататъшни":12526,"квалификация":12527,"incentive":12528,"искрено":12529,"спестя":12530,"endorsed":12531,"Treaties":12532,"outermost":12533,"Cancún":12534,"Guine":12535,"Pa":12536,"blo":12537,"Азербай":12538,"Шри":12539,"ули":12540,"шо":12541,"поражда":12542,"anda":12543,"отказва":12544,"пропа":12545,"sell":12546,"принужда":12547,"логията":12548,"rigor":12549,"makers":12550,"cred":12551,"disadvantaged":12552,"ползите":12553,"стъра":12554,"определение":12555,"сътрудничат":12556,"Изключително":12557,"нуждата":12558,"екзе":12559,"roads":12560,"другата":12561,"глобална":12562,"scand":12563,"наблюдаваме":12564,"гориво":12565,"препоръка":12566,"пътищата":12567,"erbai":12568,"simplified":12569,"лицето":12570,"управляват":12571,"спектър":12572,"adaptation":12573,"приятели":12574,"motiv":12575,"нататъшното":12576,"сексуална":12577,"делегацията":12578,"предимства":12579,"алтернатива":12580,"формулиро":12581,"Зелената":12582,"изоли":12583,"bankrupt":12584,"deadline":12585,"замърсяването":12586,"положим":12587,"железопътния":12588,"купуват":12589,"концепция":12590,"drugs":12591,"майчинство":12592,"Azerbai":12593,"Канкун":12594,"изправена":12595,"retirement":12596,"Върхо":12597,"португал":12598,"Ланка":12599,"Azerbaijan":12600,"Feder":12601,"mus":12602,"wides":12603,"уместно":12604,"натру":12605,"reaf":12606,"рав":12607,"отстоя":12608,"отпуск":12609,"село":12610,"лацията":12611,"склон":12612,"пан":12613,"reserves":12614,"менят":12615,"следният":12616,"главните":12617,"основното":12618,"трудна":12619,"marking":12620,"тирана":12621,"rela":12622,"сегашния":12623,"направихме":12624,"frag":12625,"увеличават":12626,"pays":12627,"двамата":12628,"присъствието":12629,"престъпността":12630,"развиващи":12631,"препоръката":12632,"listened":12633,"Like":12634,"решаваща":12635,"Демо":12636,"водещата":12637,"models":12638,"съкратени":12639,"запазят":12640,"произвежда":12641,"motor":12642,"отчитат":12643,"появи":12644,"consolidate":12645,"комисиите":12646,"stimul":12647,"тенденция":12648,"homes":12649,"expertise":12650,"секретар":12651,"Quest":12652,"Progressive":12653,"Consumer":12654,"прагмати":12655,"collapse":12656,"пристраст":12657,"disparities":12658,"Азербайджан":12659,"widespread":12660,"Cr":12661,"pestic":12662,"til":12663,"Мла":12664,"Пла":12665,"устен":12666,"infe":12667,"ске":12668,"примера":12669,"imer":12670,"стоен":12671,"exc":12672,"Common":12673,"artic":12674,"outlined":12675,"requis":12676,"Associ":12677,"signs":12678,"чух":12679,"срока":12680,"присъствие":12681,"учат":12682,"Вашите":12683,"ъмп":12684,"миграция":12685,"Again":12686,"екологична":12687,"Socialist":12688,"законите":12689,"смисле":12690,"Съгласна":12691,"разбират":12692,"clearer":12693,"larger":12694,"редовни":12695,"оправдано":12696,"доставчици":12697,"омбудсмана":12698,"repeatedly":12699,"imperative":12700,"Фонда":12701,"electoral":12702,"Атлантическия":12703,"затопляне":12704,"hospital":12705,"хезион":12706,"43":12707,"La":12708,"aks":12709,"fit":12710,"scept":12711,"ux":12712,"wages":12713,"woman":12714,"Гви":12715,"Рам":12716,"абор":12717,"опла":12718,"хран":12719,"наше":12720,"наложени":12721,"ona":12722,"тона":12723,"радва":12724,"ende":12725,"деми":12726,"мин":12727,"мита":12728,"някакви":12729,"щастие":12730,"турата":12731,"covers":12732,"краи":12733,"Parliamentary":12734,"единно":12735,"единство":12736,"responses":12737,"предоставена":12738,"engaged":12739,"налични":12740,"intergovernmental":12741,"joining":12742,"wording":12743,"включена":12744,"критика":12745,"foundation":12746,"достиженията":12747,"техническите":12748,"Сирия":12749,"злоупотреба":12750,"марш":12751,"изказването":12752,"orizon":12753,"Действите":12754,"advocate":12755,"ecological":12756,"briefly":12757,"watch":12758,"perfectly":12759,"суровини":12760,"форум":12761,"бенефицие":12762,"endeav":12763,"Sar":12764,"Time":12765,"Year":12766,"вността":12767,"дро":12768,"дъмп":12769,"очите":12770,"вате":12771,"enshr":12772,"стът":12773,"неправителствени":12774,"rig":12775,"страху":12776,"имали":12777,"disagree":12778,"contacts":12779,"ценни":12780,"justify":12781,"bot":12782,"matically":12783,"остави":12784,"позициите":12785,"recover":12786,"зирана":12787,"dependency":12788,"съществуващи":12789,"achievements":12790,"декс":12791,"съвместна":12792,"Конго":12793,"загубата":12794,"засягащи":12795,"въздушния":12796,"съдили":12797,"засилва":12798,"длъжни":12799,"covering":12800,"изпълним":12801,"етнически":12802,"тенденции":12803,"engagement":12804,"Тибет":12805,"stabilisation":12806,"избрани":12807,"консерватори":12808,"оттег":12809,"Бюдже":12810,"наблегна":12811,"College":12812,"hazardous":12813,"Заседанието":12814,"Лондон":12815,"Действително":12816,"DF":12817,"Dis":12818,"Four":12819,"Към":12820,"лот":12821,"фоку":12822,"resettlement":12823,"anks":12824,"поня":12825,"oured":12826,"arbit":12827,"продава":12828,"приви":12829,"liqu":12830,"хоокеан":12831,"covery":12832,"underlying":12833,"protein":12834,"humanity":12835,"общества":12836,"цял":12837,"местната":12838,"brid":12839,"considerably":12840,"contributes":12841,"promotes":12842,"priorit":12843,"corner":12844,"науката":12845,"данъка":12846,"refers":12847,"Бер":12848,"civilians":12849,"екологично":12850,"либерализация":12851,"грешките":12852,"застрашени":12853,"съдебни":12854,"пациенти":12855,"конституцията":12856,"suggested":12857,"professionals":12858,"последователност":12859,"отражение":12860,"авиокомпаниите":12861,"норми":12862,"нарастване":12863,"възпрепятства":12864,"punishment":12865,"ислям":12866,"imagine":12867,"traceability":12868,"маршру":12869,"Pers":12870,"Пе":12871,"бля":12872,"зма":12873,"сне":12874,"alia":12875,"водим":12876,"модели":12877,"forgot":12878,"depart":12879,"prospect":12880,"прикан":12881,"impet":12882,"unions":12883,"illust":12884,"iring":12885,"preser":12886,"земята":12887,"плане":12888,"Защото":12889,"предишните":12890,"втория":12891,"националния":12892,"минимум":12893,"engine":12894,"desirable":12895,"accounting":12896,"двига":12897,"emphasises":12898,"споделят":12899,"broadcast":12900,"volume":12901,"demonstrates":12902,"suggestions":12903,"разберат":12904,"светлина":12905,"автомобилния":12906,"избиратели":12907,"опростяването":12908,"задължителна":12909,"фалшифицирането":12910,"празни":12911,"innocent":12912,"scenar":12913,"picture":12914,"Съжалявам":12915,"скепти":12916,"impetus":12917,"EX":12918,"Gulf":12919,"award":12920,"billions":12921,"zhe":12922,"Ван":12923,"ото":12924,"сряда":12925,"улов":12926,"чта":12927,"нака":12928,"remed":12929,"remark":12930,"ensures":12931,"лизирани":12932,"пресата":12933,"презасел":12934,"дор":12935,"deliber":12936,"следим":12937,"ктори":12938,"земя":12939,"социалисти":12940,"защитаваме":12941,"особена":12942,"последък":12943,"everybody":12944,"lesson":12945,"located":12946,"съществуване":12947,"programming":12948,"planet":12949,"инструмента":12950,"убеждение":12951,"Alzhe":12952,"включен":12953,"съдържащи":12954,"USA":12955,"морска":12956,"emission":12957,"threatened":12958,"налагане":12959,"представителство":12960,"прекрати":12961,"възобновяемите":12962,"трансграничните":12963,"автомобилната":12964,"директно":12965,"статута":12966,"обяснения":12967,"последователни":12968,"атомни":12969,"Syria":12970,"задържане":12971,"статистически":12972,"скъпо":12973,"division":12974,"quote":12975,"доставчиците":12976,"детето":12977,"devast":12978,"exclusively":12979,"autonomy":12980,"революция":12981,"МОТ":12982,"equivalent":12983,"Естествено":12984,"Alzheimer":12985,"Abo":12986,"Gen":12987,"mag":12988,"nine":12989,"Лу":12990,"Фрон":12991,"окажем":12992,"хт":12993,"ane":12994,"посред":12995,"заложени":12996,"нените":12997,"кораб":12998,"меж":12999,"мета":13000,"личен":13001,"воар":13002,"изва":13003,"soil":13004,"notice":13005,"alling":13006,"prud":13007,"свърз":13008,"настоящият":13009,"основания":13010,"получаване":13011,"подчертаем":13012,"Вашия":13013,"player":13014,"ambigu":13015,"словото":13016,"започване":13017,"participating":13018,"избегнат":13019,"talked":13020,"временни":13021,"затвора":13022,"работещите":13023,"летие":13024,"investigations":13025,"взаимното":13026,"ефикасно":13027,"клони":13028,"отваряне":13029,"подкрепени":13030,"Communist":13031,"Очаквам":13032,"сблъскват":13033,"consultations":13034,"легитимност":13035,"dossier":13036,"Secretary":13037,"кампании":13038,"Above":13039,"600":13040,"Mo":13041,"SL":13042,"Край":13043,"ос":13044,"уника":13045,"цхай":13046,"натова":13047,"настъпи":13048,"ancies":13049,"попита":13050,"неравен":13051,"army":13052,"превенция":13053,"приложени":13054,"ърб":13055,"lifer":13056,"жалко":13057,"хори":13058,"знанието":13059,"класи":13060,"Поправки":13061,"decade":13062,"законодателно":13063,"законодателния":13064,"princip":13065,"violent":13066,"smaller":13067,"sequent":13068,"присъединят":13069,"caution":13070,"стриктно":13071,"Barcel":13072,"отговорът":13073,"засилено":13074,"отворени":13075,"професионалното":13076,"делика":13077,"цялостно":13078,"повторно":13079,"взаимодействие":13080,"Европейското":13081,"Алцхай":13082,"честно":13083,"ратифицира":13084,"пенсионните":13085,"живеещи":13086,"земеделието":13087,"satisfaction":13088,"излизане":13089,"Liberals":13090,"заемем":13091,"hypo":13092,"comparison":13093,"smoo":13094,"reveal":13095,"prompt":13096,"implications":13097,"югославска":13098,"екзеку":13099,"Гвинея":13100,"Barcelona":13101,"Алцхаймер":13102,"44":13103,"Nord":13104,"Rural":13105,"middle":13106,"къл":13107,"лът":13108,"вателните":13109,"enko":13110,"невин":13111,"ковете":13112,"отмяна":13113,"събира":13114,"образя":13115,"unit":13116,"сканда":13117,"shoc":13118,"страх":13119,"anticip":13120,"полицията":13121,"междуправител":13122,"държавитечленки":13123,"отговорим":13124,"subsequent":13125,"directed":13126,"оставя":13127,"informal":13128,"логично":13129,"paralle":13130,"регионалното":13131,"тристран":13132,"извършите":13133,"Малта":13134,"регламентите":13135,"обществен":13136,"грес":13137,"begun":13138,"полезен":13139,"катего":13140,"waiver":13141,"III":13142,"религията":13143,"надеждна":13144,"отлична":13145,"pressive":13146,"наречените":13147,"лидер":13148,"Социа":13149,"адекватни":13150,"диплома":13151,"отрицателно":13152,"pillars":13153,"permitted":13154,"домакин":13155,"percentage":13156,"irregularities":13157,"stringent":13158,"freight":13159,"Association":13160,".'":13161,"horizon":13162,"spring":13163,"ЕК":13164,"оказване":13165,"сложен":13166,"нах":13167,"incomes":13168,"attain":13169,"зало":13170,"необ":13171,"метри":13172,"отгле":13173,"stages":13174,"лената":13175,"лик":13176,"съпру":13177,"decommission":13178,"разработе":13179,"бъдете":13180,"ends":13181,"cla":13182,"англи":13183,"начините":13184,"бюджетите":13185,"fires":13186,"sectoral":13187,"пазарът":13188,"жителите":13189,"examined":13190,"carious":13191,"собствен":13192,"Моята":13193,"гражданско":13194,"функция":13195,"баланса":13196,"широката":13197,"избора":13198,"stresses":13199,"заетите":13200,"strictly":13201,"полагаме":13202,"emerge":13203,"Democratic":13204,"военно":13205,"contrast":13206,"мобилизирането":13207,"зависими":13208,"delegated":13209,"съгласуваност":13210,"names":13211,"presidential":13212,"посети":13213,"campaigns":13214,"enables":13215,"oriented":13216,"features":13217,"Барсело":13218,"изтеза":13219,"млеко":13220,"реципро":13221,"categor":13222,"Corre":13223,"предпоставка":13224,"accurate":13225,"Guinea":13226,"Pacific":13227,".\"":13228,"RE":13229,"rated":13230,"uments":13231,"zy":13232,"кване":13233,"навреме":13234,"реда":13235,"лай":13236,"asser":13237,"претен":13238,"section":13239,"прило":13240,"resc":13241,"разговаря":13242,"unified":13243,"unfortunate":13244,"notably":13245,"residence":13246,"amentally":13247,"ured":13248,"marketing":13249,"специалисти":13250,"жители":13251,"успешна":13252,"afternoon":13253,"екстреми":13254,"preventive":13255,"clarification":13256,"поддържането":13257,"успяха":13258,"предизвикателството":13259,"hardly":13260,"водещи":13261,"Because":13262,"mobilise":13263,"схема":13264,"индустрия":13265,"клаузи":13266,"приложение":13267,"рибните":13268,"simplifying":13269,"британски":13270,"surprised":13271,"федерация":13272,"compete":13273,"инциден":13274,"trend":13275,"чуждестранни":13276,"travelling":13277,"crops":13278,"трагедия":13279,"погрешно":13280,"басейн":13281,"forgotten":13282,"liferation":13283,"Par":13284,"Sm":13285,"cking":13286,"gs":13287,"ky":13288,"psy":13289,"Есто":13290,"Сед":13291,"ените":13292,"илю":13293,"кват":13294,"юг":13295,"яни":13296,"recast":13297,"repression":13298,"тотали":13299,"откро":13300,"arise":13301,"het":13302,"liked":13303,"nel":13304,"щатски":13305,"Комите":13306,"cooper":13307,"codif":13308,"partial":13309,"observe":13310,"лник":13311,"cessions":13312,"marine":13313,"вление":13314,"прилагаме":13315,"селски":13316,"причинява":13317,"инвестиционни":13318,"клиен":13319,"отделен":13320,"recognises":13321,"focuses":13322,"Раб":13323,"самбле":13324,"infrastructures":13325,"adequately":13326,"messages":13327,"участващи":13328,"influen":13329,"приятел":13330,"квалифика":13331,"отразяват":13332,"схеми":13333,"капацитета":13334,"универса":13335,"Malta":13336,"интелектуалната":13337,"неизбежно":13338,"pipeline":13339,"съоръжения":13340,"Барселона":13341,"Corrections":13342,"85":13343,"Home":13344,"Man":13345,"game":13346,"gory":13347,"lacking":13348,"pil":13349,"Мини":13350,"кият":13351,"inside":13352,"reconciliation":13353,"нита":13354,"негати":13355,"комен":13356,"edge":13357,"водата":13358,"промяната":13359,"illegally":13360,"целя":13361,"exposed":13362,"спорта":13363,"acted":13364,"основния":13365,"voters":13366,"pressed":13367,"prescri":13368,"precarious":13369,"ownership":13370,"Доха":13371,"регистър":13372,"cussions":13373,"прилагани":13374,"interference":13375,"бедствието":13376,"representing":13377,"Congo":13378,"данъците":13379,"организацията":13380,"другаде":13381,"технология":13382,"селскостопанската":13383,"experiences":13384,"чувстват":13385,"администрацията":13386,"heads":13387,"Доклад":13388,"превърнат":13389,"засилването":13390,"съдебна":13391,"safeguards":13392,"Doha":13393,"badly":13394,"предстоящите":13395,"ignored":13396,"Икономическата":13397,"персонала":13398,"hopes":13399,"индустриа":13400,"неолибера":13401,"работодателите":13402,"телевизи":13403,"divided":13404,"pluralism":13405,"Уважаеми":13406,"Budgetary":13407,"богатите":13408,"volatility":13409,"Търго":13410,"stimulus":13411,"тоталита":13412,"IN":13413,"iable":13414,"lin":13415,"tong":13416,"uries":13417,"идните":13418,"atmo":13419,"ренията":13420,"поредица":13421,"заоби":13422,"отиде":13423,"премест":13424,"тибет":13425,"depri":13426,"бъл":13427,"apers":13428,"cot":13429,"dual":13430,"дълги":13431,"глави":13432,"disproportionate":13433,"disastr":13434,"umn":13435,"monito":13436,"ideal":13437,"whereas":13438,"транзи":13439,"migrant":13440,"considerations":13441,"Бихме":13442,"означават":13443,"foods":13444,"разбираме":13445,"разпоредба":13446,"Youth":13447,"заплаш":13448,"препоръчва":13449,"живеем":13450,"трансплан":13451,"кредитиране":13452,"полагат":13453,"санкциите":13454,"shape":13455,"Northern":13456,"Споразумение":13457,"diversification":13458,"transferred":13459,"свободната":13460,"продоволствена":13461,"observed":13462,"lobally":13463,"sales":13464,"чувствителни":13465,"floods":13466,"впечатлението":13467,"усъвършенства":13468,"средносрочен":13469,"democratisation":13470,"Очакваме":13471,"наводнения":13472,"зонта":13473,"мотиви":13474,"многообразие":13475,"copy":13476,"jurisdiction":13477,"aspirations":13478,"касае":13479,"Geneva":13480,"Естония":13481,"monitored":13482,"дри":13483,"replaced":13484,"попада":13485,"bee":13486,"image":13487,"възму":13488,"вярва":13489,"контра":13490,"tration":13491,"исках":13492,"disadvantage":13493,"pressing":13494,"prerequis":13495,"father":13496,"безработни":13497,"relate":13498,"сегашните":13499,"сътрудничи":13500,"brut":13501,"vessels":13502,"текс":13503,"mix":13504,"parad":13505,"Recovery":13506,"Бирма":13507,"phone":13508,"становища":13509,"showed":13510,"сметки":13511,"defining":13512,"extremis":13513,"семейство":13514,"рибарство":13515,"добави":13516,"регулира":13517,"falling":13518,"fourth":13519,"абсур":13520,"Вероят":13521,"totalitarian":13522,"трансгранични":13523,"Engl":13524,"Indust":13525,"vehicle":13526,"излезем":13527,"суверен":13528,"квотите":13529,"exemption":13530,"медицински":13531,"abortion":13532,"blood":13533,"краищата":13534,"Фронтекс":13535,"disastrous":13536,"English":13537,"fur":13538,"globally":13539,"ores":13540,"Во":13541,"Ивоар":13542,"Кот":13543,"Му":13544,"аква":13545,"емост":13546,"опозиция":13547,"пьо":13548,"вашето":13549,"пореден":13550,"замени":13551,"чеви":13552,"stan":13553,"обстано":13554,"ински":13555,"missing":13556,"Presidents":13557,"struck":13558,"differ":13559,"presenting":13560,"afi":13561,"debts":13562,"regulating":13563,"способна":13564,"establishes":13565,"двама":13566,"демократичната":13567,"убедена":13568,"намаляват":13569,"отдели":13570,"иновативни":13571,"събитие":13572,"посланието":13573,"повторното":13574,"информирани":13575,"condemned":13576,"бележки":13577,"поемем":13578,"честни":13579,"електронно":13580,"количество":13581,"diox":13582,"discriminatory":13583,"Otherwise":13584,"category":13585,"dictatorship":13586,"marginal":13587,"Сигурен":13588,"Estonia":13589,"Струва":13590,"Ромпьо":13591,"бляга":13592,"хоризонта":13593,"clauses":13594,"Ромпьой":13595,"Fron":13596,"Two":13597,"fing":13598,"plic":13599,"ya":13600,"Жене":13601,"Рен":13602,"ущ":13603,"уст":13604,"reper":13605,"reverse":13606,"atal":13607,"загла":13608,"залив":13609,"iced":13610,"събе":13611,"vey":13612,"pel":13613,"проф":13614,"semin":13615,"доказва":13616,"convic":13617,"liability":13618,"стари":13619,"cha":13620,"advis":13621,"безна":13622,"графи":13623,"shar":13624,"finish":13625,"istical":13626,"тъква":13627,"пълните":13628,"важният":13629,"privi":13630,"връзките":13631,"banana":13632,"практиката":13633,"ограничена":13634,"refuse":13635,"Разби":13636,"наблюдението":13637,"достигне":13638,"Междувременно":13639,"единственото":13640,"нужни":13641,"blame":13642,"нарасна":13643,"хармонизация":13644,"analyse":13645,"съобразни":13646,"drive":13647,"одобрен":13648,"strike":13649,"газопро":13650,"deploy":13651,"внасяне":13652,"изпитват":13653,"драмати":13654,"drafted":13655,"младежта":13656,"gradual":13657,"годишнина":13658,"дипломатически":13659,"християните":13660,"thoroughly":13661,"дребно":13662,"breaches":13663,"убеждения":13664,"variety":13665,"Колкото":13666,"настаняване":13667,"еколого":13668,"Current":13669,"recycling":13670,"narrow":13671,"tongue":13672,"ущърб":13673,"46":13674,"Clo":13675,"Far":13676,"Gadd":13677,"сната":13678,"сравни":13679,"уку":13680,"учени":13681,"напуска":13682,"застъп":13683,"itative":13684,"моят":13685,"изгради":13686,"ганда":13687,"opt":13688,"инста":13689,"feas":13690,"stry":13691,"ствения":13692,"disappointed":13693,"Национа":13694,"отговорна":13695,"услож":13696,"Причи":13697,"banned":13698,"положат":13699,"световни":13700,"гражданство":13701,"subjected":13702,"cape":13703,"селскостопанския":13704,"засегнат":13705,"беляз":13706,"listening":13707,"убежища":13708,"wake":13709,"distance":13710,"амбициозно":13711,"експлоа":13712,"координиране":13713,"повдига":13714,"president":13715,"комуникация":13716,"learnt":13717,"citizenship":13718,"доброволно":13719,"attractive":13720,"избран":13721,"coastal":13722,"многобройни":13723,"многобройните":13724,"проследяване":13725,"неприкосновеност":13726,"Climate":13727,"sacrific":13728,"reservations":13729,"Opening":13730,"functions":13731,"scandal":13732,"repercussions":13733,"Gaddafi":13734,"37":13735,"LV":13736,"Spe":13737,"fals":13738,"iat":13739,"Ора":13740,"дафи":13741,"ensible":13742,"ert":13743,"корен":13744,"сем":13745,"пропу":13746,"въл":13747,"изди":13748,"Their":13749,"класа":13750,"добли":13751,"pretext":13752,"приетите":13753,"persu":13754,"зени":13755,"train":13756,"guard":13757,"timetable":13758,"Кадафи":13759,"фали":13760,"намалена":13761,"продукция":13762,"refused":13763,"транспортна":13764,"рибарите":13765,"flee":13766,"назначаването":13767,"satisf":13768,"произведени":13769,"Отново":13770,"териториалното":13771,"трудови":13772,"жилища":13773,"десетилетие":13774,"born":13775,"наложително":13776,"resistance":13777,"slaugh":13778,"CITES":13779,"pragmatic":13780,"liquid":13781,"rescue":13782,"Вероятно":13783,"Ivo":13784,"Me":13785,"east":13786,"ij":13787,"nom":13788,"oto":13789,"pul":13790,"vit":13791,"ventions":13792,"Бор":13793,"thres":13794,"inational":13795,"ница":13796,"atures":13797,"заплащането":13798,"отча":13799,"icated":13800,"съгласуване":13801,"мало":13802,"масово":13803,"изложи":13804,"ham":13805,"ular":13806,"лята":13807,"aculture":13808,"misleading":13809,"следобед":13810,"пира":13811,"forestry":13812,"спешни":13813,"faire":13814,"безпла":13815,"invited":13816,"социал":13817,"fundamentally":13818,"регистра":13819,"basically":13820,"systematic":13821,"подобрява":13822,"оставим":13823,"foodstuffs":13824,"sincerely":13825,"expressing":13826,"subjects":13827,"движе":13828,"документите":13829,"fails":13830,"заплати":13831,"полезна":13832,"тероризъм":13833,"Дневен":13834,"fishery":13835,"етапи":13836,"connections":13837,"coordinating":13838,"подготви":13839,"балансирано":13840,"тревога":13841,"regularly":13842,"relationships":13843,"label":13844,"autumn":13845,"Japanese":13846,"ratings":13847,"occupation":13848,"Area":13849,"изчез":13850,"своевременно":13851,"grassroots":13852,"Frontex":13853,"56":13854,"GSP":13855,"Who":13856,"fal":13857,"ps":13858,"Опреде":13859,"есен":13860,"чваме":13861,"пора":13862,"каните":13863,"изкопа":13864,"resum":13865,"подновя":13866,"държим":13867,"държавната":13868,"харта":13869,"спекта":13870,"плати":13871,"Досега":13872,"вул":13873,"solved":13874,"helpful":13875,"минира":13876,"получа":13877,"died":13878,"търговско":13879,"разяс":13880,"зираните":13881,"секторът":13882,"approaches":13883,"progressive":13884,"регламентът":13885,"Dec":13886,"културните":13887,"автоб":13888,"дългове":13889,"ITER":13890,"шенко":13891,"изготвен":13892,"разгледани":13893,"traditions":13894,"паричен":13895,"avoiding":13896,"спира":13897,"substanti":13898,"разпределяне":13899,"отлично":13900,"компетентността":13901,"остров":13902,"милиарди":13903,"традиции":13904,"административната":13905,"Настоящата":13906,"забрани":13907,"схемата":13908,"корупция":13909,"fuels":13910,"estimates":13911,"вредни":13912,"quota":13913,"географски":13914,"iciary":13915,"преодолеем":13916,"сетне":13917,"брутния":13918,"отчетност":13919,"верига":13920,"удължаване":13921,"exceptions":13922,"Reding":13923,"равновесие":13924,"Гражданите":13925,"Legal":13926,"непълноле":13927,"Support":13928,"Демокра":13929,"Разбирам":13930,"99":13931,"Citiz":13932,"dden":13933,"rical":13934,"Йор":13935,"Редин":13936,"вките":13937,"лството":13938,"шу":13939,"яват":13940,"назначение":13941,"inians":13942,"atab":13943,"попадат":13944,"нестабилността":13945,"серти":13946,"север":13947,"съвест":13948,"cture":13949,"мирно":13950,"стата":13951,"подце":13952,"стоките":13953,"moreover":13954,"forecast":13955,"зелен":13956,"произво":13957,"здравно":13958,"насочи":13959,"стабилизира":13960,"трибу":13961,"faces":13962,"научи":13963,"accountable":13964,"активното":13965,"службата":13966,"Polit":13967,"освободени":13968,"multinational":13969,"изявленията":13970,"containing":13971,"военна":13972,"разпределението":13973,"shares":13974,"загрижени":13975,"координира":13976,"enhancing":13977,"Никой":13978,"declare":13979,"ЕФР":13980,"manufacturing":13981,"diplomacy":13982,"Sloven":13983,"spectrum":13984,"печалби":13985,"транспонирането":13986,"коригира":13987,"imperial":13988,"напрежение":13989,"survival":13990,"суверенитет":13991,"обезщетение":13992,"neoliberal":13993,"fragile":13994,"Crim":13995,"enshrined":13996,
[...]
